BF2F5FF4
BEC4FC15
3D2F677D
BE8FE34B
BEA3C393
BF2785F9
BC03AB9F
BE94330A
3E4415B4
BF308870
BF271222
BF002A74
BEF76569
BE3F1E61
3DC19A87
3E6F4BB7
3C27E23C
BE6D06F1
BE89D5B2
BE7E8B3F
BF25363E
3E5C4CED
BCCA7D26
3D6FAEA7
3EA71203
3DD7EC09
BF118429
3E207DA9
BEE21C74
BEBF240F
BEA4DE0F
3DC81301
3E1AF17F
3DA80F6A
3D127A12
BF29A841
BE52DF28
BE47C0EF
BEF19DFC
BD43EC80
BEBF8D6E
BE393862
BF2FC1C8
3DB5EC0A
BE4B273B
BEAD0DC7
BEB6C07F
BE8B0C55
3EDABD16
BEEDE217
BE90E936
3D040176
3E21EBA6
BE008AB9
BE0FF92A
3D43083F
BE198F86
3D45BE6B
BDF6BB95
BDA5CFD0
3D1D761D
BEA4C3E3
BCC4E38B
3E8C6CBE
BE4E1D9E
BE2CCFF2
BE31F417
BE314F4E
3E327363
BE60C365
BE55F44B
3C06AA6B
BE239C76
BE24678C
BD5426A9
BDF790B0
3E1E18CB
3DC2C78C
3D1F5C91
3DB36ACB
BE68A4A4
3DF0013E
BEE78513
BEB551D5
BF3A2585
3D782035
BF36AF4C
BE9CE815
BCD5BE64
BE302D6C
BEB722B0
BF2E9615
BF89A961
BEDC795A
BF5FB515
3E32B4DB
3B827568
BE9A1060
3F298AA7
BEB7122B
BD375038
3E7E4127
3E3D8152
3E96313D
BF227791
3E502266
BE7424BA
BDE69EA0
BE8E26C3
BDD4547B
BD1B977E
3D9EF188
3E84E7E4
3DD7D66B
BEB62995
BEBFAD5E
BCBF3143
BE9CAF96
BF7657AD
3E835EF1
BEA9DBA3
BEC62D24
BE0A3824
BE5C9144
BE909BE7
BB561292
BDB7C599
BE9E51BD
BB8169F3
3D9DE931
3D6F902C
BE1A3EEC
BE991332
3E283BD6
BF27D687
3DCE2E77
BED11DDA
3E58D16C
BE9826B1
3E95D7DF
BF098A3A
3DD8224D
3E7BD888
3EA1CE28
BEE54FAE
BE4EB9FA
BD8356AF
3E8CDC38
BDBAD5A4
BE37E7B4
3DF3D5FA
BE75F351
BE75E54C
BE93F10D
3E885935
BE9CECCD
BF8F270F
3E862597
3E2A5278
BF145419
BE971176
BE338533
BEFD582D
BD1D220F
BEC23B14
3ED1F807
BF126AC4
BEC70C8B
3D8C312F
BEDCF1C7
BECB7921
BCE536ED
BE93F9BB
BE8924F0
3B3FDFB1
BF33AA3A
BEF96C2B
BCF05B76
BF03EC6A
BE81202D
BD6C5BE7
BE5386EC
BE6E77B4
BE9E1E89
BE002A0C
BE920C37
3D8B2A84
3DD0D2B1
BE33AFCD
BE83E338
BF11C414
3E584879
3D7BC53C
3E6E96A4
BEE302D5
BF3D510B
3DDE3C22
3B96D9C7
3EB09F48
3D5DA1A8
BE8C0B50
3CCAB14B
BF0449A5
BEB75A3B
BF4CCB1E
BEF0EB83
3EA42552
BEE1CDD0
3EBE890C
BE87ADA9
BEAE9CC7
BF173DB0
BF0D0AB1
BF37D045
3DF35574
BD9668BA
3E5628D2
3E5BD7C4
3E16C669
3D71FF6B
3DB2012E
3EA4442B
BE6CD63B
3E6C66A1
BEAE01E9
BF036DF9
BE568F75
3BD8BB7E
3E85F1EB
BD88B65D
BEE2A581
BD319623
BE63FF9F
3C0D5847
BE01D3A4
3D32DFF7
BE91C3B8
3D432864
3D52B998
BE621064
3D166A17
BD8255EE
3DE6CA7D
BC913464
BD8BB55B
3CE10FDC
BE392500
BCB4B576
BE888FB4
BDFA5525
3DA475EB
BEB3DFE3
3E5D0A43
3D5A505C
BEAF722B
3DB9AAE7
BCC0DAE2
BE83F4EB
BF90F131
BF0ECD6E
BE58AEEF
BE58C8DC
BE965C0A
BE8119EB
BE6AC709
BE17B981
3CE15897
BDEB599F
BE5206D5
BE85F9AC
BF2BB73C
3E31BB8A
3E6C8341
BEF2065D
3E281453
3D83B30D
BD0969D2
BF68C460
3DE17CC5
3D3D52FB
3EE26015
3E6E4F6E
BD1825D6
BE7FED3F
BEAACDFD
BE9DEF7B
BF27B192
BD289F6C
BF3CB423
3D9C7071
BE732FAD
BE76C749
BE853560
BE1ECB98
3E1F89F4
BCAC1C6E
BE5593B5
3E0E6756
BE7EDA61
BC902920
3E595F48
BE4DBA88
BEB38AB5
3D1F1C5D
3CC1116E
3EB67068
BE4528CD
3E9A367C
3DDA8476
BF19421D
BF2718F7
BE266C4C
BE4899AA
BE4D4DFF
3E08FCDE
BE8C42C1
BE9077D9
3C444C40
BEAF2418
3EF327C1
3E93D638
3E1FBBE9
3EC8B293
BE885C4B
BDDAC029
BF04272B
BEA132C1
BE34D4F6
BF22F2F4
BDC732DB
BE972B38
BE4A56EA
BBAC5459
BDE32276
3D52E805
3D4DD4F4
3E679E3E
BE48DD56
BE93D0CD
BDA02857
BE458D05
BCA07538
3DC2454D
BCB242A1
BDE50101
BE3F61F0
3DEB8CA1
BB9EE012
BEB46C13
BEBE023A
BE01822D
BD1DF848
BECA622E
BE8D86BC
BD712AA2
3E61C031
3DFFE7AC
BF85BCE8
BF2CE700
3E3E99BA
3D15D780
3E1ACB7A
BE4E7A63
3E5EBD40
3EB6388B
BED7AC4D
BDDC8D8D
3D9D9908
BEF41ED5
BE846FDB
BE8B8C2C
BEC32A3C
BE972847
3DCF5DDA
BE64982D
BEA272A5
BD91E960
BF2744A7
BEF56120
BF47911F
BF1C2B40
3E46EDC8
3D5B7CB9
BDB04B95
BE0F85A7
BEB1FF7E
BE339EB5
BF000798
BED1598D
BD1A07DC
BF4946EA
3E04A5C4
BF000912
BD908BFF
BE02DE6A
3CCC0C88
BF04A67C
3E981C1F
3E0DEF4B
BE83D37D
BEEC4E63
BE6D8793
3C1E89BE
3C946B77
BD7039B5
BBD992EA
BE54B10F
BE91A28E
BE88E53A
BEA2B2D4
BD87BBDB
BEBEF86D
3E165B22
3E93326A
3E95166F
BD8370A2
BE0CD253
BDE76A4B
BF485F1B
3E3DD901
BC937CEC
BE8CFBC6
BE759B86
BAF43D19
BE4B7C9E
BE40C467
BE2305A6
BE19A39E
3D22A2E6
BCA44599
3EC289C6
BEFC0532
BE012D79
BE9306F5
3E6FB6FA
BEB88C7F
3EEB1912
3E3481C2
3DF6818E
BE2CF7F7
BF025684
3E723985
BF35144F
3D87F969
3E83D0D2
3E8080F6
BEF05D07
3EC77E00
BEA59612
3E1ECB73
BF317C27
3EC555B7
BC3D9969
BEB01693
BE99BC7F
BE1CB113
BF2923BE
BF14BB1A
BEE4FE08
BF3C2CC3
3E5B5270
BEA26598
BD0DEAD6
3E081A76
3E184A87
3EA76827
BF079546
3E2DFD72
BE8CF815
BDAA3CE5
BDD15BBD
3E634CED
BE35AD2A
BE9CB686
BE90E5A5
BEA9EE19
3E9B110B
BDA8DEDD
BF21BECF
BEDAF09B
BE5B92F1
3EE314DA
BDD8F6F3
3D5EDBBB
BE538CD4
3EE34492
BDD134B7
BD83353B
BD9593E2
BF50B344
3E99AD42
BE9EF027
BE839228
BDEA240C
BD98C87D
BF3D371E
BCDC8B7D
3BF956B8
3C1FCE45
BD3F37BC
3D0275FD
3D52CF67
BEA0C34F
BE0683D1
BE88890D
3E9649B3
BE37A1ED
3E7F0F63
BEDCECAF
BEF1162C
BE7276F9
3B9A3FD7
BE14F16D
BE9F9116
BE36B75A
BBEDBE11
BCEA2346
BE086416
BE663588
3D99C0D5
3E5E92B5
BF02D288
BE6B7B22
BDD1BF4D
BD784C87
BF143283
3E99AC2A
BED5063C
3D6A133E
BD974615
3E3DA716
3E44586C
3EA3A895
BE9ABE59
BE6AC731
3E24A81D
BE3E92FE
BFAAA379
BF6EB754
3BFCB2AB
BE86967F
BEC977C0
3EB01212
BDCFDA6C
3E9DAD68
BF3C97CC
3E89D665
BF08CCE2
BF2A14B8
BC1A24DD
3E90AD54
3E471251
BE4D3127
BEA7653C
BF195956
BE038C92
BE75170C
BDF4B020
BF82F797
BED8B1F0
3EC4BAF5
BEBADB89
3D80B063
BE04502E
BEE1D88F
3DCD8D1E
BD57D0D4
3D9A392A
BF4DCB89
BD9F1416
BEEC9B58
3DDE7B7F
3D933125
BE3EA0D1
BED78DF1
3EA30D13
BF0576F6
BE994878
3EA1C730
3EC2A147
3EDF583A
BCF5C219
BF16D22F
BEF70B86
BF0F6484
BEFD7D9D
BE9F8EF9
3E7C637E
3EA2E96B
BF068DF3
3EC82FC2
BEC0DB8D
BD964F55
BEE645C8
BF3AE0C8
3D34C6A8
BE930F2F
BE4B52E3
3E4125FE
BECCCD6A
BEA3763E
BE8B5395
BE20EF05
3E1AF970
BAD2040E
BE8E0D7B
3E345E4A
3EB0B448
BEA68A75
BD592609
3E5DE167
BE04AEB2
3E0FC52A
3C8D0130
3E4379B7
BE617AE3
BDF2003E
3DDED07D
BD96D25F
3E3986D8
3DFDD71E
BE20074A
BE01AFD2
BE13F8A4
BDBA4FFB
BE60038B
BE5CC871
BD33A99D
BE80F35B
3DA6975E
BE304E14
3DFD43AB
3DAD3E07
3C79FAA8
BE443ADC
BE247688
3C8F9336
BD097EE6
BDFA6A26
3E33A39B
3A8A7316
3D938C0B
BEB524CF
BDC6ED51
BEFC7C99
3DD13F8E
3EF535A7
BF822970
BF3A4A78
BF28E8F2
BE03D87A
BF2E1AB7
BF4CAC9E
BEE06ECB
3E2070E3
BBF653FE
BDE3FF2C
3EB1FA3F
BD43E865
3E6B295C
BF0ACE7B
BE3ABB0C
BE940A83
3E8EF1D2
BEEC41C1
BECEDD6D
3D1DFAA2
BD11C454
3ED265AB
3EB78761
3E9A4595
BBB508A9
3E557526
BF104FF8
3D8A9015
3C4619F9
BD80FADF
BF231995
3E983BE4
BD7DA138
BED81BA2
BDE4A21A
BF257D5F
BEF0DE68
BEC6DDB6
BEC7F481
BF5D045F
3E02CFC0
3E8AA1E3
BF21BF8C
3EA86EB5
BF00B393
BEC0A1C3
3E8BEB77
BDBB325A
3E899061
BBC4DACA
3E126946
3C48EE0B
3DE1A0A5
BEAC2853
BE2B40C5
BEA834E4
BE9DEFF8
BEB45CEA
3DFE50C4
BE17FBF4
BDDC816B
3E2A150F
BD5EB569
BDCE545E
BEA05146
3D8838DA
3E04C0EE
3E389A2E
BEAF095D
3E9B89EA
BEAF8DE0
BEB70369
BF5C6E88
BDB98A9B
BCAABD25
BF1C5C70
BEF302E2
BE17D66A
BD8255BA
BF8B54EF
BEA1E4F8
BDF54406
3DFB43A7
BE9504A4
BE5A4EE5
BD757328
3E5F1756
3E38242C
BD87C03D
BE4C258C
BE6D42ED
BF30A7F3
BE0A92B6
3AC4F358
BF2FDD18
3D34819D
3E2564A1
BE186B69
3DA66722
BF0E2552
BEE6E698
BEF66570
3EA1423B
BD506044
BD562286
3EB15EA0
BE7E1164
3DDFF134
BEB0DF88
BD0E2464
BF204E2F
BF2F0694
3D092DF8
BE064424
BE827B72
3EAED0A0
BE82152C
BEF10DF6
BF8A9CD8
3D92F83A
BF2937DE
BF4CBA6E
BED04591
BE3025BA
3DD10BB2
BE0A1CC6
BEF47324
BE979687
BED731EF
BEB818B6
BB821A53
BEA2303D
BEA84917
BEE1D566
3D65D9E2
BE3DCC52
3CD3162C
3E6C74A2
BE268190
BEC81AB8
BE6E6FEC
BEEA11F1
3E94C87D
BEB87B66
3E3AB625
BEE74E14
BDF41D1B
3D2C0361
3E97C312
3E9D2A36
BF32851A
BF90EF23
BE530F55
BD2DCEE7
BDB2BC4F
3E8D697D
3E2AA1D5
3EB3F2AD
BF23E6E9
BE6CEC0E
BC29E589
BF0F24C3
BEEBF132
BEE4534A
BCA763C3
BEEF36BB
BEC6CE2E
BC963B3F
BE0F8CBA
BE8E3FD9
BECCC3A8
BF5AC588
3E2ECA01
BF175A48
BEBD65AD
3CA5B3BD
BE7FE3D4
BEA60A71
BB6DEF83
3ECE2802
BF0C840D
3EDECD89
BEC49B97
BEB2CA1E
BD28F2D9
BDB6CACE
3DA6F31C
3E6FE04F
BEE15D06
BED7067B
BDEB8DC7
BD89E384
3E034102

