BDB0A4CB
BCBB908C
3CEAF1D4
BD6A6C9E
BE7EA10A
BE21D6BF
BD3AAA35
3DABBF49
BE09A9B3
BDC39991
BE6F3670
3E90266B
BE3EBBBB
3E7FBC9A
3B6AC91E
BDF34847
BEE285E1
3D30C45E
3CEA1E7A
3D0E405A
BDD3942E
3D93C5F7
BDC2AE22
BDF62B66
3C0F569C
3E02B1CB
BDCAA25E
3E14494C
3E19BA21
BE0D4748
3D88658A
BDE4CBA3
3E66DC0A
BE975EB4
3E311EEC
BD8FABCC
BD2D61DB
BBC43382
BE0280F4
BCAAE529
BE949F17
3E097CAF
BCC2A161
BBC66E7F
BDA98BEC
3CF7FB11
BE201EFF
3D0FDE59
3D052120
BE88CA54
BE36E94E
3DB17EF2
BDEBF01C
BD6DE7ED
3D278E1D
3C93916E
BE16C806
3DB17FA3
BE9954A7
BCD20AC9
3D52EFA5
BBEA844F
3C4E43B0
BE67B523
3E44D105
BDDDC2A0
BD7BC6F9
3D071215
BE5BC935
BD188E06
BDFED677
BD17FF57
3CBF8B8A
3D7AB685
BE2E3CE7
3E2920B0
3E10D9F2
BDBDA91A
3D686527
BDC7A1FF
B9C23270
BD4D7C96
3EDAEFC6
3E85C502
BE88FA7E
BD8CCB17
BEB53149
3D88D2A5
BC8B0E4C
BCD8ADEE
BE13999A
3E977740
BD64CE6E
BCC2B068
BE2D8D81
BC665152
BDAD0D9D
3E51434E
BEA93CB2
3E81BF99
3EC53209
BD93A858
BE597F9F
BE53353A
3CFFF6EC
3D9362BC
3DB4D06C
BCDB6E77
3D67684B
3E4BC0E5
BE0814B0
BDF77DA2
3EDFB4FE
BE21FE94
BDF7A7D8
BDBBF26C
BF09632F
3E6E6E3D
3E52E78A
3DD80D0A
3DCE1D2E
3E2EE87B
3D1CDF30
BCCF4F94
BDFE1DC3
BE0821D1
3DAAE0CE
3DA303C4
BE2A11D0
BDCB8F22
BD6DBDF9
BEA7179C
3CBFFA5F
3D83EBED
BD2FF9FE
BD82AD18
3DD9F597
BDA7C9CC
BDF58847
BDFFC561
3CA19969
3D665FEB
3D040395
3E38850B
3C4AD0B0
BE1F83AF
3D9C8424
3D233871
BDB8B436
BD48C199
BD6B7084
3E2A1ED2
BE09E55B
3DDCC2C4
3DA68998
BD5C3ADE
3E59C44C
BD6919B3
BDDA52B1
BBBC59A0
3EAE7390
BDE07F3E
BE106BAC
3E792D72
3E09B8B9
BDE0BA74
BD9E13F5
BD2C46A1
BD5330FC
3B7765C8
BD9548F8
BD2A0EE0
BE838211
3D87D5E4
BD105AC2
BE1701B7
3CC3D09D
BE831BB2
3E721A41
BE6C0FFA
BCE53E38
BE1A8B64
BDFB8183
BE12524E
BD36E201
BDE3C0F8
3D4C94F5
BE0B5958
3EA4CA9B
3CB08CAF
3ED33C08
3D85655C
3E17E172
BBD1ACB5
BDBE48CC
3E893638
3DE6BC9C
BC3A311A
3E37FD1D
3DB43414
BC61ED8F
3D4F2FD0
BD886EC1
BC533382
3E36B13C
3CFF588E
3E977381
BCC9A234
3D85B015
BD9E6CA5
3DBB1059
3E5E8DC0
BD9EC338
BDD5AC30
3EA432B5
3DAE3ECC
3DA4EA71
3DC5BB6B
BD653DC3
BD198588
BC9A08AC
BD6EE8F2
BDDECA1F
BE40C431
BC8549DA
BE2A4979
BD42A22D
3DA43308
3C311E0D
3D31F427
3DFAF414
BDA1DFFF
BD02E097
BE0EEFB8
BDDC0256
BDE31400
3D379B62
3E44D94B
BE9300E9
BDC328A1
3C830C10
3C472A20
BDCB365D
BD82CF1D
BDD7EA4A
BCB95D68
3D5CEEA8
3CB452A8
3DECB574
BDB8924C
BDBC158B
BDDD810E
BCB377C8
BCEE3490
BBC07020
BD69AD02
BDBB2E63
3D93DCF8
3DA0E5CE
3DFF69DE
BDDC5628
BDAA2824
BD9BEB04
BBC3E6A0
3D40E38C
3DE84D1C
BD2356DE
BDF6717C
BD40F110
BD9B38CA
BC655400
BDDCAE9E
3C463030
BDCD5DAF
BDFBF60F
BB851580
BD165890
3D437310
BDFCB9B0
3C65E000
BE000B1F
3C7997D0
3D2171C0
BDE9CF8B
3DDBC062
3DEF4CCA
BD7722C8
BD0011DA
3DB26E4E
BDF68C20
3C900BF8
3D9C8314
3DBF7402
BDF5360F
3DFC02AC
BDC8B18C
BC852C20
3D3A267C
3CEC5710
3D876814
BDF5DFAA
3D3C640C
BDA79B32
3D6ED0E4
BDB72B36
3B876DC0
3CD1C168
BD9EBD08
BDBAA48A
BD1FD486
BCCB55B4
BDEE37DC
BD7D4614
BD811CE1
3DF7E834
BD886C7E
BDDAE04A
BD806259
3D80023C
BD67FA3E
3D13F07C
3D3CB9CC
BD601E0C
BCD1B7A0
BCE3B03C
BBDF5F90
BDEEF238
3DDEB316
BD5428A4
BD67FC52
3D7F658C
BC2C5458
BCBB13C0
BDF2CE28
BC89B484
3CF6BBD8
3CFA5A90
BDA28BFA
BD0E47BA
3DAF80A0
BD7732EC
BD9A1852
BDAD4DE8
BBA1E7C0
3D779C3C
BD6349F4
3C031060
3DA18928
3AD92D00
3D9BFBAA
BD123C04
BDD01F46
BD490508
3D99B598
BDBAB6F3
BDB5466E
3D0E6D68
3C9A4D98
BB802EA0
3DF1BC22
BDA86CDE
BE9E18F7
3E4914EA
BD3A1613
BE0B2733
3E41372F
BD2CA374
3D6DBE14
BDEC59FA
BC779930
BE14FC8F
3D2ED873
3E3E5C2B
3DB03715
3B85004F
BCEA3326
3E7161D1
BD879172
BE5EE7DD
BC6CB17B
3D162F9B
3B43C94B
3C7BF22F
BDEE81E3
BE02D1C1
3D17A4EB
3D93501B
BE6DC176
BD6DE9E7
3E8C39F3
BE09C20E
3C8D7BB1
BE071575
3E646A9B
3C43887B
3DE7EE73
3E89433F
3D1A2D9A
3E103FA2
BE55E2C1
3E8B1A06
3C5EA433
BEE3B0B6
BE114408
3EA8F415
BBDD3DD4
3D418E37
3D05C8C1
BD732144
BE58C4CB
3BABA0D2
3E3ABA99
3E3FD07C
3DEB069A
BD55BDD6
BD229565
3D00680B
BE06A9F1
3E5D3FCB
BE2089B4
3D01F994
BD312C2E
3B42493A
3CC8A22F
3E317E5D
BDD2C3D8
BCA69C79
3B01F51C
BD87C5DE
BDD2A9C7
3E3B000A
3D2F6343
3E215D0F
3D34B1D6
BCE149BF
BED1024C
BDC0F11B
BD3CE8A8
BE5D7700
BD81444D
3D22A00E
BDDFFED0
BE82551B
3E74E5AB
3E3E7DA6
3D90858C
3EA7FECA
3CAB117C
3E2E783A
BE2538E4
BD504B57
3D0F109A
BE220AAD
BF1B72F2
3D21B1CF
3D2A34E9
BDFEFA8B
BC93C89A
3E28C682
BE0426A9
3BF24BE5
BC5C29EB
BE2DB8AE
3E7272A0
BE8F4119
BD6FF35D
BE24B348
BB87C16C
BE0A4A00
BE9313A7
BDAE65EC
BD91A8D0
3E80829C
BCE87530
3C82788A
3D9DD3A0
3E03F9D7
3D3F3E19
BE8F70A1
3CB95592
3D099240
3CD2F5E8
BDBFA65A
3D95155E
BC4FAAD0
3DC858A2
BD1C5D32
3D4CA3C4
3D153700
BC8CD860
BD1A8800
BD8227E5
3DFBFD2E
BDC4254F
BD9B00B0
BD9E2490
BDEF38CD
3D3DFC1C
BD602EA8
3D5A7630
BD80A26D
BDB028A7
BB24BAA0
BD42D80A
3D902184
3D94CD0C
BD6B15E2
3DD2357E
BC1ACD78
BDA27C6C
3D680674
3DB2CF72
BDC28E68
3D8BDEF0
BDE6261E
3DF8E700
3E004853
BD876907
BD51358C
BDA02753
3C607490
3DABB84C
3DD971D4
BD55719E
3DB1E584
BD28601E
BC072060
BCA3CE0C
3D8847DC
3D9E6CE2
BC7E4278
3D0020D0
BD167EBE
3D8ECF9E
BDFCB1E3
3DCAB43C
3DE857FC
BDE28C6C
3D9EA2DE
3D99A3C0
BD624218
BD58A512
3CCBCB20
BDB802FC
3DD7837E
3CDEC640
BD2B6FD2
3DA40964
BDE2F4CF
BDBD299F
3D73DBF8
3DD4E54A
3D38BBB8
BD21D60E
BDC95FB3
BDD5F894
3D0176C8
BDAD6EE4
BDB17FDB
BC346F90
BDF6EEDD
BD8D564E
3D68FF40
3DD28A22
3DAC93CE
BDB4A5F8
3D82F382
3BB63480
BDBE89F8
BD8C8CCA
3D1646C8
BCA3686C
BC9CCE6C
BD285054
BD58A7DA
3D4E7ABC
3B5ADEC0
BD861704
BC05DDB8
BD1ADDE8
3D3D4024
BCD20198
3D9C3986
BD351B16
BD92FC5E
3DF50364
3D00CA78
BDD9780C
BDEFA9E8
3DD95CC4
BCC8D520
3B8C4A60
3DE46718
3D148D60
3D75E24C
BCAE3570
BCFD8874
3CBA3F78
3D829310
3DA8A9B6
3D19F8AF
BD7A3E7B
BC65A6AF
3B02B834
3DE20D06
BDD9048E
3DBFCF11
3D92DE71
3DF304E3
3E55C7BC
3DD76E70
3E09C6AD
BE3BA990
BDE7B35D
3DC8286C
BDDD8BFF
BD8578A7
3DDAEA29
3CDC7C21
3CCCC0D4
3DD6BB7D
3D80F64E
3D8C9F94
BD003BF2
BCB710C0
BDEA980D
3DE7E344
3E2E7471
BDF1D8B5
BCDA5C8E
BD9E85E9
3E08C4AB
BE1AC71C
3D1A1660
BD6D5925
3D1DBC7A
BB2CECB8
BD1BC544
BDE3FFF8
BC7CD8A4
BD60FFB7
BDB2F755
3E500AF2
3E440E64
3D7A34BE
3DAF46AB
BDF18CE3
BDE1938F
BD5B2751
3D0BF209
3A9EF600
BD78ED9F
3E09BA46
BE15642C
3C95DB3D
3E010363
BD65958A
BCDDC063
BE3E1393
3CD83F1A
BD9734B2
BD741776
3D1CD254
BE343A84
BD2FE1C2
BD89150A
3E00B7C7
3DCBB870
3D19E314
3DA34CFA
BD906926
BD99DD90
3DA100F2
3D999AEA
3DA95970
BDB1347A
BD8A0109
BDBBC548
3E78EA2E
BD4FD5A4
3C17F828
BCC21928
BCB83210
BD94EA1C
BD195D1B
BD585030
BE3503B7
BCBA4D11
B9DB6563
BD9D95D0
3E2A09EF
BE0C119B
3CA5D03F
BDDDB06D
BDA306A2
BC9CCF90
3DF9B4A0
3DA6EBA9
3D1737B7
BCD29FE7
3D748BC0
3D93936C
3D8D7E42
3DF20DDC
BD1EF352
BE00F487
3D3EDB2B
BC9675B8
3DADBE9E
3D38BAE1
3DD6B7EC
BCF16BE7
BD45AC48
BE002A16
BCB3A8D3
BD24CBAC
3C5D87D9
BDDBB2C0
BBDBE2C9
3D9A70ED
3E4D1307
BC974DBC
BED00329
BDC2EFA4
BE88C7A0
3E10C03A
3D14FD6D
BC9C3180
BE1143E2
BDFB9B97
BE270B28
3E89939F
3DA7011E
BDEFE74F
BE1233A8
BE1C5B28
3ED33019
3D505466
BEB574D2
BC2FB178
3E471E55
BE21059F
BDC67E3E
3C9FF6ED
BD62488D
BEB8693F
BDCDD741
3DFF9475
BE9EE61C
BDE6E12C
BE88F1C6
3A5E6A86
BE5DC666
BC9FFB65
3E9053B9
3BE27736
3E3087EB
BE1AF54A
3DC194F9
3EFE05C9
3E99848D
BE389ABE
3A913643
3E501DA3
3EBFC4AF
BDE7B660
BE033CBF
3D5C80DF
BE0F68ED
BD5D076F
BD851247
BD9ED16B
BE0DF0B7
3CD96110
BD066A4D
3CE30684
3D744195
BE4C3409
3EC5131F
3E549AD9
BE0FE91E
BE08CDA6
BE19313F
BDEF4F9C
3E29F1C0
BD708673
3D778667
3DF8B304
BDD52D6B
BC9EB814
3D5689C1
BDAA8FBB
BE92ABD5
39E877F7
3BF75554
3EAC024E
BE3918A1
BE47EDA1
BD85AFF8
BCDA3D06
3E9961CD
3C8865DD
BE05E843
BDB2DA7C
3E1AFABF
3A14D023
BCC9748F
BDA60608
3DD002BB
BD48287B
BE4471B5
3CBF1556
3C732690
3E80FDE1
3EE23849
3D121609
BDAF92B3
3C0EB781
BD8424D0
BE7CA8D7
3C736D07
BC8088A6
BE002E8B
BE2AE338
BE917945
BEAB5A83
BE58CAB8
BC70E2F3
BD9ECD3E
3C1CA1C7
BDA107B8
BD6BCD27
BF0FD539
BC6BC5E1
3DCA54F4
3D54A2EA
3E2619F6
3DD4D0B4
3DC78F0E
3F2C9B5A
3E9A9C50
BE1144BB
3E3B486F
BC610610
BDC15F0F
3E6BAF79
BA1193CB
BDF04F23
3C1754B6
3D5A5EF7
3D191565
3D3728C9
BE47BD20
BC84DC73
3D5C8F45
BD802E5A
3E077E76
BB5FAB5C
3D9BB1F6
3D6C0FDF
3DF827A2
BCA5602C
BDF733A0
3E417DA4
BCBDD3E3
BCD69C3D
3D88441B
3DE60575
3E48ADEC
BEA3F4A8
3E4BCA71
3E285A55
3EA31C4C
BD6AA2E4
3E9A80C4
BE0CD043
3E1FD18F
3D16E869
3D3328B3
BDA14DB5
BF08E700
BE533446
BEAEEC5D
3E545D25
3EEE0D1F
BDABF431
3BFE91E5
BE0CAB44
3D00D235
3C799229
BE18D084
3EF22F37
BE76BBC1
BD89D68C
3E77E7BC
3EBABF63
BE0D467C
BE386738
BD23919A
3CD04F10
3D8CC460
BDE06D92
3D63FA44
BD9C1EB7
BC36E8AA
BE184F1C
BC906F3E
3E154358
3E0613A2
BDA13195
3E6B3D7F
BE11DA51
3F1A35E9
3D7FE54C
BB1E6BC1
3E253867
3EF85BE1
3D477045
3E6B35A4
BE0FB860
3D33A393
BE1199EF
3E8DAA12
3E17470D
3E24BBED
BD6DBC6E
3DCC8E72
BDC77DE4
3E7CA52F
BE067908
3C18AF8B
3EE68286
3CEF89FF
BF10FBF9
3E3AB95F
BD8403C3
BE030D9B
3E08F169
BE561EAB
3B87CCDE
BE4A1451
BDD4F5EC
BE69F14E
3EDEBBCC
BDAD23BB
3E096BC5
BC8ECC00
3D128F1B
3DB9E95F
3E1A0234
BD3D0F55
BCABF43F
3DEF6D55
BDD1F6FE
3D6BCBAD
BB1B0980
BE010F2E
3EA144CB
BE445B58
BEAE56D3
BD2C034E
BCA29450
BE99F18B
3C9E6FB9
3D8E05D4
3E863AAE
3D129EBF
3DAD5EB9
BDFAF9BE
BCD1A260
3CF7CC8A
BE23D764
BD8348D1
BD1F5F04
3DE2BEE2
3D375191
BD0EE6FE
BD99A8A8
BB327AC9
BE50B7E3
BDADBDAF
BD50A114
BCE52367
3AFECAF5
3CFDDF32
3D4A6D87
BDC53E4C
3DB09711
3D83FC4F
BC0F8C3D
3D585CFE
BCD65DE4
BE0C5531
3E2A6294
3E5ABFE1
BEB47338
BCBCC8B0
BDE30F42
BD85FDDA
3E94D708
BC875C3E
3DF795AB
3EB08D34
BD4068F4
3E50EA7F
BDA0140E
3B940C73
3DCFE1B1
3D2E03FB
3EC9E378
3DA99268
3E4B2715
BE2E49DF
BD10A108
3E28D408
BEAC393D
BD3F664F
BE3E601A
3E20EB28
3EB8B987
3DAB04A3
BC316931
3D9FD410
3CAE7C7B
BE7AD5CF
3D14F278
BD5D14E4
3E0DF2B0
BE8F13EF
3EA4F479
BC23ECB8
3D4D0FFA
3ECF8898
3C7E7014
BD2F53E6
3E919A77
BCB8ACB7
BE122398
BE10677A
BD1EBBA3
3EA65539
3C9EC6F2
BE6D9358
3D2C4FA2
3D82A55E
3DB8A3FE
3BE9B0DF
BE174F55
3D613024
BD8FB391
3CFD36C3
BB2AF543
BDB21044
BDBA1CC0
3D46EA5F
BDA3F56F
BDCD83D9
BD02B6DA
3E75262A
BED1AC40
BD8C3439
3C68C235
BDD69C6E
3D06F3FF
BD8EEF80
3E54293D
3D88697A
3DC4AF86
BE020E93
BD4D5903
BE07B683
3D11ABEA
3CF197B5
BE323787
BC87F8F4
BC00AF9A
3EFC90AE
3DE3A28A
3DAB8010
BE928FAD
BD1E03F8
3D71F3FC
BD16CBE6
BD52A9EA
BC3E3768
BD1870F6
BDC50294
BD0325FA
BD588E3E
3CDBEF28
BD214D98
3D1698EC
BDF67E94
BC06E418
3DE30BAC
BDB83336
3C9E2B40
3CA06320
3DB981DA
3C8ED350
3DA1B024
3DB56466
BD6661DE
3D303098
BCD39178
3CCA74D8
3A69A200
BD844316
BCF65994
BDDFB3FB
BDC57425
BD037194
3DC379D8
3DE59B0A
3CEE91A8
BDEA9C3C
BCAC3C88
BDB02304
BCEB966C
3C691330
BD6C4AE6
3D1CFBDC
BD9EDEEF
BCA8654C
BE009BD9
BC6DB2B0
3BAA7320
BD9345E0
3D18B1CC
BD7033B2
3D8B006C
BC8CC9C8
BD2FA284
3DDF8F30
3DF33F88
3DF31160
3D5165C4
3DF243FE
BD926D7C
BD9E3DCB
3D0FE1FC
3B25E3C0
BDC62C46
BD4D3A88
BCFD7EDC
3DD256B0
3D084CE8
BCF44828
BC8FB650
3D124EB4
BDB55BF8
BD4E999E
3D50D37C
3D8319CE
3DA56436
BC4CD250
3D96FCBC
3CA52568
BC3759A0
3DBD002C
BDD185EC
3DED3170
3DC24322
3CDDC1A8
BB2C8980
BCB744A8
BD6BC922
BD7697F4
BDC86C52
BDA08884
BD6CAC84
BD4A935C
3DAFFB28
BD37F222
BC4B8960
3C87ABB0
BC169B18
BDFEF2A9
BD816280
3D28E944
3D92C21E
3D9D8C0E
BDFA4553
BDD4390C
3BA6F400
BD53AD2A
3CD87608
3DDE3FB0
3CB73308
BDC2F7D3
BDAEEA6E
BDC2DC76
3DF4D166
BC6D29C0
BD87D6F2
3DDB8482
3DC23EBE
3D88F664
BD49AB1E
3DED37BA
BBDE60F6
BDBDD3BB
BC451345
3D731B2C
3CE12FCE
BDDF2975
BD53AF16
3C054950
BB83A0A0
3E0C7ED8
3DFEC376
3C8A88BC
3E024E8A
BCAA5E38
BD9EC572
3DD167CE
3C1724D5
BDE10769
3D40173B
3DE3404A
3D0EBE64
3D56BE94
3DA8BD12
3D5AD4DE
3DDC984E
3DD9CDC5
3C321520
BD0D1E5B
3D5072AC
3CE9D063
3D963E16
3D589031
BD932AAA
3CAA919B
3D6AF2DC
3E2E6002
BDC54916
BD641388
3D69F8C3
BD3D2698
3DCF8035
3E01E2FB
B8F94398
BC97E734
3CC1AEC0
BD4C3874
BDA3789C
BD4A9B28
3DAEB1B2
BCE0BFC1
3DC28A82
3E0A23FD
3DE6398B
BC9C3094
3D8747B2
BC9B7EA6
BC91D664
BCE0B467
BD3CC41D
3E38F183
BDFE4A62
3C86BF58
3D793878
3E07ED57
BBD797F0
BDF31D78
BDB02474
BD4F38DA
3A82A765
BD8D4923
BC1AD5E6
3C86A950
3DDF174E
3DD685D6
3DE221A6
3D11CD15
3D3EE09E
3DB3683C
3E037CA1
BC3E64E8
BD2F21D8
37EC8000
BDDFC055
3D96BE48
BB57B5E6
BD57287E
3DC65315
BD8C97BC
3DB60979
3C828668
BE0F8D5D
BCAF1BDB
3D5302D0
BD9B5CA1
BCBD40B7
BD80D231
3C7E1300
BD9669CA
BE0B24A6
3CCADBA9
3D269078
3DF0161E
BDB405E7
BCFC385C
3DCFC6E0
3D8076CA
3DC5A064
BDE0048F
BD995A08
3C533E33
BD1E3F4E
3DFD7172
3E37D4E2
3B8D6600
BDA1E5C4
BDCA959E
BC9743F2
3CE1A410
BDFCF753
BAB5658F
BE277910
BE0C60ED
BE5E0ACF
3C7145C0
3DAED7E6
3DCA38A7
BD455BE2
BE15BC3D
BDD13B84
3DCEC229
3D3070B7
3E7C6BE5
3E573283
3DBFB4D6
BD8DEA56
BE1B9D3C
BB8082C1
3DD2CA97
BE0F9442
BD9A5264
BED55E98
BE0058AB
3D36DBFE
BE1A3C45
BC485E00
3DF5974B
3C19D88F
3E282ACC
BEF962E5
BE001968
BDA0B884
BE6B6DEB
BD0BA4D8
BE1D4DBE
3CB3B03F
3EB00223
BE8E4A4E
3D63EBF3
BCC30350
3CECD961
BEB5EE2E
BEC3EF15
BE9F7C13
BD853A06
BD8DC3B4
BDA96398
3CC6564A
BDEAB46A
BDAD4678
BDA1AEBD
3D20A563
3E84A98B
3EE7E9A4
3DAD9F17
BD72D8B3
3E0E14F0
BE1936BB
3EC8095D
BEB27150
3EE2BAFF
BCB5F7CC
BDEC574A
3CE5413D
BE4AA9BD
BE12381D
BC956AAC
BE217DFC
3E015CB1
3D54726A
3D88B142
BEF38C90
BE1F6BC4
BE3D31FF
BDBECF54
3C819EBE
BF465EF6
BDB8E0BB
BE59104B
BC101BDA
3DDFFF1E
BD0F7EFB
BC145045
3D3F632A
3DCB0936
BDEDEBCB
BC9E07A7
BD91155D
BD0012D6
BDC07DFE
BDD7E945
BE5BBFC7
3E873647
BD35C167
3E71F391
BE5F645A
3C41C160
3C153D52
3E2BC28C
BE082D49
3F12BED4
3E751CB0
3BF6D60D
BD6036A3
3D966C9D
BE801926
3D8551CC
3DF82E09
BD070803
BDF277AA
BDA60B5A
3C8FBA3C
3D8CE94E
3DE5212C
3DFDEA2F
BD0FB3A9
BE12201C
3E314F05
BE9B9B7C
BD73FAC1
3DCF720A
3E9F6388
BDE220AD
BD2DC885
BCB56342
3E9E153C
3CECAB91
BDF01019
BDBAB0D0
3D0FF44A
3E91418D
3DD62CAF
3C4FB55F
3E2A4D91
3DF88450
BD5CB7A6
3C426632
3E91D961
BD1E8A84
BEE140B4
3CB56963
3E0305B2
BC2BA7D1
BD44AB3B
3E80F9D7
3DE66FE8
BDA9040A
3C2D9D2D
3DDA7596
3CD5A742
3E66BD5B
3D00AF6A
3DC07527
BEDE71E7
BD6CCEC4
BE887E8F
3EB66CAD
BE531EB8
3D39295D
3DF01127
BBDED365
3E3833FF
BEBB7BB6
BE95384A
3E96CE17
3E649521
BDFB7C1F
BB8C51B4
BBC8DF01
BE044D42
3D854E77
BE385BF1
BEE8FE8C
3E4374B8
BD4A6D40
BE81B046
3E8CC6D7
3CD33B94
3EED4D97
3E052537
3E8CCADD
BDD0D6C2
BD740AD6
3BD74960
3C8E9950
BE487FFB
BDD82B95
3C815648
3EB05679
3DB2C958
BCDBAB21
BE9648C8
BDDD714F
3C2C8FD8
BDBA3A4E
BE0BEACD
BE7D4CB4
BE12A42C
BE07D06D
3E49A240
BDF3DC19
3D8FB003
3D59D04E
BEF2D9F6
BD25E62E
3E57BE92
BDDDC73E
BE1B15F3
3B9B6B1E
BE2E7161
3D94603F
3D957C27
3D830656
BE1B7909
3E984B32
3EA47B82
BE247A3D
BDB41766
3DC9A032
3DA38DBE
BD01DABB
3EB1BA7F
BDB96C61
BD22B758
3C2EEC70
3BC71DBD
3DBA52F5
3E157D2B
3D94BC31
BE236CD5
3E1A1049
3C920C78
BDA2A55F
BDCE77DF
3DAE4B23
BD684E78
BE1247FE
3E9FA34C
BED487BD
BE8B4ADE
3EDC189C
BD0A85B6
3DEFCCD2
3D6B06B8
BDA28850
BD5D7CAE
3E00C4BB
BDBB68E8
3DB0C2E8
3DD058E0
BDCC3384
BCFCA81C
3D90264C
3DA1FED0
BD9A88BF
3D94C9D0
3CAE3258
BD6A308C
BDED5D6E
3C932A00
BD9E9F85
3DAFBF86
BD2ECBFC
3DB1DC8C
BD4C9112
3C97C850
3CD75A70
3CC51CC8
3DC9BB44
3D3DFEC4
BBB58A70
BB3298C0
3D9AC862
3C7CC9C0
3C0D52A0
BD5FF6CA
BD210010
BB2141C0
3D2E4E0C
3D2FB224
3B43ED40
BDFB8241
BAD14200
BDC0B30A
BDC2D740
3CE41770
3D23B450
3CEFC918
3CAA7DD8
3B8A5100
BB987B00
3BBC9100
3DFDCB32
BDC0AA26
BB928650
3C5145C0
BD1F1EAE
BDE269FF
B9BED800
3D0D2EF0
3D848622
BD01A574
BC3B1C38
BDE03F1C
3D5A4300
3A533400
BDC11918
BD552A80
BD64EEB4
BCAA0608
BB921CF0
3D5D3D3C
3D798E44
3C05D9B0
3DE124A2
BCDE827C
BD60AB26
BDAC3CD4
BC4AC698
BDF10A18
3D638A08
3D7CF8D4
3CD437B8
3D5DD3A8
BD8967FC
3DC91D4E
BD33F430
3D8B31E0
3DFD1084
BDB6D8A8
BD885D36
BDFEE4F0
BE007A23
3DB07A02
BD4F6C22
BD01BC18
BDCDD7E6
3CA51680
3DE63A04
BD69DCE2
3BBECFC0
3E00017B
BD327B34
BD9C05CC
3C445370
BD6D00DE
3DBEC444
3DDBAE16
BD773FE6
BDF42C97
3CE7EDB8
BDCB8A4A
BDB5B854
3CDCB3A0
BD10BDEA
3D9D3A54
3DA4E028
3D8915A4
3D894052
BDC4F520
3D6E5510
BDAA5712
BDD82ED6
3D8EF632
3CFB6060
BD954A1C
BBC29DB0
3D96AEA0
BD89B7EF
BD959E4E
BB809900
3DC396FE
3B212180
BD464D60
BDB4C8B9
BD91F54E
BDB09E66
3D8742E0
3D29748C
3D31A954
3D9FEF00
BDCE9310
3D77AC68
3DE34C9E
BD103E9E
3D3968E8
3D98DA10
3D8DB838
3DC9DEDC
BD0D667E
3DE03296
BA910600
3CD8CC70
BDD0BEFE
3DC73530
3C4B4E20
BDA33A51
3D3C8000
3D57BF1C
3CD72660
3CF63228
3DD92342
BDAD14D7
3CF4CF60
BDC3CA90
3DAFE682
3D4951C4
3D6AB424
BC98BEF8
BD97DD90
3C280E00
3E00C1DB
3D0F03E8
3D9919DC
BC503058
BC965CD4
3C695FC0
BC06C160
3D44475C
BCAF8C48
3DBD931E
BDC9B291
3D526728
BC95413C
BDDE2B56
3D18E114
3DE94016
BD5162C6
3DDB37FE
3D1E11B4
3DC30D60
3DC883E2
3C5C12F0
3D209AC0
3D950D14
BD248F22
BD0F9FE4
BDDE8C3A
BDD4863B
3C11C2A0
3DF9F268
BDDE995D
3D5D7C0C
BCE2F468
BC896DE8
BA9FF900
BC2AFCA0
3D75088C
3D953B94
BD4912A4
3C76DD20
BCA2E154
3C8DC4F8
BDD08ED5
BDC97684
3D7A0400
BDF420F0
3C8FEEA8
BDDD555C
BDDD4F28
BCEDCB54
3DD26C72
3CCB3828
BC4E4678
3D1C788C
3C991560
3DE4BD06
3A621C00
3DF31490
BDCC4C36
3D2268F8
3DA64C08
BD8832B0
3DE6F726
3CC9D010
3C5CFC20
3C0B5DE0
3DE1522A
BDAEECB8
3D082558
3D22BF30
3DC9FA33
3D89FD96
BDD99D5D
BD999232
3D98F3C7
3D39B06F
BDA80C6E
3D616384
BC96EEDC
BDDD5375
BD58D492
3E0609B3
3E2EEBED
3D76C7D3
BDE302BD
3E1BD719
3E3774CC
BCAEF5D4
3D824D87
3E11656C
3DB06586
BD9FE21E
BAAA1C8C
BD7F6516
3DBDA33C
BCF2DE25
3D92E3D4
BDCB982F
BE0233E0
BDBE98B8
3DE4C3A8
3B77D570
3DCCC3FD
3CBFA607
3CEB1161
3D8CCFFC
3D58846A
3C8B4840
3E0FAA20
BCBE0AA3
BDBFBEAE
3DAC6B70
BD10811A
BD489557
3E0C9934
3C19E24B
3DD54166
BDB1617A
3D5C30D4
BE0AC246
3DBB07A7
3D926145
3D3199F9
BE0873F3
3DCF1D25
3D11E10F
3DFA6214
BD6A8A61
3D11D155
BDF42677
BDB6442E
3DE7D7C8
BD2EAFB8
BD31ACA9
3CD798A2
3CDBBA78
BD20A26E
3DCFC357
BD43AEC9
3CEDB5C8
BDC8B8E9
BD287112
3D8DCAE6
BCF3243C
BCC178FF
BE1CFCDF
3E21C4D1
BD5B963F
BD3794DB
3D9197DA
3D50BD48
BDF3A2D2
BDD135A4
BCFA82D1
3DA3130A
BDD7E6FD
BCD43DBB
BD99AD3C
BE11FB7D
BD13D42A
BDD1401C
3D82584B
3DBEEFE0
3D21F34C
BE0FE0B7
BD9DF824
BDAAC99D
BD389740
BD808212
3BC9DA1B
BCD1B3D0
3DE150FE
3DD4AA14
3DD5E52F
BD30AB42
BDEB7F2C
3CA31E28
BD88319C
BDC8CBC6
3D45783C
BDD47215
3D4A88F0
BD8A8D2A
BD8FD05A
3D8965F5
3DC14B06
BBF75E85
BDE8E988
BD07438E
BE1107DB
BE97888F
3E14BB2D
BE3D9B5C
BE1C47DF
BED396FB
3E88E7C2
BE0284CE
3B49006D
3D0BA4CD
BE48E1A3
BD5CDEB9
3C9422B7
BE2608FF
3E86F9AD
BE1D1337
BDE77F87
BE27E4A5
3D865D12
BB327771
3D535249
BE1C47C2
BD5B636C
BDC5A6B9
BE05D719
BDFAB1DE
3E313033
BDEBE068
3E037BDF
3C2F8C97
BEB0DB05
BE9B9CBE
BE59694C
3DBD2276
BE250C07
3DF9A275
BE38753D
BC494000
BE0E6039
BE8D7921
3D701C32
BE751A8F
3DAB547F
BC4FD0BB
BE822799
3D927E67
BD4F7BAB
BD076491
BE25283F
BD865536
BE91CB33
BE03F73B
3E194DAF
BDB9C584
BE757114
3E2A1639
BDFDA027
3D4003BF
BE6BF732
BE445631
3D6984AC
BC2E973F
BDE664D9
BD525CFB
BE23F49B
3BDBA3BE
BD9EF583
3D758C86
3DFCED2E
BE2A87ED
BE9A2268
3D9D6373
BDCD986C
3E819092
BD877769
BD491F35
3E238EF7
BC916D17
BE34B8CD
BE48953A
3D2287F5
3D1C2B55
3D3B8A69
3E342006
3CA7BB32
BE0C2E75
BE37A41C
BD9286AA
3DB86590
BC96C022
BCA70F49
BD12ACE8
3E9565A6
BDB1F37C
BE7B7659
BEBCDBBF
BD1AA195
BD8D708C
3C4E4A16
BE26E4DE
3E7B9801
BE290BF6
BDFC6C55
BD8BFEA9
BE9565D9
BDCCBBA4
BD5710D5
3D827D13
BE0F39EA
3D700B19
3DB06D69
3BE75C25
BDD61A6D
3E9AC2C0
BD96474D
BD2BD372
3CA196BF
BE692F0C
3E89A27F
3EB1E11F
BD259CCE
3DBBA77A
3DC34A32
BE22ABF9
BC3D6A06
BEBBF523
BE9FB640
BDC3347D
3BDFE2C0
BD2EA761
3E183D3C
BDEF40E0
3DB526D1
BC4125EA
BE0AD1F7
3D24C4E4
BDA26783
BE057A4E
3C963BE5
3C4C2024
BC0A0C4A
3D73E428
3C0443CF
BB52987A
BE3250E5
3D5E4DC8
BE932797
3CED2EB1
3E0C0786
3DDE7D97
3EA2A309
BE1E5138
3C2DBDFC
3D537539
BE2BFE02
BDEE3B68
3D812BCD
3DC0A587
BE0EE79D
BE8C0F8B
BD8220AF
BCFB2E17
BD8A24C8
BEBB2A02
BBF2E68A
3E3925ED
3CF2634E
3D91154A
BE1F9B0B
BD966AC6
3D84BCEF
BDF738D9
BB5234C9
BECE3B3C
BD4BC6A3
3DBEF0EF
BE20C7ED
BE1B349B
3D558E83
BCF78826
BE31E7E3
BDE80AF2
3BE0758C
3E00D9EF
BE293EC4
BD2E89D8
3C5B27A8
3CAE0965
BD16A61C
3D9434C4
3CB0A64C
3E41551C
3C9A9C2E
BD4E46B1
BB0140A2
3C747E68
BCD4B8B1
BDE5FC00
BC4FD9B1
BD72BAB0
3C5A94D6
BE69FA8E
3D3A71D4
3E487C8E
3D098B69
3D771C92
3BDD723C
BE13C8A1
39285187
BE970049
BD7F34CA
3E3DDD65
3EC6B2FE
B9F58E00
3DBFA101
3E0A3F87
BD833656
3D9F9B2C
BDAC65B5
3DA79965
BDCB0838
3DA27455
BB055FC7
BE1743B0
BE791139
3DFA1A0F
3A25CBB6
BDDE21DA
BDB5BBB4
3D606CC1
BDCA1AFD
3D3EB75E
BD89EA74
BDF7F9BD
BDB3706D
3CF1376D
3D86375D
BE1C8479
3E03464C
BE39A501
BE3755FD
3DD1B2FD
3D5BBD48
BC912F84
3D710CE8
3DD2F24C
3D8D7790
3DEDFD77
3C3B80E0
BDF5CF3C
3CF7936A
BD9EC5F8
BCF8E0F6
BD8587C1
3D1B33DF
3D64FFE8
BCDECF95
3C92B644
BDFFAE39
3D84F9EE
BCAED139
3D124385
3DC3B246
3CE8D681
3D8361CC
3C421B10
BDCD27F6
BC1537E0
3D2D3B44
3DE88F1C
3DAE318D
3CE67118
3D5AEB07
3C8E92D0
3DB544DA
BDBC80A6
BB51406D
BDA182C0
3DD80372
BE060E35
BC950F16
3DC2805A
BD068FEC
BDA6C58E
3D619E7D
3BD288FB
3D53BBAE
3DD93975
BD35948C
BDE00B98
3DFAC403
3D5E763C
BDEE870C
3DADD1AA
BD3564AE
BD890E7C
BD4AF173
BD18548D
BD26C4B6
3DE844B3
BDA98C46
3D1AA7F0
BD4CFFF4
3DA64C60
BDE8D24B
3D910E45
BDFCC38E
BDAD3E3A
BDF018C1
BDB21AF6
BD8EB76D
BD5650A4
BDD0CFC7
BD179518
BDE996E3
3D6C93D0
BDC7FDF3
3DA9B020
3DFB5965
3CE87210
3CB793F0
BC851440
BDFA59E6
BDA5440C
BDB33E48
BC14A840
BDF7B82F
3D6EFBF1
3DD836ED
3BB7F335
BD464112
3D3675E0
3CD98DE2
BD62BF50
BD8A6A01
BDE1F5D4
BD80E40D
3D88208A
3DBEAAB8
BDD73CBC
3DAE9944
BCF3C51C
BD6D276E
3B1CF3C0
3C644413
BD88447B
3B4BB280
3C106F50
3CD70A98
3D9708C3
3D08CB3C
BDEA678F
BDF8EE0B
BDB35432
BDDC6074
BD8BC7A5
3D3AF678
3D3A2F7E
BD7B3F86
3C941C57
3D85E29C
3EA3CDEC
3DBF8DCF
3E478AC1
BD9863AB
3E55FA0D
3D951108
3CBB131E
BDD4CD29
BDE570C8
3E159D63
3ACDADCF
3E10096D
3EA67DF1
3D3BCF1B
BD9F5D8B
3E0626B0
3E1C5D93
3DB09994
3D5DF1E6
3DD876C8
3E975263
BDB5FD48
BDCA8D52
3E2D1F0B
BD60C340
3EAF2699
BBBA5A6F
3E28B2C1
BE3D13BB
3DAC714B
3E254C4F
3F00E1B1
3D9C4261
3EB92DD6
BE764356
3DAA160B
3E2BED7A
BDC31263
3E62C38E
BE6C0810
BE332D65
BE26C2B4
BE9AAAFD
3E9F739C
BD824D3A
3CE91A1F
3D17107B
BE0498A7
BD30033C
BE6B4BAE
3D4B8169
BD11305A
3E843420
3D002806
3E106434
BDB70EDC
BDD4FFB2
BC8581E2
3E571BDC
BE7250F2
3BF27E00
BC530731
BD34CB51
3DCD4DF7
3E6FEF43
BD5C0E18
3D30DF20
3E8370E8
3D8C5CD8
BDEBA888
BD251C2C
BE18750D
3EDF4240
3DAFC5E2
BE30E6DE
BE291739
BD29A684
3E106A21
BE49C863
BDD209D1
3E420F86
3C08D31F
3D4EC8BB
3E9D2667
BD512E7E
BE2C73E0
3ED6D12F
3CDB4FFF
3E4E29F0
BCE2C34D
BE4A3198
3CDCEE86
BDE3E270
BEC42332
3E828750
BDBD9118
3D4E29D5
3CBD11A0
3CAB987E
3DC6C2D0
3CEB73BD
BE20DF0C
3C9D1E65
3D8F1E60
3D530E12
BE8F0315
BE7A47C1
BD55DF9D
3D716B05
BD642774
BE08DFFD
BCFF6A8E
3EEBACAD
BE1D9347
BDAF4238
BC78A5DB
3D17206C
3D30D028
BE32598B
BE4E96FF
BCDD8BA8
BA946200
3D9E564C
3D8497D2
3DDB000C
3D9643D6
3CEB8DE0
3DA148EC
BD33FF6E
3CC638E0
3BDB7D60
BDAF81B8
3D3CBAAC
BD14A20A
BCA9A310
BDA97220
BDD2558C
3C5C7660
3C9F85A0
3C5C1B30
3C629A50
BD242E80
3DDA461C
3DF21E80
3D0364FC
3C9A2FC8
3DE0D962
BD8A3232
BDB0C85F
3DCD81F0
3D35C650
3E0063D7
BDE1BF56
BC67A5D8
BCAF8484
3D1F8CD4
BCFBCF58
3DCAACA0
BDA37724
3C7EB850
BD0213B2
3DCC8852
BB5E7860
BC40FA50
3D85CDF8
3DFDADCA
3D548764
3DC1E9B2
3DFA8DE2
3D738D14
BD61F168
BBE02BF0
3DEA4C4E
BDF10B4F
BDBC10FE
3DC2FD96
BDE884DD
3D25EEB8
3DADC100
3DA9255A
3DA2E412
3DBBDE78
BCA7DDD0
BDFD554D
BC9D28CC
BDED650B
3DD8C7C8
3DB3A110
3C587480
BD8E8CFF
3DCAAB90
BDEE5611
3DCB385E
3DFCCF72
BCB74CD0
BBE3E120
3DE7448A
3DE521A4
BDF3BE8C
3C9B3078
BAF06A80
3C8D5C30
3DA1C142
3D58B9C4
BD34E9AA
3C498D90
BD2E9B2A
BDB53AF8
BDAF4E7A
BD299C56
3DCCB3F8
3D85036E
BCED7794
3D7ED788
3D8564C6
BDAF5524
3CD39590
3CCA9AE0
3D30A1D0
3D6F0670
BB98E860
BDD257C2
BC0E9A28
3B9E5260
BD921CB7
BD91111A
BDF17718
3DD708E6
3D70BB74
3DD8AC12
3C0BFC40
BC9AA35C
BD96DCAF
BDCAA884
BCE39940
3AB74580
BD9A248E
3DA14474
3DBAFE02
BD081864
BE01D76D
3DFE36C2
BD8B790D
3DA2B2B6
3E5712AC
BCF1BFC3
3CBC41A3
3D8BFFC0
BDA7B765
3E012659
3D684B3B
3D496E83
BE0C4B74
3D4BF8AA
3D85EFC4
3D90CC9E
BE137B38
3CC1DDCD
BD6F7A53
3CEA96EE
BD7893B1
BB3C20D1
BD84638E
BD88F718
BDC55020
BB82B749
3CDCDCC0
3E138B2E
3CEA3E0B
BE0C335D
3CE4B912
3DE9ACA5
BCABF8CF
3D7B7FAA
3B3A9989
3CEB83E4
3D2A7196
BDFAEF81
3D246703
3DB134C6
3E22AD18
BCD06E26
3CF9DA94
3DB714DD
BD49444C
3DD90479
BD0A51E1
3BEF30AB
BDD784D8
BDB17F9B
3BA11620
3E0C243E
BB961F68
3DA0A6CB
BE07A85D
3BB6DC7B
3DDF9B2D
3D4F2F25
BDF1AB61
3E0375B1
BDDB4712
3DFB6CF0
BDE79C19
BC184720
BD4AE848
BD64BC84
BDE3B779
3CD9D290
BDDFC268
3DFEF9AE
BD9407A7
3D04D290
BD7CC42B
3DA88B76
3CC60753
3B8675C4
3E1D397A
BD489A24
3D926281
BD9C81F9
3D93CD0C
BBB6AE9F
3E213179
3DC1DBF9
3DF2CE5F
3DEF67D7
3BDA18D1
3DEB10BD
BD75FDB0
BD66E7B6
3C297FCF
BDCF2D82
3DB0E87A
BD62476F
BE0260C5
3DBC708C
3DCBD4CA
3DB7641B
BDBE06A1
BE15A622
BE0637CC
BD92AB96
3DD2317F
BBCD948E
BDD59680
BDD9AC6D
BDB6FB4B
BD14BEA6
BD0EFA62
3D024A4C
BDB3C2FC
BD7CFDE4
3DF23544
3D593C4A
3D41F439
3D79D140
3D79345D
BC839276
3A325745
3D9D5B2B
3E2A8668
3D227C13
BE40C9A1
3CF0DD03
BE1B0796
BB4B1B26
3CFE4A2E
BC8DF1B0
BDC1F65E
3E1A850D
3CAF0BDA
3E856B77
3DA3BB7C
BE4B998E
BDB3DAD7
BDD5F886
3DFEFACE
BD8996FF
3D572FD2
3D8A634B
BE62A66D
BE0ADFF8
BE354120
3E10402D
3D8CBD83
BC9818F9
BE287238
3E652009
3E13A9F7
BD5AE5F3
BE8F95EC
BE0C48E0
BE05263D
BD6FFA62
3E716B26
3C41C11D
BEFF9471
BE18D92A
BDF0F738
3D80D09F
BE13BA57
BD659937
BE44A5A3
3E70D812
3E1042CB
3CD4EE70
3D0E28C5
BE0859A3
3D0C18D8
BE2BCC19
3D6BF4B5
BE9B37B2
BECA9BD0
BE221362
3D901D14
3DB90E6E
BDB7A381
BC0019F3
BE2D0A28
3D622000
BDD8752A
3D75A5CE
3C204540
BD93F902
BE9FA3FD
BC1655C0
BE1B6A32
3EC9D05C
3D292A76
BDFBE442
BE7EAA6F
BCC0489E
BDF48A7C
BDD932EE
BE079DF9
3ECE962C
BD0750CC
BBB1E8A1
3E2ED0B6
BD9056D8
3D87EF2A
3D018E5B
3DE3B218
3D619EC0
BDBD402C
3DA570C1
BB87FEC6
3C1FFA5A
BEA69F43
3D0DA535
BE1133AB
3EE75A40
BC3CAF85
3E05BFD1
3E194C9C
3D36FE55
BDC0568A
3D18474E
BE66AAB4
BDD5453A
3EBB67CB
BCD966A7
BD09E1AE
BE615C2C
3E832FC5
BE467C4E
3E0E4BE5
3CE570A4
BD99E201
3E83480D
BE106604
BC81F53B
BE37D318
BDFCA3F5
BE08196C
BD511958
BDECCDB8
3E4DEA43
3E8BC1C2
3E3D1762
3E0D4985
BE087C41
3E27C266
3AD37586
3E689E6F
3E2E8392
3CF209B7
BBB2CF0A
3D57815C
3D77950C
3E0599DA
BD41F1DC
BDD34E38
3DD81674
BDBECBEB
3D7CB3E7
3E17ED64
BBB42139
3DC7E341
BD4EA983
3E8A9984
BDBAEF62
BD0B0F42
3DE0C886
3D016B25
3E09F221
3CAB2B17
BDFE0812
3E753378
BC7B6A2C
BE00A224
BDDA93C6
BCD76E8E
BDB55772
3E9B318E
BE277E56
3DF3D84D
3D30DB66
BE9AE59A
3CE23BDE
BDF8F172
BDB98711
BE113EC8
3BBB74CF
3E802924
3DB17E7F
BE22D3FC
BE019CD6
BDCFEFB5
3D77B4C6
BE0D28C0
3D579F52
3DE6CE21
BE1CF1E8
BD50D1CB
BC05C16F
BD84DACB
BD92D155
BCF29F05
BDA11D9F
3DAF0240
BDEB8ABF
BDDB7F38
BD91598D
BE28B36D
BD1F8903
BDA21632
BDB2C946
3D5EAF8C
BDC06C95
BD567CF7
3D5F804A
3D82395F
3C9FE5AB
3CFE5057
3E220AD3
3C8FC6BF
BD417F89
BE88E6F8
BD359830
3D83E340
BE14D159
BD14910D
BE96FF17
BDA5AB00
BD4FA5C0
3E0F2EE2
BD472986
BD25CE0E
BE28DC2D
3CFA2C6E
3D927848
3CEAC57D
BC81282A
3E110F1E
3C18BD87
3D01CE25
BDD7EDFA
3E0144B0
3DD43069
BC463A19
3D91B46A
BD3ECA3A
3DBA832F
3DCA959C
BE151533
BE51F163
3D1F5AFF
BDA66FF5
3D76F7FE
BDA4A027
3D9B6680
3E05A229
3D805E15
BDB2F935
3CC6D89B
3E0F911E
3E1D457C
3D122C19
BE5649E2
BDCEA8CA
3DF151C8
BED3EBA6
3D5C59A1
BDD46F2D
3F144E7F
BE1DB7C1
BDC202DD
3A606815
BDFCE1BD
3BBA6872
BEB177E1
BDB21BDA
3EBF1CC6
BD4B1838
3D0E1A62
3EADF200
BDEDE0E4
BEA2D551
BE4C470C
3C07B34B
3D2C7D45
3C62B127
BE8E60D9
3D8B2814
3DF5CEC2
BC22C283
BD1C658E
BE808752
BDB741F7
BC149AB4
BC5C8F56
BF189CFD
BE32DCB5
3D6CA906
BEA33EBA
3C3E1660
BC852405
BD35ADEE
3E14FF53
3E30427A
BEB123E9
BE186DFA
BE030714
3E9AFDBF
3C14D6F2
BE120470
3CED8487
BE1FA064
3D89EB0E
BDDC7539
BDE7331C
3E80AA15
BE3B3E41
BEB14A42
BEF43CD1
BD99CE62
BE2DC969
3EDD6853
3F10C57C
3D0C69B2
BD384BA5
39EDF0F4
BCCB1DF6
BEDD41CF
3DDEC392
BD75F381
3BFD0472
BE6EA2B3
3DDBDA01
BEA98700
3D194447
3E3EAC1E
3D8E80EB
BC3EF7AA
BE5979A9
BE95A16F
BD6B029A
BEAD04D2
3D5B35D1
3E54DE9B
3A87408D
BED3D7C7
3C05FC7D
3DCB31EB
BB825493
3BD198F7
BD620D44
BE1EFD56
BCCEFD48
BE25103A
3BA280FD
3D0046BB
3DA5583B
BC1878B7
3D382BC0
BD8F447D
BE31F390
BC390591
BA651847
3DF467A2
3DB797BF
3DBE8D50
BDEAB52F
BE5BBEED
BB93101D
3B36F3A4
BBEE96BE
BC91EC0A
BD6213F7
BDC4AFDE
BDF24862
BD22EE11
3BB6B3D6
BE431982
3DA476F5
3F07C147
BEA6F049
3BE376E6
3E6BCE6F
3CDDA968
3DF022BC
BDDAAB9D
3AD66380
3DBCE41C
BDA44B50
3DD41D7A
3CC78C20
3D5E1E38
BD2CD0DC
3CC57AF0
BCFEA2BC
BDD494AA
BC8057CC
BCD3E8F0
3DD35924
3DABC9E0
3DC889E6
3D1B929C
BD942D40
BCCDE594
BD2FB46C
3C4B3A10
3DE92860
3DC30878
BD55E978
BBB44F60
3D89E7DC
3B437280
BCFC4534
3DA4A20E
BDCA56C5
BD26E300
3D4592DC
3D0A71E0
3DFF38FE
3D977F1E
3B952A20
3DA2D4A4
3D283B9C
3C6E4230
3CA34278
3DC4E852
3DEA55D0
3DA0B922
3DB76698
3DB87B0A
3B9F1FA0
3D9A03DA
3CB45000
3D80D176
3D439D64
BBFCE7B0
BD439FD2
3CA7C328
BDFBFD16
3DC05FEC
BCA904D8
BDBA9EDE
3D7FAA34
BDD5C3C2
BDC92148
BD46E318
BDE6DBC9
BDE68013
3DCE3456
3DFA334A
BDF985E6
3DB27838
BDD2F8E6
3D2BB330
3CBC0B18
3DE2AB3E
3DEFF610
BCB62F64
3C7DA100
3D2A77B0
3B703A00
3DFC3DE4
BDC47699
3D61D834
BD95FF9E
BD36D61A
BD6D0798
3D423704
3D733CEC
BB355AA0
3D095A5C
3DB2611A
3DACD0C4
3DF3D510
BD58CB42
3DA95760
3D312540
3DF9A938
BCF10F98
BD954A84
BB3AFD40
BDDB23B7
BDA9C9B7
3D8ED6E2
3D31541C
3D98CA46
BD8F8472
BD95CFC6
3DD7FEA8
3D66813C
BCC2BBE8
BDEAA105
3C331590
BC425068
BCD3281C
BD695724
BDB2AE8A
BDA66F2E
3C917550
3DC81DC0
3DB7F118
3DCA7F6A
BDC3BAA9
BD3E1B19
3DF74782
3D35DDE6
3D8DEFD6
3BEA88A8
3CD4E338
3DF8E1CE
BCDE58EC
BC90564C
BE1BA5E9
BDA367CF
3D1C9E7B
BDA05BDC
BD057409
3D118F84
3DB750FA
BC36B86F
3D16E178
3D97CD75
3C8B8410
BD0C7150
BE012B5C
BD54859E
BDF80329
3D80A48E
BDDF0DA7
3DEFC7BC
3E031773
BD26AA70
BE0E1DDE
BDBBB1D6
BBBA1AD1
3D060B68
BD82E1C7
3D9B815D
3D3F40CA
3BC24A73
BC2F1CF0
3CCCA15F
3DE6C4D9
BCFE197B
BD9AC185
3D0015D0
3DAC0778
3DD5E668
BDF6D230
3DAB9D54
3DD32F68
3D533D88
BCEB0FCD
BDEDD9DC
3E0261E4
3CC403C6
BD1EA9CC
BC13D071
3DCB4CEC
BD37584E
BE0C1575
3D74FC4D
3C9FC83B
3D881EBA
BDF48C34
BCDD934C
3E1BD376
3DDC314D
BC44BB80
BB9BE3E0
BDF4CEA4
3D86CBA4
3D3B47DC
3C20DA49
BDBE081C
3BA4E06F
BD2FD89C
BCFFABA0
BDDB3B99
BD1C6397
3D96742A
3D085841
3D9A7F4E
BD823CED
BDD8381B
B9BB3C93
BCA433DF
3D87977A
BC37F9D0
3E4B5D43
BD9AFE09
3E259FEE
3988CE00
3DE08714
BD8830E1
3DB6C4B2
3C97DB7D
3DA4D53D
BC5DC500
BCD5EFD0
BD92B973
BCDD7DB1
BDC77758
BD92314F
3D472240
3D480BBC
3C0BB9B6
3CEF2158
3CC565E8
3DD8309F
BDF51082
BD072798
BD9997B8
BDACF2A0
BD0F9382
BDA4F501
BD959090
3D70A0AC
3CC244A8
BCD7A762
BD99BF94
BDCFCAF8
BD40851D
3E2B79CB
BD40B76A
3EB3A14C
BE1B845F
3EBF7EED
BDCD786A
3D483A3B
BD3A6EA5
BDA53415
3E061292
BDF85034
3E9051B9
3E2B2A2B
BDAB0BF1
BD87EEA9
3DBC3793
BD897A1A
BCF412AC
3E8F2D7B
3CEB75B4
3E936FAF
BDACFD7E
3DB05F31
3E8F13A4
BDFC7D8E
3DED316C
BE0473B1
3AC185A5
3E5520AC
3CA02F57
3ED64300
3ED05991
3E9755EA
3E32C7DA
BB7D6727
3ECCF6C1
3BE02EC9
BE2686D0
3D4FD598
BEE18E12
BEDBE3AD
BEE820AF
BE887277
3E0985A5
3D272B78
BC719294
BD1B19B5
3DC08644
BE1356BD
BE516513
BDAC4055
3DAACD1B
3E9A2D7C
3C8D5F39
3EB8CD8A
3E1AB8D0
BD22382E
3F1AF21E
BE2CBC12
3D1B34EE
BB91BABB
3D95B6D7
BC9278B5
3E2130AE
3DEAB04E
3D242048
3D6C9DE2
BE9789D2
3EA6EE99
BD8DFFE6
BE863397
BE1CC46F
BDF4C71E
3D8720DD
3D8C3BBC
BEB40B68
3EC2FFDD
3E2859C7
3DF97B52
BCB1C836
BEC151D3
BDA7BD8E
3DC75764
3E7A9068
BE07F1D9
3D9AB4E9
3DFFD7F6
BE039B2D
3E9762D3
BDEA92EE
3CA44A0C
3B1D2EFB
BD3118F4
3D9202F3
3D6C02A2
BD366125
BDCE54D1
3E374247
3D6D4833
3EA68268
3EED1702
3DD30BE7
BD2D431C
3DF84D15
BE43BC22
BD2D74C5
BD538989
BDF067BA
BE04D02B
3EE02ACF
BE040B21
BDD62A82
3D9225A4
BE0916DD
BE002355
BE20406D
3D64325C
BE14EA5C
3E243F4D
3E052942
3E5B877D
BE2D62CB
3E16B97A
BD031899
3E33FE95
BE90C81B
BDB32690
BD49FA3F
BD4D42DD
3E31147D
3D0ED29B
3D71E6F6
BBEA72C1
BD2B652B
3D7D5CAC
3D34A170
3D913ACC
3CB39D56
3DB59111
BE3D5611
BE73B16F
3DAB9E20
BC2EB829
3E6C1C3E
BDE4042F
3E3A9F2B
3D2B3166
3D72DBE7
3DDA7462
BD0ADFFA
BD1EE9A3
3E608A2E
BCA0F15F
3D0B19B7
BE446E6D
3E39136D
BEADA966
BDAE6386
BD8F3835
3A2433A1
BD40EE07
3E208AA7
BED59512
3EBA6B0F
BE5232E7
BB651349
BE1BACD2
3C161D2D
BD89E2BC
BDD5C25D
BDC036D1
BE905887
BE543F35
BCBFCE0B
BDF91B28
3D50C802
3CEBD31B
3D10E2ED
BE3E3315
BD25A6A4
3DA50D60
BD9DE014
BD4F5865
3D4DC395
BE3A5F57
B8A10000
3D2B836D
3D794A53
3EA2C392
BDD429B9
BD95DD4F
BDB68F3A
BE05739F
BCFCBBDE
BE672C26
BE189A04
3E3EC902
BD27DB35
3D71D58E
3D1A5057
3DB147B8
BD850F4F
3DBE499C
3C347D58
BE257EFA
BDA26DAA
3D79E56E
3D68DA5F
BE65601B
BD7A6123
BE2817E1
3EDBC9C9
BC76174B
3E5A7E19
BCBCF637
3D93FD69
BDE91133
3E947039
BCECC77F
3CCB7835
3DEAE832
BDDDA4C7
BE1D4C00
BCC762A2
3E6640BD
3CA78724
3C72A968
3D10CA51
BDBEFB10
3E985456
3CA3725E
BE1E07CE
BCB98DD4
BE47413C
BDE1099D
BB4C1BA4
BC758A7D
BE131A2B
3C4067DB
3D04926A
3DD4B5AE
BDA7B9D4
3D80D726
3DBDFBAA
3DF02420
BD29A5E6
3D90850E
3D873A72
BA85F100
BD44A484
BCAF1FE4
3DA75C10
3DFE430A
BC9707F0
BDC0EACC
3D981F50
BDD21C4B
3CC2DAB8
3D00B064
BC641C80
BD158F9E
BB831010
3B437A80
3DCADA5A
3DC67040
BDC24715
3CE47468
BDEBF6C5
BCF70FCC
3CA2DAC0
3CCDDB18
3C819BA0
BD8DF109
BC7E1CB0
3DEF1788
BCD47120
BD8C8E16
BD8AFB96
3D93D446
3D45DF10
BD8BBEEE
3DAE0C16
BCDCAC60
3D524010
3CA6A988
BC3B3D30
3D5A7F38
BDAE6D4E
BD775250
BD821833
3DA5198E
3C15C010
3DA5EE08
3DC91E50
3E00FDD5
BD644CDA
BC41E930
3DC59F82
BDE02D18
BBD31760
3DB429FC
BDC7A968
3C1A2F90
3E00744D
3D342158
B9419000
BC8757C0
3DC50EE2
BDC95B80
3DA87D5C
BCFB482C
3D47D560
BDF157F9
BDFB3FAE
3D25FA70
3D2FA988
3C975EF8
3C9EBA10
BDAE6BFB
3DD57DAE
3D4E9E8C
3D695EB8
BD193E0C
3D16DE68
BDB37280
3D84E624
BDD775B6
3DBE4888
3D2412F4
BDBEF7F6
BDEBB620
BDA958F4
3DCF3148
BCFC3384
BDA7CEC0
3D559C30
BDAF500A
BDC1991B
BD773B7A
BD73814C
3DAE6E7E
3D1E4E88
3CBC1AF0
3CDC0118
3C0DBC10
3DA10296
BDEC24A4
3DF8EEB4
BB9105C0
BD3CEE60
3CBB6260
BDDF2C57
3DCDEA54
BD0E880E
BDD2DF15
BDD35A80
3DFEBAC2
3A089C00
BD9FAD91
3DBD7AFE
BCEFA6C0
BD78D2AE
BD3B2EA8
BD42109C
BDB05C42
BD900642
3CEC2DE0
BDE3705A
BD43928E
3DBBB2FE
BC393030
BDEECC62
3CDF93C8
3DA92B3A
BD96B92C
BD254CAE
3CCE81C8
3D7EC95C
3CE01698
3D853D14
BDB95909
BD9C0AC6
BD61BBD0
3D8C5824
3D588088
BCB7D1A4
BD6FCAC8
3DA42D18
BDA48ABF
3D896010
3DE80618
3DEF13EA
3CD34D40
3DD098D0
BDE4DF01
BD4EB196
BDAECB0A
BDF3D96C
3DDC4E0A
BCDEAC4C
BD517D74
BCE77190
3D439BD0
3DBF9342
3DE04060
BDA12870
BDDFD820
3DD71E94
3DAECD60
3D8B012E
3D9B5458
3DDAB3EC
BD440A16
BC2B5790
BC87A124
3DF3D070
3D5D63F4
3DD6651E
BDBABAB9
BD73F396
3DCECF5E
3DC2567A
3DD593DA
3DC207A8
BD181DB0
3D9526B8
3DC2C03A
3CAC3D08
3CECC920
3D99C1E6
3DFEC70A
3DD8040C
BCF4BD64
3DFD9602
3DA3607C
BDBE8A7D
BC2FA6E0
BDAAFA48
BCAFA7D0
BD3139A6
3D6921E4
3DF2EB1E
3DFD6342
3D9FC72E
BD81596B
3DF26570
BC1E1870
BD47B4EA
3DE66F4A
3DD8B9F6
BDE8FD78
3DC898AA
BDCAAAD7
BC3B6E90
BDF5D1C0
3CC0AB60
BDC89DE8
BD4E29EA
BDF86E2C
3DB70098
3BD46120
BD8967B4
BDDB3E87
BD29097C
3D9942FE
BDF3F448
3DEAF124
BD820C84
BC5F3B68
BD8F8279
BDA55A12
3C5231E0
3D086C88
BD5B3738
3D4BD168
BD8E986A
BDDA0BDD
BDC398D2
3DAC1286
BD4D3718
3E14446C
BCD3C2AC
3E0BD99A
3DD6EC0C
3DCF2D8F
BD04A4EC
BDFD2C39
3D807E10
BDB8CCCD
BA9CAA3D
BD85081A
BE0B087C
3DDBE092
3B91C5D0
3DD45B44
BC71D719
BD8AEC88
BDFECC7A
BCC8D4C2
3CDD0DF3
3A918F1D
BDD2E12E
3DA6A6FF
BD01FAEC
BDD0F534
BAD1DAE2
3D85BA38
3DBC9FCA
3A862BAA
3C380F20
BD5B21C5
BD8BE0AF
3D88827F
3DE47BEB
3C93E347
3C95F881
3C07FB80
BDAA2CF5
3D91784E
BD24B5B8
BB9A70F2
3D83BA4C
BE381B2E
BDE4C577
3D013AF9
3D993EB8
3DE1F9DC
3CFA8460
BCFF6738
BC53FD30
BDB17B98
BDB8F8D7
3D30C730
3E0A731A
3D14E916
3D295E6A
3CAEFFA6
3DFD6A51
BC6CAD0C
BB8D4812
3DA8CE44
BD157082
BD94BFFE
3B57C729
3D90D8BB
3BD26D20
3CD44EE0
3DB3A2D9
3E16DECD
3D8E9726
BE231476
BC89A55C
BDF87E56
3E11BC7D
3DDF1267
BD340879
3C82F732
BDC70965
3E1BA6A4
3CF66EF0
3D91F664
BDA877AC
3D71269C
3D5DA520
3D697621
3D6DB294
BDD80D5F
BA8D0A01
BDBEAA32
3CA25A88
BD1A96C0
BD167341
3CF75960
3C828073
BDE530F9
3DD9AD44
3D2567D0
3D9A7E29
BDF539A8
3E399C4E
3C99E370
3B76F380
BD453156
3E17BF96
3D42EF08
BDC6D7A6
BCCE48EC
BCA758EC
3D7D2DA4
BD922D21
BD1901B2
BDD311D8
3D57DE66
BDBF8483
BDA28417
3DB6101E
3D055D6C
BE057356
BD32F6ED
3D6403C7
BE1A39CF
BCD77EED
3D6E45D7
BD0C1209
BE7D0262
3E4EE53B
BD76824A
3D8D8889
3D727A16
BE816889
BE4C0045
BDAA3090
BD985EF8
3E06DE1C
3D9ACD7E
3D239561
BD8B0D16
BD782BD1
3DBA7C3E
3C4DA35D
3D0FAD2E
3D867A07
BDAA9A09
BE5AA5BF
BE01FD51
3E30925F
3BDE4FBE
BD2902F3
3E0E69CA
BDFF1FEE
BE3F9804
BC15830E
3E1D2215
BE5F50E4
3E87CEC2
BC358E5C
3C6DF707
3C80F18E
BE1D6FB3
3E122FD0
BC9346EE
BE19BD7B
3A20F84E
BE5D18C3
3DEBB6AA
BD340679
BBE99DBF
BCA48B39
BDF287AC
BECD8F42
BDBB7DFC
3E9390C0
BDB20DA8
BE1710FF
3E00B6B1
BCDD721F
BDC4ADEF
3E07495A
BD7CE5ED
3B84614B
BDB711C3
3D80CDDC
3B9FCCE0
3D994D6D
3E0FC230
BE1B6D52
BC3F353A
BE09A5D8
BE65A6A6
BE7A54DA
3D6F5E8D
BB7A8D30
3BC8F750
3D73D5C0
3D277428
3E1CA894
BC4EF234
BEA2694F
BE87002F
BDA9A665
BE8BB3F8
BDEC3385
3ED65D75
BE14453C
BDFB35AA
3CECD181
3B6093E5
BC68D370
3DF79E67
3D5DB2B8
3D7E71C6
3E4C147D
3D99F961
BE8C42E3
BE89CC5B
3D0AF1DC
BD424543
3DAE355D
3DA5241F
3D4075D6
BE25777F
BE1CF994
BE2DD0E6
BE896968
BE8C2119
3D9BB7B9
BD96826D
3A235706
BDBF326E
BDCE46FF
BCDDF019
3D9F74C3
3E9503E3
BCAE4490
BCDF4A11
BD28BCD7
BE25A329
3DB9BF31
3E6786F0
3EABE4C0
3E3D8862
3E1748C9
BDA305E9
BDD11EC9
BE29A35F
BE62B25C
BDA90C8E
BD0428B0
BD2360AB
3E2473BA
BD3C978B
3D92F6EA
3DEAE136
BE4404BA
BDFA60C9
BD7EF79D
BE5660BD
BDF8B63D
BD85124C
3C3FE53E
3D7D613E
BE229ED0
BE15D82A
3C2C323E
BC14C818
BE12BC4A
BC5EE163
BDC503D1
3CB4631A
3E23E542
BC0AB0ED
BCC39091
3E0E51FD
BE18C53B
BCB3D75D
3E82DB4E
3D27FA7B
3A5A3F1B
BBC394FB
BE0DE1C0
BCFA252A
BD1177C3
BDC198BD
3DB02F18
BD479878
BD6E6C57
BDCD0803
BC8DE4CF
3D6C7723
3D509C64
BD9B0A38
3E039F89
BDE5BE68
BD91E853
3EC61494
3DDE129E
BD9C26DA
3E176A90
3BC9E95F
BE0A6955
BD2B0BAE
3CB8A567
BCC2CF6C
BE0C0C94
3D048D02
3D5D1724
BE011CC2
3D67453E
BDFECE51
BDCF979F
BE14FB08
BDA5D939
3D9F0D78
BC9E7296
BE4BE3D0
BE3556B7
BC7C92CF
3E4DA983
3E4221BA
3CE47BCC
BE48D4CD
3D43D374
3EBC5429
3DEF32D1
3C4DFAE1
BE11020B
3D6D6BB9
BE2AE4D3
BC70D9E6
BDB10A42
BD7F38CA
BCA044B3
BD7A383C
3DA14262
3CDDDCF8
BDC422ED
3D8098FB
3DF4DC10
3C0B2047
3DF99B8D
3E650345
3D9E7E36
BB98065F
BDAB1880
3DC04E86
BE08DF12
3D536467
BD99D3DA
BDA8423B
BD4C5743
3DD42C01
BDFFFC03
3DB80044
BD8A35B7
BDF93533
3DA514C9
BE47AE2E
3D591A37
BE8F721E
BE4462BF
BD801C62
3DB379F4
3DBD0B04
BDC2AE01
BDADCBFC
3D46B688
BD3E5AF1
3CACCA8A
BC6FCC10
BDC0C8D6
BDD87B0A
3D576A8E
3DC7B440
3DE3795C
3C4A4250
3D4F65B1
BDD25B26
3DAA2808
BD828CAA
3DCCEF3D
BDE68CF3
3D9FDB6C
3BBD513C
3D0A10E5
3DF7FCC0
3D438156
BDF5A1AF
BDDA5F38
3D7FCDF4
3CD81288
BD0A5530
BDB97C57
BDEE38BA
BD8B0792
BD23CF00
BCB32902
BD841203
BDD94B18
BD1F0BE8
BD8CFDA8
3DFE66F2
BD0E7E9A
3D862468
3DEAFB06
3D36B295
3CB78143
3D96B4E8
3CA5B77F
3DB022C3
BC0E5EC8
3D9A49C6
3D7A14CF
BD487E5F
BD070BA4
3DE43259
3C62412F
BD0F9CD2
3D33D58C
3B9A4BC1
3BF6B7A0
3D881F44
3DBD8AD4
3D8312E6
BC7E616C
3DDF5476
3DD51BC4
BD9D0835
BDFC0DDB
3DF072EC
BCB77030
3CE2BE08
BD4001D8
BC62A798
BD1C0FBA
BD3442DA
3DEC21CC
BE05F439
3D26CB70
BDA49553
3B64E480
BDC60D1F
3DF8D218
BDCE52D4
3DB0A8FF
BDB4B4C1
3DB2A7A1
3CB69615
BB0F73B2
3C8CA069
BD83EA64
3D328AE8
BDD2D27B
3CEEA5C0
3DE66DC6
BDC65283
3CE0CB38
3D402B48
3B58ACC0
BDC6BA95
3CD31AD2
3D6BC121
3DCC5448
BD5C2DFC
BDBE6791
3D32F79C
BDD40ED7
3CCD06D0
BD3ED2A2
3D526BEB
BB8BD294
3C202830
BB817240
BD8A6161
BDAE6FD5
BD480FCA
BBE89900
3CEDAB86
3E030D8A
BDF14052
BDC1B978
3B6E877B
3BCA5504
3E513CE2
3AB59E44
BE1ACF6B
BE4C2517
BD131EE9
BE16241B
3E055916
3D684E47
3C1C2FBD
3E1F7571
3DFD67CA
3E3D74CC
BD566E44
3D9D3AFE
3E02066B
BD607662
3E060C20
BB24CFA5
BCE0F7F0
BBE4E36E
3A89D3BF
BDE42A10
BDAB4D53
3E10A452
3D99793D
BCAF5220
BE8D53F4
3E493350
BD941FFF
3DF61A67
3E3D569C
3D505083
3D9AAF7A
3DC8DA62
BD480876
BC96912C
3DBAC0BD
BE805DC8
BD525246
BDE8FAA9
BEDBA7BC
3DBA1D9D
3C88978B
BE1AC8DA
BD089A90
BE35CEFA
BDADFA30
3CECE368
3DD56101
BCE84618
BE277B72
BE085DBD
BE3B4B0B
BDBAFAB9
BD0F930E
BD87DA5F
BD0804B9
BEA46FF9
3CCF8A78
3D83965D
BE03C6B7
BE8B800C
BDE464D9
BDD16EDD
3CDC1D80
3E9D6CF2
BCEA8A63
BD3E67E2
3D9FC6E5
3CFCB52F
3E771F35
BDF1CA79
3BE40DBE
3D917EAE
BE0ADF52
3D533666
BE010645
BDE3C641
3EBF0CE3
BD040819
3DFFD3EB
3EE8EF58
BCD3E340
BD6A2E74
3E9E3AEF
3C8C6196
BE796AE2
BDC79D38
3CDF5B2C
3DB58880
BDAD8CC1
3D27EA7C
3E26C1C1
3CF10DC5
BCB4ECCE
3D41542B
BE106A15
3E01B2A2
3C9FC5E5
3D406047
BD000B10
BDA4B302
3E1CAA87
BE82A624
BE6208C8
BD42837C
BDF9B6B6
BE113D64
BD37737F
BDA8B418
3DF64215
BD98B48B
3D34F7D6
BDEDBCE7
3D109DEE
BD13A38F
BEB2E7FC
BE6BADBF
3DFB609E
3CE279A0
3DA4C280
3DA0A2CA
3C9DAD10
3D53A6D0
BDFE5E74
BD96471A
BC91265C
3B1C8EC0
BD84783D
3B777D8A
3D61EF6C
3DDD8452
3DF90B72
BDBA080A
BD9385C1
BDEBA01D
3D30FCFF
BC51E0F2
3D4957AE
3DC5EB54
3BD07EA0
BC91FF52
3D16E5DC
3DA23E00
3CC5B3B8
3D4C2374
3D1C00C4
3DBB2AA0
BC061000
3DA374CE
BDF78535
BD97A629
BD9E7EC1
BE0F8D6B
BE047E69
BC6FCC58
BC2C2494
3DA906CC
3D04B9AC
BCC1B7DC
BDFA2F4C
BDEA24BD
BD2FD705
BCFB481C
3D455DEC
3D81E484
3D3AF2E8
BD991622
3DBFA274
BD408076
3D9853E3
3C7C5200
3DB71E79
BD2D3EED
3DCF2602
3D9977CC
BDA07329
3D82DE8A
BDBCC862
3DADBECE
BDC767E4
BCF2F854
BD90D482
3C558560
3CF17CD8
BBEA40F9
BDD4B163
BD88877A
3D8530E0
3CE3F568
3CBD1391
BD7EEE96
BD878198
BD56F630
3DA6BDB8
BC3B6B28
3D83665E
3D36FA7C
BDD33ABE
BDF77136
BD989A53
BC065B28
3D33EE09
BDC3B7B1
BD76F244
3C8E45E8
BC722FA0
3CB177E0
BDFF991F
BD876426
3DD336C4
BD67FF5A
3C8CE959
BCD3395C
3DD3DD1E
BD625387
BD3BB68B
BD844FC0
3C8E4C78
3D265330
BD844902
BD3CBE48
3BC0FF20
3CB65190
3D6835CC
3DACC63C
BC90A7E8
BCFD4664
3BB7DF60
3CEAC0C0
BDB9E116
BD22E534
BD77115A
BD14BB66
3D077BC9
BE11861F
BC2CC300
BDF17594
3CA8A104
3B4E9A72
3E09DDA4
BC029CA4
3E271B86
3D94E370
B988E7D7
BDBCA7AE
3D82ED44
3D8BC2DB
3D035929
BDC63751
BD2B13B3
3BE32424
3CD36878
BE0A4520
3E07FE39
BDA5BBF9
BE1EEBD0
BCC40764
3DBB1A9D
BD97D33F
3D68B510
3D825B16
BDD3E718
BE454578
BD2E0724
BD72DCEF
3CA09040
3DA7E6ED
BCF8130F
3CD84169
BD9B4D8C
3E276DCE
3CF43D01
3D7562C4
BC89929F
BDC20B80
BD989A75
BC51B0D0
3E46FF8C
BD3E6E23
3D34D444
BB0147A2
3D51E0B3
3DD1E7F2
BD139ADD
BD50C8DD
3D9F2166
BD351509
BD69B872
BD010DCD
3D489D74
3D6FA108
BE0B7FD8
3CD59C37
BD4EFF1E
3DE6EFF0
3D7ED502
3CCFCA8A
3CD54C18
BB7EFC80
3D4E6778
BCCD0E66
3E36FE22
BD320E62
3B6BCB80
BDDBFDB1
3DE94412
3DF9DA10
BDD47420
3D97A1E8
3D68A90B
3C4407C0
3B6D2AD4
BD900464
BD03D3E4
BDF1093E
BD24AC7A
BD6AA26C
3E10D3BB
BDE74EEE
BE01B48A
3D97F7F4
3E0765BB
BDEA05A5
3D7082FC
3BBA7146
BCA09466
3DC25D14
3E1E0201
BD9083C7
BD2A9DE8
3C579FBC
3CCCB0A2
BD8CECB7
BD30ECC8
BC620D41
3D5141B1
3CADEDEB
3D85F33D
BD723C4C
BDA8B6A9
3E05B8DF
BE03D919
BD56D332
BD89C866
BD6F16A6
3D7D705A
3E393685
3DA1BB2E
3DA2E645
BD350250
3D048FB1
3DB70F22
3DE4B170
BD7318CE
3B519111
BE14F60B
BC8DC718
BD3C6AE4
BA78D7D1
3E1F9905
BD9A23B3
BEA872BD
BE8675FA
BC69DDB9
BDA90E18
3DC73053
3D6B29CC
BDCC716B
BDDCCF49
BE0F4B30
3DE7F68D
BC1E72A0
BE25AB69
BE1EAEC3
3B63EF3E
3E330963
BE291968
BD874508
B91F2D9F
3B563B60
BE2C3623
3D34A73F
3D502301
BE16ACC1
BE566A93
3E6BE4B3
3CC58F73
BC6C4589
BDA983ED
3DABCB29
BDD39E63
3AABC320
BE625511
BC6755CC
BD36F4FE
3B999857
BE37EC96
BE1D53E5
3E01982B
BE0E7EAC
BE847A2C
BDF4E896
3D0CD13B
BDD9D546
B9FBCA88
BD23A06A
BEB90C7A
BD28A785
3DD0BBD3
BE52A1F6
BE30AFA8
3E4C37C0
BCEE723F
BC8AFDE4
BD306974
BDDE80BA
3E489054
BE18C1EE
BD83D68F
BDE5779C
3E146BF7
3C9F6C87
BD100CB1
3D4C3476
3E8D7E5A
BEC15025
3D14B274
BCA8F87D
BE0B19AB
BE2E2328
BDC5F595
BDB4860E
BD6CD20D
3D5236F8
BEACF5C9
BE28D4DE
BE0BBA2D
BD55CC21
BD14EAE5
3E1CA76D
BE5B27BF
BE0209A4
BDACC4B6
BD20E81D
BDBAB576
3C497194
BE291A93
BD99B23D
3DC17B2F
BCC95071
BD92C97E
BDCC37EE
3D384632
3CD7866C
BB3FA540
3DEAFB27
3D82C98D
3BB81CE3
BDD1A165
BD937C8A
3E74B303
3E13FD6C
BD5A5DA8
3CC6CEF1
3DC25482
3CCDC824
BD84ED51
BDF075E3
BD25A14D
3D1DBACD
BBF72C78
3D78C2E5
BD85BD81
BDEEBD57
3DB0580D
3E21F54A
BE3D0705
BE684347
BD929527
BE2809B4
BCC40F66
3DEB169A
BD4F6F69
3D8B9D7B
3D09F273
3CA93D38
3DB33523
BD4A58D7
BD9B1A33
3CEE03FA
3EC11C7E
BD9FEC85
3C9CE55A
BD4C9FEA
BDB9A61E
BE8E617D
BD5A9E8E
BE4E5072
BD9050AF
3CA1C4AC
BE3F3F8C
3DB43710
3DBBBF37
BE0E089E
BCB99265
BED39102
3DD979AB
3C0AE74E
BE252187
BCE94773
3D6750E6
BEB15D76
BB71456A
BD419B75
BE1EF50B
BDE08894
BD805A64
BC28AFB3
BE31C657
BE372252
BE290665
BDA258B7
3C745FEF
BC67A5EB
BDBE5C78
BE3D08BC
BCCAB64E
3D176A10
3D996E28
3E50E8AE
BDC8EFB2
BE2AD4EA
BF1B6E00
3DD64A61
BD3F93AF
3CBFB009
3D4CC91F
BDF300EA
3CCC086B
BC880813
3CEA07DB
3DAB0836
3D3B938A
3D8CC956
BDB849E5
BE235571
BC6C820C
BE7D831F
BD644B83
3DFA89D3
3D113EC1
3C5D2312
3C5F0D3E
BE5BA69D
BCC93528
BEE47B42
BD6F6F33
3E0FFEFB
BC33686C
BE2FFEAC
3DDF44A1
BE29599B
BD138D16
BDBBA49B
BE1693F6
BD843B88
3E0BAF92
BDC4AE55
BE2A19BE
BD912B8C
3CA4B7C7
3C04F99D
BD60CB7B
3D02E725
BE97B580
3E8ADF58
3E946F66
3D9F5E8E
BDCACA61
BD3BDC31
BA818D13
BE254F4B
BE177C2E
BE03D3EE
BE064743
BBE0A774
BE4D53B9
BB1252FA
BC3FDD90
3A69E780
3D01EAAF
BE3431F8
BD59981E
3E807005
BE6F5211
BE29912F
3DB68AD3
BC0B7847
3E2246C8
BC3FF136
3C81991C
3B47F7DF
BB5530C8
3D7F7328
BADF81B8
BD4725FB
3CD7F5CA
3D5F1B15
BECDE083
3E1D3A18
3E01F9CF
BD4796A2
BDC3C419
BE91F5B8
BDB3C790
BDD5F253
BD908444
BE0CE1B3
BD55009E
BD6B9045
BEBC35B1
BD3E43C4
3CFCD086
BCBDB101
3D2CC924
BE8D07CD
BE87AC3E
BD74B973
BD985B71
BDF60C90
3CFECE11
BC7A1620
BE11B79A
BEBAE032
BCF90007
3DC96FE1
3E3FE624
3BD57FB7
BE05ED1C
3DF1D6D4
BEE5E9A6
BEDC36D5
3D865942
BDFD1946
BE0AC4C7
BBF38A6E
3D8A7D92
BDE104A1
BD5DED7F
BE7583E1
BDD18CEA
BE3507D0
BED484E0
BDBBCEEA
BEBA6822
3E622C19
3E8440B5
BDA8A08A
BD977D2B
BDDFBB97
3E1C2992
BEDFD5AF
BDE39630
BD828C98
3E4A7339
BE47348B
BD8AA77D
BEBBE930
BB57E229
3DF895EE
BD3A2408
BE48319C
3DFF9A1F
BE410A54
BE344C0B
BE0275B5
BB2BF314
3EA77AD5
3C85CF0C
BE37F0B5
3A1CEC79
BE9406AC
BE0A95C8
3E78B2E4
BE472728
BE857900
3AFBF2B7
BE938DA1
BE36E286
3D8C268B
3CC3F399
BD8030D9
BD55A64F
BDF584E0
BDC8EBCF
BD856E3C
3E21419E
BE07DDF1
3D1C5E5C
BD81A61C
3DC3630F
BE2F45BF
3E455835
BD2D184C
BE0116CA
BDC52D7F
BDE05FEB
BE06B239
3D9B6303
3E459C3A
3CDC5689
BD2FC0E9
3D9F2AF1
3E70A0D9
BEC6C6EC
BE24FA5C
3DA3C313
3D689CC8
BDA393B8
BDA1A118
BD5E3472
BD4847EE
3D9B36FE
3DCE1D28
BD9BC744
BC332928
3BA6DFE0
3CCABEB0
3DF3BFC8
BDB0D5C3
BCBA0BFC
3D8A02FC
BD0F0DC4
BDC4D2F5
3D1B7C78
3C401D40
BDF85AC4
BDEF5732
3DFAC7D4
3D39DAE8
3D8CDFF8
BDE9FB59
3D24BFFC
3DA940A8
3E004E3F
BDD34110
BD726148
BDCCFCDF
3B9AA380
3DC02FCA
BDFD6E17
3D8ADAD2
3D8E1FCA
BE0065ED
3D8D9848
3DB3E9AC
BD7C81C6
3C3FC1F0
3DA9B8CE
3DF12E6A
3DF60572
BD04A21E
BDEFCFB1
3DCF939C
3CC3F510
3D8EDAEC
3D4FBF68
BCC18688
3DB1CBF2
3D9FA5D4
3DAA3BE4
BD6B07A4
3DF8A656
3DF86A72
BD737F78
3DDD0D9C
3CA93720
3C6B8010
3E008769
3D9314D4
BD54F0AC
BD9E7830
3D8339C0
BDA4D9F7
BDC343EB
3D83D7DA
3DE7E55E
BCC4CB9C
BCA0480C
BDC9F411
3AAED980
BDCE0715
BC7E4CD8
3D00302C
BCE8C194
BD750D4A
BDDB2C97
BD604B44
BC8DDFB4
BCFDBEB8
BD27879A
BD85C2EC
3C9D0790
BDAC26B0
BDC51A95
3DEAD2C2
3D060C08
BC859558
3DCF6994
3D16A2B0
BD1A7982
BD583486
BDBB0E8E
BD63D384
BD181538
3C4B43C0
3D9EDA3A
BDC5E166
3CD13910
BDEDBD58
BCAF7F54
BD966B4F
BD9B7808
3DA73350
BD904880
BDC8F702
3DB7DFE6
3B19D980
BDF2E375
3D9353B8
3D4C7164
BBDFB370
3DEB6676
BDE2D9AF
3B97DBE0
BDD15A3A
3DA056D2
3D65AECF
BDA90626
3CABE2A8
BDC699B8
BDB0A3E8
3DA837B0
BD27D882
3DF25DDE
3D8A171A
3C5DC0F6
BD4C1DEE
3B09BA60
3DE03B1C
BD006E3E
3D9462A8
3D787678
BE1A3334
3C9A0828
BDEDDCA2
3D069D6C
BE1E000A
BDBE23F6
3D985860
3C8F2A18
BCC98BE8
BC0C73F6
BD3CD112
BDA9E698
BD42E285
BD9F69C4
3DBC4CEC
BD2BE629
BBD71309
BDD6607E
BD69AF91
3C202476
3D2243F1
BC82C1E4
3DF10955
3D823A65
3D76B637
BD03D9E4
BDBA1113
BDC2194E
BCDC2894
BDD3CEF4
3DC70100
3AE06A80
BCC4FCF0
3D49802B
3DE350EA
3CE7E121
BDBEBCC3
BC8D483C
3DE54C08
BE1FB460
3D8C3CF0
3BE332F1
3D47AFC2
3DB1C0FB
BD4642E4
3BE14960
BD5416C4
3D6FE51D
BD5BB1A1
BCFB3AC8
BDD7FDFF
3C88A159
3DB81B34
3D31BED4
BD21B234
BCB86EE8
3D9C1A22
BC070168
3D1541E4
BDFB4C40
BD7CEBE4
3DF24F54
BC5DFD47
3DBD9A56
3C6A668C
BC9645A4
3D27A1CF
3E21E8D1
BDE6EFC8
BDB06E6A
BD04A0E9
BD2D8F22
BDDAC9B7
3DEF6BCA
3D64CDFC
BD6874ED
BD88A267
3C8FEFB1
BE13E943
3D2D1450
3D2F13F4
3DBFBB48
3E07C6A5
3AF3B8C6
BE10347F
BDDF89B6
3BB1E4E0
BC322C9E
3D5FB09C
3BB2A49B
3D31E1E0
3DE05E60
3DD1A1C6
3CD38C98
BC64D9D8
BD522C2A
3DC2EBFA
3D6C5334
BD8E6E14
3D734E94
BCEB6842
BC749927
BBF6A426
3C84D121
3C733630
BE91A9EF
3E683DAF
BDBBADF1
3D74B20B
BD921ACA
3D79A55C
3D0C8C09
BD9E55C8
3DBACC04
BDF724E3
3E93937F
3CE76841
3D501A5E
BCC6B5F3
3CF87E51
3D4CB9F4
BD4414B2
3E7532E9
BDAF9B32
3D132340
3C1D1207
BD82116A
3E579FBF
BDAE5490
3EAE75D1
3DF36EE5
3EC08A14
BE1B2A30
BDD14CAE
3E2CF3D2
3ECA0470
BBA57F25
BD664173
3D5526E1
BE073C68
3E6713D2
BDFB1873
BD03C104
BE596564
BE87F4F6
3E8BEA5B
BEB2F019
3E90331E
BE67EAAD
3D0DE527
3C6A8D17
3D82EC39
BDA6B1D5
3D77BBE9
3D8C150F
BD145951
3DA8BC87
3DD5159C
3E354C71
BE3B7AFA
BCB781E4
3E3677BE
BEA03220
BE752821
BDDFC261
3CA82423
BD9331C1
BDC35D44
3DDAFE0E
BDE9A77A
BC1D8897
3D963D81
3ED1B11D
BD8AD6E4
BE2B15FF
BD9530AE
3F00152D
BA38A3B1
BDB39BC3
BEEE515E
BE7ABF14
3E374501
BDAC1A87
3C546BA0
BD81DDB8
BDD18898
3DF541EA
3E1DE805
BE4F4CAE
BDDCDBC8
BD406822
3DB8A928
BE162E96
BD21A722
BCA2E810
BB12AA88
39B8E5F6
BE451B2F
3EBA1A73
BE26E2A0
BDA1D112
3E878EF7
BE6C02E4
3E868238
3E30FBF6
BD49D3F6
BDCFD6B1
3DC71F4E
3ED4D507
BDB93CB5
3BF1E86C
BDBC25D4
BD9C3DF6
3EC8728E
BCA9326B
3DE3BED5
3E8B6C05
BE109D93
BD37ECF6
BE0017D1
BEB6F734
3C89954C
BE929851
BE856F85
BE2AB0B0
BE826961
3E1CE4E7
3D47BEB6
3EC07430
BE5DD201
3D7C440B
3D96DC1A
3D78684B
3E0C8C28
3D7ED2C1
BD563B97
BD87595A
3D175B7E
BD3C6BA4
BC5ACEF8
BE34E6F8
3DC5F2B4
BDCAD669
3D241D12
BE3F3BD3
BE0D169B
BD590A97
3D49A64C
3BD8EF01
3E94E808
BDC33096
3D39E4E0
BDB16906
3D760D67
BCCBA098
BE7D964F
3D9861B7
3CCE67FD
BE7FBE3B
BC9606FD
3CF3B5D7
BC8CB449
BC1ED754
BEAFB628
BE0130C2
3E5F866D
BEA8833B
BC910120
BEB026DD
3D72DF7D
3D5DE3A8
BE1FBA35
3C93F80D
BD9878B9
BD912B95
3D4D178B
3D861F7F
BD4B1CBF
BCCBB75C
3DBC7CBE
BBFD1739
3E35126D
BEA81A5C
BDDB0F29
3CC42F18
BDE832C0
BD969B31
BC9D859B
3E0CAAA2
3D630E7A
BE02D56C
BE33544B
3DEF1DA6
BD35D0AB
BCE026BB
BD594F6E
BE49F779
BB947FDA
BCDCEC9C
BEEFE1A8
3D0D22B8
BBC0283B
BD259027
BE0B392C
BCE26B09
3CF96EAC
3DE1A576
3C31323E
BE93A435
BCA205AF
BE245A10
BD8E0B9F
BD401F0A
BD920C78
3CCF6646
3D11D0A0
BD93FAB3
3E1AC909
BDF8B668
BCFDE0CB
3C5C1E91
3CAFC37A
3E0AAC06
3DD52936
BBABCF84
BDE94BB3
BCB8FCB1
BCA90000
3DA36B98
BDCFF36D
3CA6D054
3C8AFCF6
BDA1ED66
3DAF4D2D
BD781136
BE0FFD9C
BD03B69E
BD711B7D
BE1DD3C6
3DC6F362
3DAAEB4F
3BF96777
BDF53024
BE64B102
BC122548
BDD4216D
3CE46088
3D1EDA40
3DBCC7A4
3DAEC24A
3D5B0EFC
3DD87120
BDB46448
BD61B5C8
3D78427C
BDEA73A7
BD58B898
3D51E100
3DB45534
BD96D68A
3D92A57E
BD8132E0
BDB368DA
BC88BCAC
BDA71EE8
BDA946DC
3C909DD0
3D720654
BC0ECB28
3C609320
BC0C2F90
BD94403F
BDBAF57E
BDADE743
BDC47060
BD302552
BD7CDBB6
BD081670
3DF2873E
3D8AD676
BDDFC6DD
3C1245A0
3C11B740
BC519638
BBCF7220
3D19860C
3D88FDE4
3CF646E0
3CBA0060
3D6E5658
BCF50EF0
3AE76B80
BD45C62C
3D3BD240
BA539100
3DCBEADC
BC471100
BDEB8390
37DDA000
3DB0726C
BDDEA541
BB8B82C0
BD4D4224
BD972E11
3D4C1580
3DE2F62A
3D8F69B6
BCE6BB68
3DBA2CE0
3BA65D40
BE00CE71
BD79AF04
BDBB7896
BDDDE144
3D9AEE78
3DC18D1A
BDD5BAE7
3DD3094A
3DAC5E8E
3DF21A22
3D75E008
BD7899C4
3DA13816
BD1D1FC4
3C250130
3D54C890
3C50BB30
3DB5F1B2
BD4133D4
BD97DF7C
BD5E8DCA
3CEDF548
3DEF346C
3C928190
BDE41176
3DA1BADC
BD80BD00
BDEECF32
3C997128
BDDA5E62
3DFFE206
3DD6CE7A
3DB84F68
BD57844C
3D784C74
BCBB97B0
BDC6CF3F
BBD7B600
BCE16D70
BD6E48D6
BDC5333B
3BD86B60
3D7BC6A8
3909C800
3DB22BA4
3C10D930
BD161254
3CBF7D40
BD93E38A
BBE46790
3DD98B7C
BDD4D72C
3BA66660
3DA1F2DC
3DE637AA
3D822DC0
BD7D16EE
BD0EB0F4
3DFF819E
BCB39C2C
3D4B71B0
BD67432A
BD9EE462
BDFB8F17
3BFB5BE0
3DA1B1FA
3DFA20F2
3C208B60
BC629528
3DF31CF4
3CC13A90
3DF2C176
3D0F9B68
3DEF81C4
3D168E70
BDD29594
3D1FB654
BDBD0EF0
BDAC48C0
3D290510
BDA9FCA8
3D8B821C
BDE30E17
BD0A2B8C
BCFF64A4
3D65841C
3DB6A158
BDB636A2
BD96EA84
BD3AF4F6
3D385920
BD944142
3D044B64
BDD2F912
BDF0A40A
BD1CE8C0
3DC1EA54
BDA7E6AC
3CE89E98
3D94E9B6
BD81D290
3DFF4932
BDC9C547
BD8056F7
3CA1F9D8
3C7982C0
BC3A55A0
BD86769D
3C464300
BDEFE789
3D9349D2
BD252122
BE00D89C
BCDEA304
BD4DF5A6
BBA66A20
3D0F1674
BD8EBD69
BDE130C4
3E001A6F
3DE55E9C
BCF1BDD8
BD9C3D7A
BCA26E3C
3C510C00
BD2DE542
BA153E00
BC11DA60
BDC31338
BCA3AC00
3CF5D4A0
BC4C2CB8
BD2566FE
3CC07BB0
3DF82D12
BD9ADA11
BDEB9F5A
BD740DF6
3D8C56CA
3C5B6C30
3DA4E180
BD2180A0
BD1D4CE6
BDDEB6D0
BD04F0C8
BDCD0B22
BDC20466
3D64F8F8
3D53D794
3CFE4BB0
BD9E52B7
BD94EAC0
BD396E86
BD9AD3D0
BDE1F536
BD4D6366
BDD44BD7
BB8FC1E0
BDC31A33
3D98E438
3DE089C4
BDBECCFB
BDDD9BFA
BDEA781B
BD8EF5CC
BC173760
BD9BAA70
3DE5BB98
BD9C78F9
BDF166BC
3DE019F0
BD1E82DC
BDB36A8E
3DD62230
BD5005EC
3D02B834
3D777272
BC151E40
BCE2B9A4
3DF71FC6
3D71F043
3DFD8C9E
3CB8D538
BE34B95A
3C361A90
BE117AFC
3C361788
3DBE6492
3C9B3560
3D8207A6
3E2E5E3F
BD7AE25C
3E1A6D2A
B8CFE5B4
3CBA11A9
3DC35FCA
3D73B2D8
BD1A0FDF
3D687F50
BD77824B
3D48B23C
BD4A63D4
3D9800C5
BD9341C6
BE007792
3DB7B614
BC8F2711
3D9BA6AA
3D89048F
3DBAF12E
3C2A5AD1
3DB275CA
BDB9C31B
3CF51B60
BE1FF91D
BDEC72FA
3C4694F5
BD4AE8E0
3DC7273B
3DE89736
3D693788
3C89B280
BD98AD34
BB18C6E8
3DBFDA38
3D9DE2B9
BBCD2C02
3D6783E1
3DD020DF
BE0B811C
BDBC6561
BB2B5AA9
BE198EC2
BDC2BA2C
BD485262
3DBADCFC
3D12E644
3D5D3C38
BDB5E2FD
3AC63480
BA849E93
BD3F7962
3D844151
BDD49FD0
3D3F1A3D
3DE506DC
BD9BAB21
3DFB680C
BD96BE08
BDDD1059
3D4DED36
BDEF634B
3DF4D50F
3DB24DA6
3E00AC35
3DC59FC2
3D58C205
3D960917
3C03A416
BC14F838
BE24025F
BD9C28E5
3CE3A8CC
3C9FEEA8
BC244DF0
3E104F06
3DF1B3C6
BD89436E
BB1BE839
BDD17E68
3C9597A0
3D836F44
3D5DA1C4
3E2240B0
3D170AFC
3DB13E98
3DE0EFF2
3C99EFE1
BD979811
BDCBD642
BCC7ACF4
3D8C1D4C
BD210D9C
3BBEBBA3
3DE901B8
BD5F566D
BDA489DD
3D9AEE0A
BD90763B
BD4542BC
BDA50EAF
BD0989F8
BDC3EF10
3D770D95
3E7DDCC0
BD05E60D
BDB85163
BE000190
BF0F2E8F
BCBF29E6
3C99FA4E
3CFC7FF4
3DBA5DA9
3E2797C7
3CD1BCA6
BD17A3A1
BEC07DB6
3ECF1E72
BD0BCBE1
BE457B5A
3AA2AD02
BC12FFAB
BE0D7603
3CE9F695
3E1AC4F2
3C8FF344
3D2E7F74
BE5D454A
BDDC7AA3
3EFC72EA
BC236F80
3E80A056
BE1A9FB9
BE4334BE
BEB4D15C
BE52AFB2
BE30A118
BEB01C6E
3DB63D4F
BED2A04B
BD7645C1
BDC0EDA3
BD285210
3E43FEDE
BE180779
BE0D7AFB
BC393BF3
BD9D7200
3D6C0FEC
3CD348FD
3D9284F9
BE00E273
3C355A51
BF1BFE4C
BD00D4D4
3E79E91E
3D62E498
BE44A139
BDA9EFFA
BEBED07D
3DAA228E
BEDFD1CB
BE11D473
3E3EF5EB
BD85C783
3DC9DE2D
3C17E060
3C507590
3B16BA52
3D8A780B
3DC56BFA
BDC776B0
BEB557CE
BE073386
BE81C2C3
BDDD341B
3E96EC29
BD71CED1
3C0F63E5
3EADF73B
BE607D4C
3D505BB3
BED32B12
BE22D9B7
BE8EFF3A
3CEE1964
3CD727C5
3E26F140
BE313F95
BC671107
BDEBC085
3CE4126B
BE72BA79
BD6344D5
BDB65D3E
3E1E3C8E
BE140EFF
BE70E230
3DACE723
BDF1A251
BD82213D
BD0AD954
BC473471
3E21E3AD
BD91DFE0
3DCFDEF2
3D52F7C1
BDE12CCC
BE592292
3B051F8F
3E91788F
3D8844D2
BCC9169D
BE97450F
3D67FAC6
BD844EC4
3E95D957
3C9724D9
3D8ED61F
BDADB1D1
3CC25067
3E2D0933
3D306477
BCC1A7AC
BE43ADA4
3E12918C
3D87CD8E
BD08B235
3E074BD1
BECBDB1D
BDFA3CEA
3A5E84CE
3CB4400B
3E276680
3DB26E61
BCBA26A0
3E432C4D
BD35769A
3CF19F48
BD6CCC77
BE58ABA6
3D62FBD3
3DBD7897
BD3AB181
BE7BD827
3D1E2308
3D21359D
BE10A81C
BDF74C6E
BE34E307
BD47FA0A
BE2169EA
BD15C510
BE3DFBBA
BD670806
BE672586
3ED19C40
BB386B85
BE546533
3E892784
BEBD9DE2
BE05471B
3DDB23E2
BE9FFF3C
BE94551D
BD827645
BD578CBB
BE34759E
BE265F3E
BDA04B0E
BE40AB70
BCB5504C
BDE906BF
BE63CE44
3D2E1EAA
3E1743F3
BC66C4D4
BDDD655B
3E203CF7
3C4F2B5F
BDDACD28
3EA213B2
BE271A42
BD21CBAB
BC93FCF8
BDB6B3BE
3CC5F690
BC2A24DF
3D159FDF
3D997DCC
3CDF4BEE
3D3058B5
BE126626
3CC53480
BE0DC633
BCAE76C0
BEC939D9
3CBCF128
BE291002
BE2A1A07
3E1F2715
3E0CE37A
3D089475
BCF74874
BE2836E8
3CC22664
3EEB9B12
3DB2C8A6
BD7BE188
BD87F6CB
BE5C19E8
BD401CB4
BDA1B278
3D80A831
3E0C93AA
3E19D139
BC35A170
3E3F9FAC
BEBA7DAE
BDE0D86B
BCFD73F7
3E1AA52D
BD702425
3EA43C16
3DB8389A
BD7FBE88
3D8FF16E
BE88B83C
BE3EAD61
BDF3354A
3D088D40
BDFA1FE7
BDCD64BE
BD97F591
BD7CF393
3CA1A907
3C99DEAD
B9A6EF54
BCA08AAE
3D500EFF
BE127DB8
3DA56CFD
BE277CB4
BE27FD97
3D9664AE
BD7C92C4
3D01C580
3D9913C2
BD2F1865
3D6744D0
BDB4FD10
3D19DD79
3CC1624E
BDE39EF5
BD61B9BA
3E141634
BDD26450
3D9C495D
BD0C92F6
3D4EA7FE
BDBCAD54
3CF32990
BDA80CC5
BDBDFB9F
3D9E95B1
3DD1D7B9
BD0F9EE2
3DCF792C
3D188204
3CD2B82B
3DAA8F9A
3C9ED110
3D716118
BCCE29BC
3E080892
BDC7069F
3CA5CB21
BCEE8644
3D9B4FB0
3E02E60D
BCB8AD35
BD9657D2
BD21892D
BDA917B2
3D698D5C
BE03DC2D
3C8798C0
BD721D4D
BD7B4CDB
BCAB53FC
3D0B9517
BC48FA60
BDE6C81C
BD6F166B
3D906C30
BDC9E9E4
BB4E1E1C
3DC74356
BDD896E1
3D33E314
BA1A2848
BC95DD80
3D54B0D9
3BBFC1C0
BBF13EB0
3D370FB4
3CDCA560
3D94AF87
BD8D2B35
BD3FECC6
BD0E1986
BC904B20
BDE981E3
BCBEB120
3DACD88E
3DA53B10
BD3B53DC
3DB995D2
3C993390
3DC91AB2
BD6683A8
BDCA12E4
3D855E6E
3D97A9E4
BDDB4DDC
3D52F428
BDE206CD
BCC2B8BC
3D2159F5
BDB325E6
BD8FA0AD
BC37B1E5
BDDBF82A
BB8C9DF0
BD13CEC2
3D2A2C60
3DBF8A16
3DCB7D07
3E054143
397DEFAA
BBCB85D0
BD95FE0E
BD22F1EE
3DBBD99C
3D812125
BC338CB0
BB0289E0
BDAAC245
BD04F6E8
BDC15D42
3DE2CD18
BD31FF8A
BDC4AF98
BD29AABF
BC2125E0
3D9D5884
BC022387
3DC7EE72
BC512B83
BD8C22CA
BDD61F8E
BBF6D9C8
3DB1E44C
3DB7E311
3C6D92BF
3D26151E
3E5A8A97
BCA26AC0
BBAB9D63
3E18B937
3BBCC320
BD492D5C
BD99A573
BDF947D2
BDE84B9C
BD535C53
3E8AC13F
BE0FF9F7
3D1DF193
BC86790E
3E843E48
3CBE57CD
BB58579C
3E192CD3
3E3A94EF
3D501F02
BBFA6A3A
BE828304
3ABB3E96
BEDAEDDB
3C9C4F31
BD738059
3E47201B
BE41C93F
3E08CFB8
3E4C4873
3D8F3551
3E99B630
3E7B5111
3E23B8BD
3E065474
3DBC52FD
3E795DD1
BDD0EF19
3D1F3CA5
3D1D7377
BD2644EB
BD00CF60
3E49B87F
BD9A0D34
BCAF2DAD
BE0EB362
3D34FF28
BE77199E
BDB53F9E
3E70D37B
BDAE910C
3D725AC7
3E34E2EE
3D2D3864
3CE16823
3E49FE60
3E44D817
BECF1CFA
3D714808
BE0E2D88
3D644A4C
BE4905E7
3E251D49
3D287194
BE01665F
BE420D70
BE4D4C08
BDE5BDB8
BA4970C9
BD1FD1BA
BDD2810A
3C196648
BD073D06
3EA01639
3E47B74C
BD56A955
3E2B57BA
3C70EB37
3E014665
3D88C58F
BDF1CDAF
BA6B3DD0
BE2FBA98
3D89BB90
3E5BD785
3DABC8BE
3E56E0D4
BD97D0F5
BE1AFCDF
BE17E2D1
BD59CFEC
BDC6623C
BEAC5FCC
BC5E11EF
3DA48055
3D8A987C
3C8DE1FF
BDBA090B
3BE6AEB0
BC066D39
BD980FE1
3E7C71CA
BE38E692
3E2494C8
BE27F8A2
BD8F63EF
BDBB7F90
BDE91775
BDD9DBAF
BBC8715A
3D4B2401
3C1997D2
3D525654
BCABF737
3E05A89C
3E8593DF
BE06E1AE
BD751EFE
BD399EB0
3D8078E6
3D9C64D4
BD4A097A
BD1F77C4
BD46C63C
3CC7B9C8
3D4D6AA8
BD2F2098
BD06207E
3DA0048E
3DE0450C
BC0098F8
3D3B5848
BDE4C3B4
BD5E9F5A
3D3E7C2C
BCC54EFC
BDE43361
BDED1D0E
3C49F440
BD28A2B8
3CB4F0A0
BDC013F8
3D50EFE0
BD611BDC
BA27D000
3DC0C468
BC0BC570
3D0FD090
BD7A6544
3DDB6DAE
3D6CBD00
BD9E5671
BDC42A65
BC9F4B24
3DD65102
3DD5A5C2
BDA33097
3B815900
BC088920
BDB6AC96
BDC51EBC
BC89A978
BD3BE3C6
BCB06640
BC2DC718
BCCD41CC
BD91E7E6
3CD1EBE0
BC06C688
BCC29218
BD955586
3B91DA40
3D57B134
3D53E33C
BD0C2B40
3D069580
BB9A1D60
3DD8B53E
3DB8215A
3D89A518
3CE7E2B0
3D6939B4
BBE663A0
3DC3E9E0
BCB55994
BDBA930F
3D95CFF6
BDCCF09E
BC8256D8
3DCB8612
BDE38D03
BD696B12
BDC6E308
BDCEE8C2
3D1ADB78
3D4D9614
3DFB2A14
3DD5A166
BD703F78
BD3561FC
3D7E73C4
BDFADCB5
3D21D294
3DD05F86
3CE36E70
3D862E7C
3DB02B7A
BC5165D8
3D369070
3D7AF39C
BD610FA2
3D42BEE8
3D9621C2
BCEECFD0
BDFF5402
3D6DC45C
3DFDEE2E
BDD43B83
BC2B81A0
3DE5A1C0
3D209A18
3DBDE194
BD1042A8
BDAEF07A
3DCBB0A0
3DF6D9F4
BD337F46
3E007B7B
3CD448D0
BD3DA004
3DD067E4
BDA0AF58
BCA4F9A0
3CDB4EB8
3C71BBA0
3DF6423E
BCC41F90
BD9427F6
3D1A4C14
3E2D117F
BD11AC1D
3DA34F0F
3D78C106
3C8285DF
3D2DC443
BDB5DCE8
BD8737AB
BB43ED82
BDD033F3
3E04F7FC
3E18660F
BB902DC8
3DC5F260
3D83A7E9
3E06367D
3C9482E0
3C661FBF
3DA3D424
BD22B858
3DE61C87
3DF01CC3
3DEB5030
BE00C7C9
BE31C37D
3C9732E0
3D1C35CC
3DADE7C8
3D7D8017
3DACEDFA
3CBE8475
3DB20B78
3E36CEE7
BE148A56
3EA9640A
3DC0B1E0
3D51F09C
3D5BEE91
BD301543
BC832F71
3D728B68
3C60751C
3E096DD3
3DB09760
BDC6CC7C
3C720E52
BDC2BCCB
BE0501D8
BD9F30CA
3DDCB4CA
3D2AB62D
3E0362FE
3CE43B02
3AF716E0
3DC1A57E
3D8B88A8
3D4E79F0
BD414576
BDC89A2F
3DE324C0
BD2E9F7C
BDB28D00
3DCA2BB2
3E15C4B7
BBE8E7A0
3DBB13B1
BE366AA4
3CB3CF52
BCE7D56C
3D6F4218
3CA62FC0
BE0F79DE
3D210DDC
BD920BFA
BDE33A0A
3C6AE840
3BC885D2
3CAB6890
BDBB6E98
3C642E27
BDBE6085
3D993A0B
3D99C6A2
3E6668D2
BD9F4F4C
3D886537
3D754768
BC45D1CE
3DCD4E1E
3CA51D81
BCF35193
BDF65634
3D64F148
3D504D84
BE010A73
3BD32E60
3D78F2AC
BD535A0F
3DB4826D
3D9842EA
BD3C0E16
BDBA953A
3D8F4756
BD006670
BCFEA434
BCB34D6E
BDE23BD4
BDAF3689
3D7634BA
3C8D1F30
3D292D94
BE02CEEC
3D9C3E15
3D698C88
BDB11E62
BCF46007
BCC6F7CB
BE03C8E2
BDBD4970
BE851DCF
BE9FAFF5
3E207424
3D638BAB
3D0CCADB
BE1C1A58
BD26A3FA
3DCEC9F3
3D3A64E1
3DA7D019
BD42D24A
BBF024A7
3E096806
BDD6E4B3
BDBFBE12
BE55DDF8
BF0E3E0E
BD3AA2FD
3E3F3192
BDB3A64C
3AEF7D2C
BD9FE4AC
3D9AC215
BE3B8372
BDF180A5
3DABB6DC
3D6B5815
BE6235F7
BD8E77FE
BE04DCFA
3E128ABF
BD991A47
3F0A394F
BDCD8748
BE398DAD
3DCC4B48
BBD448C0
BDE15698
3E2110E2
BD8D88B3
BE27EF0A
3CA00EEB
3C4655CC
BE82B4D7
BE5A1B0A
BD14FD80
3C0BD397
3D043542
BE3BA2A8
BE753644
BC3B7E33
3E990C75
BCA85127
3D087787
3E95ED09
3E858051
BDA63602
3F005B8F
BEEF646E
BDDD95E5
3D67A822
3C8B698E
BDD2414B
3E44D018
3E0929E1
BD9F20AE
3DA51065
BD824902
BD99FBD6
BE4DF775
BE472D90
BE183840
BD85C9C9
3DE4EB55
BD1D0A2A
BDC9EEF1
3EFF19DC
3D7A9652
BE28F593
BDC2F7CD
BDBD10D4
3D4192D4
3F1AB7C1
3C348BA5
BE49D308
BCD1189B
BEAD178E
3CB83D79
3E44DC08
BDDAF18B
BC98C879
BE028F6D
BDCA2D30
3CA3BE80
BF179A43
BE0EB8AF
3D4BF050
BDA769D4
3E4D53D3
3EC825E2
3D9C57D2
BDE8D44B
BE1832E7
3E8A488C
BEFBED5C
BD875EDF
BD196782
BCAE1B85
3D578086
BE09B8B0
3D6207A7
BD787D6F
3B753397
BC9A3D14
BCADE214
BDC7DCE5
BEA8AD8D
3DA84257
3E856577
BE827BAD
3C7AC80D
BDD18959
BE09A913
BCC9E1E1
3DEF015E
BEA66E28
BD6716D6
3DC96948
BDC87507
BE258996
3D65F3B0
3D9CA67F
3E0E1B85
3D894D0F
BD9CB28B
BDC42684
BF08BF68
3CE16CB7
3DC9CBE0
3DC2DEDB
BE3FF4E9
BC9072A7
BDA2C9E0
BEA41731
BDAA5554
3DB62EC0
BDFFF521
BE8825B1
BE8C830A
BE6B20B5
3C30553A
3DDA2406
3EA88900
3D0593DE
3B9539F7
3E0BF027
BE306B7C
3D439A2A
BE45F9E6
BDF35E17
BE9B8CA7
BE89410B
3EA91B35
BE8E929F
BEAB9423
3D91EC47
BD8702E3
BD819595
BC9C7785
3D069190
BDE582B9
3EDCD5CA
3D2826E6
3E06A91D
3D45E7BC
BE00D421
BB75538A
3EAAD552
BE7AC053
3E0BABA0
BD3F8A62
BD940435
3CD26722
3CEEFD93
BC10375A
BD0E08EE
3C21C26F
3DC8AB5E
BE33BA7A
BDF9745C
BDA81B05
3D4A30E0
3D96CAA7
BDCBF752
BE1137B8
BD5DF4A4
3D37C856
BE0120C1
3D4B9ED3
3D47CBF2
3DF5EBED
3D0B322A
3ECA8780
3E1E1B7F
BE81ADB9
BDA2E143
BDC5E30A
BD1CCDA5
BE451F6D
BDA33FF7
3D8F7820
BBFB9053
3BE2B36D
3E05576D
BED98FC1
BDDD5789
3D80F6E0
BDE504B2
3B5E9740
3EDA0A86
3E7A477B
BDDF2CF9
BE034328
BCEC7273
BDCF57F3
BE057CDD
BDAB8B5B
BE0EB4AF
3D387FDB
BEAF71A3
BC988721
BE094438
3E412AC8
BD938028
BDCC4704
BDA2D3DE
BCB1828D
BD9BE721
3D339363
BDC1A4E0
BEBC7789
BE4CD062
3CE25DFC
BD3B6874
3CE49751
3D711EC2
BE1BFBD4
BE07CFAF
BD12691F
BCDAB554
3B3D0DB3
BEA44019
3EAA17A8
3E28F581
BD7384BE
3D5CA5EE
BEC8D5F4
3C3CC7BA
BE4F2F06
3CF570CA
BF13847D
BDAE5F3E
BE0E31B2
3BDC77DC
3BC042CC
3E748090
BD7418FD
BD67A7F5
3DF63E42
BEF00D41
3DC07573
BD71E3F6
3DA53A34
3E5FF918
BC55167C
BE49E63F
BEDCE4E1
BDFA0E38
3F2ED4A5
BEBF5AA7
BEC4BF79
3EC604DE
BD9652DB
BC4D35BE
BF15B817
3D48CD8E
3C63EC38
3D573ECE
3D86C325
BEACA7B0
3DA87177
3CBECEE6
BE987701
BD8C7363
BD810BEF
3DFEFE8C
3D21F9AA
BD90568C
BE2A9634
BE850ACF
3BE35374
3D665B87
BE01D412
BD5CC104
3DD768BC
BDF4CD22
3C8F939D
3ED75D2C
BD11FD1F
BADBDC34
BF083E27
BE057781
3E8CFA41
3C5BB58D
BC9903A9
3DFBA3E2
3E431FB6
BE3F9AE8
3E49F3D4
BDD4065D
3E0618A7
BCBFD267
3D7A201C
3ECBAC43
BF3DBD13
B96A3B65
3D64AB78
BDD48B87
BE39F35C
BE0D3AE0
3E0E16F9
BD84B4D9
3D70B8BC
BE415D53
BF24045C
BE03AE4D
BCD44EAF
3D4F73D8
3E3DE77D
3E9344BF
3C0CCF49
3D7101C9
3B1B00DF
3E02EBF1
BE3799C2
3E4DDB0A
BD6B80F5
BD7F2BB9
BDC77CF9
3DBA3B00
BD199CDF
BDCFD987
3F0B1589
BD0E0478
3CE2A2D0
3C3F4436
3E2D6024
BCE10853
BEA7283F
BF1AC90A
BD2115FA
3DB60DB4
BDFAFFE3
3D81283C
BD9840CA
BDE1ADFB
BD8E53C6
BD0FBEE0
3D81B126
BD90CF21
3C82B990
BC432968
BCB0B768
BDF05022
BDFB61A1
3DA5DF14
BB9C3EE0
3DE55FF4
3B98EBA0
3C8636F8
BDD04E0C
BD74FE72
3DF19B00
3D8F0FFA
BCF349F0
3E00C4DB
3D4F44F8
3D734A10
3DEA3E6C
3CE181B8
3DF1A30E
BD400074
3DACF64A
BD97D7D8
BD287754
BD83366E
BD891B06
3D513CF0
BD42A624
3D8E3052
BCBA0344
BDE93CC6
3DD5432A
3D4AC63C
3D516F60
BD5DD75A
BCEC02BC
3D187B3C
3D99280E
3D12FD78
BCA4450C
BDC6605E
3CDE2168
3D80EB84
BCC2AF24
3CA42170
BDE44FB1
3A957780
3D39CE10
BD211AE0
BD8AD7A2
BD9BEC7C
3DB10C20
BD08C9F0
BDE4D868
3DF6C86A
BD9B7FA0
BD9573D0
3C0993F0
3DF8AE64
3D9F7DD4
3CF0FDF8
3DFFFE6A
BDFC4616
3D85BA28
3DDB69BA
3DD2D79C
BB66A340
BDCF89DA
3D8D695E
BCC67014
BDC5A617
BD30B2EE
3D4D5CC4
3CCBB188
3DB9A54A
3DE0BF74
3D97059C
3CE7B320
3CE8EA40
3DE31252
BDD44866
3D931974
BD12D216
3D7833B4
BCF6AC00
3D9469DE
BD9F1EA2
BE0157BD
3CAFDD60
3D4FBACC
BB612600
BDBE8936
BC59E600
3CC93728
3BA98840
BDE48F9C
3CE5A3F8
BD799B1E
BDEB7702
BD4BD7E2
BDAA2B48
3D545E34
3CB6A090
3D8098BA
BC9B7174
3DDF2C58
3C9EEC18
3C0D9E60
BD66693A
BCF23DC0
BDFB0354
BDB3D41B
3D61ED1C
BCE8DD98
3C783A01
BD27286A
BCAB2854
BD84B869
BC3B25D0
3D13BBF8
3C117A0B
3D933571
BCF45342
3DDD310C
BD64387A
BDE6FE7E
3D8322BA
BD550BB6
BD783B58
BE1F9338
3CAB8240
B70C0000
3D786D58
3DEA7524
3E15410F
3DED9D56
3D3B4310
3D66F500
BE1892D5
3DFD3D47
BE1E21D3
BD444960
3D940CEC
3C930030
BE12C879
3DED7A62
BD2752E4
3D86BBFE
BDA61260
BDF62C2B
3DAB7E76
3D7734D0
BD3743C8
3BE2A7A0
3DAAAFA0
3D8262E8
BC5F9E38
BD2A2C50
BDC894CA
3DE79188
BDBBF695
BD57EAEF
3D0A7150
3DBBD4DE
BDE46021
3D751D0C
BD8D56F7
BDA6A4FA
3DBCC75C
3D5B24E0
BDAB0FE6
BDE8C829
3DCEE336
BD7A88AE
BD57FE04
BC3528C0
3DAF1F14
3D98E911
3DE95EE6
3D551598
BDC26C59
BC8561DF
3D4DAD24
3D875A58
BD267F34
BDDC53BB
BD2DAFDA
3D92BA22
3D9DE44A
BE1C851F
3DF6B134
3BDDE94F
3DA6C8FE
BDF51FD4
3DA8BEC8
3C81560C
3D5A0D00
3D1CF742
3D9C67C6
BDF56198
3DEFD584
BDAD9E94
BDBB4258
BC2ED973
3D3A8894
BDB0AE14
BDAEA1BA
3922AC00
BD81240B
3DFCD397
3C95DAE8
BD9A2C8C
3DC92F86
3D105A28
3DAD947A
3DF4D8F6
BDC2E07C
3D48EEA4
BD0D267A
3D96FD1A
3CB67C50
BCE14D61
BDF8600E
BB3A9840
BDDB8BDA
BE0BA43F
3D6ADE8B
3C8B68F8
BDC5F61D
3E039496
BE44AECE
3EF51ED2
BDD44981
3DA4CB67
3DC823A4
BCB5A282
BC89A24E
BDAB5315
BE9053BF
BDAE8FD3
3EFA445F
3C6203BB
BE0E5980
BD8E027B
BCC73061
3E34BD71
BD76693C
BD33D098
BE38ED30
3E97E70A
BD0150A2
BDCC65D7
3EBB64A2
BDDDE604
BE5996AC
37252C76
3D236896
3E33939A
3E32DFED
3E62380B
3EE2DA53
3EB4D642
BDA28F86
3E062BFE
3E4FF06D
3F37F2A3
BCDA2451
BE0D7B6C
3E235DA0
BD85BCFC
3E38960E
BB1CF8E6
3EA67156
3EC30385
BE0FC457
3CEA3BA7
3CD4C1A5
BA6B8EEA
3DFC0686
3CF56F8C
3EDC1E2E
BE8B3FF7
3E00ABFB
3B22A12A
3ED51CC3
BE2B72B1
3E69CA55
BE719121
BE0443CE
BD01F788
BD106314
BC2D0A0C
3D3238E1
3E5B1963
3D7952B2
BD30A48C
3E8069C1
3DD17ECF
BE3DA7C5
3EBA7D3E
BDB918C7
3CA7B33A
BBE7D859
3D44BFCF
3D91BE4C
3EC691AF
BDBA862D
3E56BCB0
BDD70AC5
3E206008
3D048A06
3E054BFC
3C84BBB8
3E1EE284
3D9C550A
3E10A9B0
BC33BC37
3EFD95BD
BCD924D1
3DCD81B3
3E5963E5
BDF38221
3B206441
3E9C10D6
BCCAB380
BDB3228C
3EE56F81
BE277493
BE10DEE4
BD022440
3DDBAA42
3C66978D
3EC5B243
BC85B310
BDB78147
BE4EB518
BD4EE2EA
BD870A88
3EB6A12D
BDA6C2C8
BE215847
BD922511
BD904BD6
BE1BFFDC
3D65A848
BEAA51BF
3EA41632
BBF11298
3D66AB23
3CB20B66
BDA8F6E3
3E91AF9A
3D4699EA
3E28DE98
3E81C7F9
3D5B8FF7
3D7597C6
3B9B5928
3E394C6F
BDEB141C
3E5A9804
3DEBAEDD
BDD5B964
BBAF2D07
3C5263D5
3D58362C
BE003CA6
BE69B666
3AC60E68
3EA2A2D2
BCBDF888
3CFFB09B
3E560590
3E011ACF
3D213470
BDD9C243
BD50A282
BDA767A2
BE093268
3E5E6275
3DAB85E9
BD5B6C7B
BE61C00A
3DBF7FFF
3DD8C08B
3E6AFA49
3DA7E6B5
3E31AE6B
BDE3A1AE
BEA98C75
3E041182
BEA39A75
3DB1D8EB
3E700765
BDF5CBD9
BD8E8420
BC86CDC5
BDF7BD64
BE738F19
BE1BC632
3E662B85
3EDD7E01
3CB60775
3E78EF8F
3EB64E51
3D8E7C14
3E2C34F2
BE175EBF
3E1414CF
3DE704E8
BE19F430
3D9B88F9
BD2298D0
3EE16308
3DB6DCE2
3D8E2857
BE5F1796
3E5FDD18
BC63211B
BDFAB13B
BDD9878A
3E3E8C01
BDE391C7
BC37CF16
BF043550
3E5C4A17
3E2080A7
BE4A7856
BDFD6C9E
BD346726
BD14DA04
3CE5EEAA
3E52B173
3D422EA3
3D9694E8
BD8CE1CE
BDBB1B01
3DB60B81
BDF600A6
3DF5322F
3E798A21
3D564695
3DCBEF3B
BDCB391E
3D0596A3
3C8BF95E
3E11A889
3DC583F5
3EA26F40
3EF681D4
BCC179BD
BC949328
3D1D8239
BEC1F7A9
BE021782
BD32C6AE
BDF9CCE9
BD680860
BD99E212
BBAC1B6E
3D13A55F
3E947250
3D87286D
3D7487B7
BD642169
3DE6D905
BC68EBCE
BEB985F5
3EA3B0F1
3DB3F522
BDCDD4EE
BD87F5D8
3DC7BA8E
BDD2AB6A
BDCA4799
BCC04294
3DDB6714
3D94729A
BD91A812
BDCA047D
BD07A374
BCF726CC
BDF784B2
BDA56762
BD84B378
BD9CAD7A
3C8423F8
3D48451C
3DEB02CA
3BCD1180
BD7E7FF6
BDCF34CA
3D8ABD12
3D020AA4
BDF6AA20
3DB3EBB0
3B64A300
BDE58619
3D339848
3DFCCA28
3D564CB8
3DCCEFFC
3CD3BA68
3DF7C9D4
3D6B0358
3D10CDFC
BD6D55E2
BDA0048A
BE00BE94
3D579C44
BDC6CB96
3D976D22
BDD2896F
3DBC701E
BDA091ED
3DEE4514
3DCFF784
3DC616A4
BD8449D0
BC6E1908
BCC6F7F0
BCDFC804
BD615A64
BDA315AE
BD56B212
3B5E5380
3DCC5914
3D2F7C64
BD99C15C
BC924790
3C84B3D0
3D58343C
3D90F77A
BC97C5CC
BDE56FF2
BD610DA6
3BEC5340
BDE0DD44
BDB5CD68
3DBDC14A
3D40C0D8
BBBFD380
BBD14380
39ED6800
BC7ADF68
BCBA5004
3D26D6A0
3E012E23
BE00D89E
BC71D588
BD784A50
3DEF5398
3CFCB128
BC4435D8
3D22ABAC
3D0E9828
3B92CDC0
BCFE6930
3CC80708
BDE38E90
3DD56B28
3D8964E8
3DC42F06
BD6BB546
BDAAB7D9
BDB46618
3D18D004
BCEEC0D8
BD86E457
BD57FEF6
BD9A8F38
BDB08EED
3DBDD91E
3CD66EA8
BDC533D4
3D78DC90
3CEB8838
BDDF9766
3D806E04
BDF16CCD
3D97DF3C
3CDF6318
BD087350
3BDB0320
BCB1DFA4
BDD47F79
BDAFCBDA
BCB5FF30
3DEA360A
3D9D85B2
BD68A342
BDDE0B9D
BDC6D962
BD4B1786
3DDF575A
3CDCEBC8
3D4043D0
3D19DA18
3D8DA064
BC9EE108
3BD51A40
3DF7DA34
BCA59178
3D5EC5C0
3D793CC0
3D553D30
3DBFA20E
3DD2DEF8
3DE006A4
3DD9FB58
BD919E9D
BDCC2D7B
3D909886
3CD6F500
3DF6FC30
3CC30C10
BDEB01D4
BDAF68A8
3C647FD0
BCCB7558
BDD3D861
3D806930
3D947A7A
BD4EA318
BD1C792E
3DDFDAA2
BD836520
3D083B84
BCD95FF8
3D3DA5F4
3DF26290
3D941672
3CCDC928
BD8BDE0A
3CD0E9C8
3DC65C2A
BD992624
BDD8140A
BB5E1B60
BDE62BB1
BCA14B00
BD4D25C8
3D9BF15E
BDC04100
3DD83258
BD939360
BD9A4D78
3C335010
3D2146B4
3BDA6CC0
3D80E8DA
BD62893E
3DA4A376
3CB827E8
3C03CA90
3C955DB8
BC8E6250
3C0E3050
3D917128
3C353070
3D826B08
BDE51015
BDF94EBA
3DD0BE6C
3D74D8F4
3D4DB2C4
BD09EDE8
3DBB3004
3D3311A0
BD91C0B0
3D5FD898
BDDC89C3
3CD27D10
3DEA1D0A
3DC9F13E
BD77C036
3D92D23E
3DDC742C
3D3A1E78
3D8F8EEA
3D7747B4
3D0F252C
3D18FC94
BD95EE84
3D47E5E0
BC8121FC
3DAD6082
3C95F610
3C15DEA0
BD3EC97A
3DE9C18E
BCB63108
BD6B06C2
3AC71E00
3D8A00F6
3CE20E40
BD32E716
3D576B64
BAB2FAC0
3DFABAD2
BDF721D9
BCA133B4
3D1C3EA8
3C26EC80
BD6C1C72
BC3738C8
3D5C36E4
BC965C44
BDC4A2C0
3CF41B2A
BD95AB50
BD5625EB
BD432852
3DBD470F
3D359A27
3DDF357A
3D9A298C
3DAB1554
BDAE2453
3C96BEB8
3CB8FBB2
BBE1B200
3DB39A91
BDF56B7E
3D075717
BD0ACFA7
BDF0E38D
3B6DC742
3D92C72F
BD558F7A
3D269288
BC3F4090
3C3A227A
3D9B42E2
BDB9C71C
3B8F3620
3D55A3CC
3CFD34BD
3D6324DE
3D8A9872
3DE7A65F
BD820C8E
BCE24FA9
BA95BAE6
BD1E98BB
BDE23858
3DC021DC
3DEC4EA5
BDEA74BB
BD3F5C8C
BCD19554
BE04FAD4
3D1B5B9B
3CE598AF
BD90EB2C
3DF1F400
3DCE0FA4
BD7DF8BA
3CB48CD3
BD8697B2
BD8E0575
3E32A5EA
3D2AC5D8
BD247A91
BCEF048B
3D3DA3E8
3C6E883D
3C8CE5F6
3C940140
BDE4BBC7
3DF6871E
BDF23512
BD779DD2
3E059581
3BD318E0
BD271226
BDA9C2EF
3A16880D
3DDDECCA
3D20C632
BD08578E
BC173DAF
BD8045FA
3D306734
BDBB9D42
BB0E5E58
BD189062
3BFB35ED
3D855BEC
BB675D40
BDA97E08
3D9E848B
3E033948
BC279DE3
BDF81821
3D7C78B0
BD55C9D9
3AE1C272
3D29EBA0
BDBD73D2
3E16309D
BDE3B68B
3D61823C
BDEE27E3
3DF58AAA
BDF61AEC
BD7797EE
BC14A83A
BD282A16
BDA28C0A
BD73C97E
3DF60092
BD5420AB
BDDAE64E
3DBD8344
3DF4382E
3CF088D0
BCD34334
3DBA4A3D
BDBE6BCA
BDB74492
BD5017EB
BC811B68
3AA7B42C
BC847A10
3DECA216
3DD2E594
3CBF9FE2
BDF234AD
3D869FF6
3C57FFE7
BD087A04
BDD6F8EE
3E604A4D
3E47F777
3DB3527B
BD1E025A
38DC2353
3E0B45BA
3DE6902C
3E0CFD54
3CCE6213
BE48D463
BDC576DB
3D070726
BE6B86C3
BC12C0F9
BDBB4220
3D6FCC3D
BDE2FA3D
BD896327
BD14885B
BDBA2B58
BE0CA9A7
3D9A7512
3CEACD00
3D083D16
3E4EE17E
BDA9FEE4
BBAD29E9
3E263A67
3C947E50
3E63A718
BE70FFC0
3D328DF3
3D58045D
BC4E0F36
3D23BAFF
BE1105FF
BE65A870
BDAAFCB7
3E72D3FE
3D00A257
BDB69959
3D5B6840
3D9DDE07
BC8AB1FA
BDF2A124
3E7501C2
BE39DB78
3E3A438F
3E8241BF
3CB0EF3E
BD67D949
3E5D6FAE
3D49A24D
3DCF89FB
3E824DED
3E949756
BBF9061C
BC03B8DE
BC9F935A
3CEFD366
3E88DB75
BCBA7444
BD9BCBA6
BD070882
BE0F6161
3E4379F7
BE50BCBC
3CD162F0
3E6E84EE
BE130621
3DA13031
BE90ADF2
3DB9ADCC
BD988A9B
3EABE7DF
BDAF8779
3D0EE273
BE1BF5BC
BDF9DD97
3C4A3CD0
3E5E694A
BC031677
3D506591
BD3A7C57
3DC8EE31
BD76FBEB
BDF2D2C5
BEA4AA45
3D97EB9D
BDF9240F
3CD43BBB
3D8E1CE3
BDCE4103
3DE9D66A
3BFF8553
BE7376A8
3DF30238
BD1AD7D8
3CBBB879
3E0EB82E
BE33DD25
3E817D69
3E3C0CF9
3DA1480C
BDD4F11B
3D852284
BD341E66
3DC4DA02
3D205858
BD0E8F1B
3D16BFFA
BDCA7D37
3ECB9A19
BE100AE2
BEAD5111
BEC54E0A
BF2C8F29
BCB86DAA
3DC17654
3DF5A24A
BEE687A2
3DC500B7
BC81C578
BCB9B867
BDE45374
BEACBF44
3AA9E545
BDDBFF38
3DECA44D
BEBCC804
BD36BFC6
BDE6EE74
3E3DC0F7
3B19ECC0
BDD5F513
BCFDE33F
BD161D40
BD2AF1C8
BCDF6AA9
BE9686C1
3CCEFEA8
BDA1D8DA
3DB6FAA4
BDAFE5AB
BEC8C959
3E0005C8
BE457E4E
BE814D72
BE95AA3B
BEB2D08E
3E383DEC
3D58D38D
3ED5DE74
BD469EE0
3E5B6B67
3E66EE80
3E959889
3EA6F3A6
BEB77A22
BE6C90B4
3EA1D4B8
3B468DDB
BDB673F6
BDA1D4DE
3DBA9806
BD96A7AE
3D331356
BE98AD16
BEE98081
BE21EA49
3E541E85
3D7E33BA
3DBAB4C7
BEB8BBF7
3E2F1CEE
BE41F16F
BDBB60A6
BCC69AF8
BB942CB0
BDA72205
BDB628CE
3D9EE3FC
3DAE5A15
BDA40204
BF071937
3B2BE942
3EBE2CED
BDDEFB74
BDCAFF56
BD66E66D
BD3C4CF5
3E82570E
3D4A1EDD
BE9A690D
BEF1BA41
BDB8DC6F
3DD00D0C
3C655E00
BDDC3DA4
BE4A3874
3DE45663
BD4BC801
3E1AD5C4
3DC5A2F4
3E1D4B7C
3D7A3101
BD3DBA00
BCEFE89C
BDD57E04
BE83BAC7
3E9EB626
BC90FE85
3D914F8A
3C4903C6
3DCB7F65
BE91A431
BE96FAFC
3B671100
BDC8C442
3E0E1CAF
BE1AD42B
BCD5F8EB
3C091161
BD8B9C31
3C9C12CA
BF008D0E
BDC96380
BC3ECCE4
BE848116
3DA76805
BE04AEB0
3B8C5BEB
3E0E5BF0
BD33DE09
3D3E8C68
BE035537
BD31B82A
3CB9D1A0
3AF52100
BD9375B4
BD54F42E
3DAFD5A8
BD70A0F6
BCF5DEFC
BDF8E43D
BDBB84C7
3DE81C38
3D6C5F94
BDE99A75
3DD4A0C6
3D99A8DA
3CFFDA70
3D1D3F18
BD5785D0
3DEAFB22
BDAE5A0F
3BF5C6E0
BB82B7F0
3CD9AAE0
3D2932E4
3DA443E0
3D98BA8C
3D85A7C6
3E00435D
3DFC01C2
BD4BC922
BD8C1E72
3CEA3D30
BD8C70CB
BD75862E
3C6161D0
BB0DCDA0
3DCF2A56
3D20808C
BC9714A0
BD876A52
BD4E5794
3D9206BC
BDAACC2C
3D4642AC
3CF437D0
BCF29E94
3D530FCC
3DA2C568
BDC4A150
BCFDF448
BAE07EC0
3C1D0DE0
BCB7F014
3B5FC680
3D9F0E0A
3CD76D50
3D7F3138
BDE75816
3DD8FD28
3D063080
3DF7D160
BBBB4300
3D8784BE
BDAE5F1C
3DAD642C
3DFA88D0
BD801857
3D817F08
3D3A63C0
BDAB3D22
BB890290
BDACA4F3
3E00A16F
BDF66759
3DD72C7E
3D8BDFC2
BD893486
BD9E9FC6
3DDCCE1E
BD873A66
BDB2E688
3B9FF1C0
3DD48AC8
BDEF6803
BCB136A0
3DE72710
BC9B6EFC
BD6FEAFE
BDD87458
BDEE950E
BDA85E30
3D31B5E4
3DF731C0
3D10DC54
3D12D6C8
3C4F7AB0
3D5AEEEC
BD64AC18
3CAFA2B0
3DC2EF84
BD078718
BD91EF9A
3D6B2E04
3B91E4E0
3D7C75A4
BDEB4D22
BDB6DA79
3DD32658
BDABB152
BD2FFBEC
BDBA3A7A
3D819D3E
BDFB9093
BD293602
3D03B508
BD974EA4
BCA02C30
BD9AB6DE
3D908724
3D0EFDB8
BF0A9C2E
3DD1786A
BE4411CE
BD055AD9
BEB93234
3E04E015
3CC02E56
BDD0514C
3D87205B
BE347795
BE6A2033
BD1129F2
3DB9F6E6
3E1DAE2D
BD0F47E0
BE8EF8F9
3D16A233
3D96FD9D
3E695814
BE664A6F
3B82FDDD
BD97D689
BDE93710
BF0CD141
BE05C30F
3D0D5842
BD598E3C
3B1FCFF2
BE25F731
3EC10212
3D444962
BEB59B9B
BE46AFBE
BED238AD
BE61AD66
BE798481
3E507647
BC848C49
3D9653EE
3D72B32D
3EA482C8
3DC92CE5
3D31CDA6
BF12A1F9
BE3813D5
BDA8EDC7
BB57B462
BDBE5BF3
BD860314
3D7DD42A
BD7ABD95
BE1052F9
3DCDDF1E
BE32B4A4
BE06061F
BE3C99FB
BD8FFC48
BD177816
BB0FDCA1
BE39C908
BD2811CC
3D8CE071
BE0C41FA
BDD9C428
3DCA7E65
3D7C9BF8
BD1FC097
BD28B037
BE502296
3E1A65CD
3D5955F7
BDC77914
BE70382F
BD2C7C47
BCA6A420
BE69562C
BD7DB853
3E262807
BEAEEB56
BC62CDE4
BE7B9138
3C380794
BEAAE7DA
3D974075
3E64BABF
BE003544
BC97757B
BE09050B
BD0FE7AE
BCF69826
BE269B42
BF198644
3CB4D9CD
3E094A0A
BDBC27E0
BDB2BDC9
BD0BA9B0
BEF99330
3E014559
BE0B8E70
BED04E05
3D212D92
3C4FB07E
3E475741
3E123116
3D7EE10B
BD96EF63
3D45EFE9
3D8E3344
BF0762C8
BE3E0A0D
BDE05EEB
BC29037D
3CCD31DB
BD8DD1F4
3DDD8D3A
3D43CB93
BE2C480E
BD5C2A6D
BE5A5A96
BDFF5364
BDAAA64A
BDF16421
BCB0A160
BBA11FB0
BD08CD32
3DEB2CE8
3DC1A420
3DFBF974
BD7E98F0
BD196D4A
BDFAF8F9
BD0B8D18
3D9BD97E
3BBBF220
3DAFAC00
3DB8A332
3D89544C
3D81A004
3D33428C
3B45FDC0
3DEF49B2
3DD92414
BDCF8FE2
BD23A69C
3BFF2340
BDF2AFFF
3DB87D98
BC8E8580
3DCC18DC
BD99839F
3DA964B0
BD0DA4B4
BDEBDEE9
3D6BB14C
BDE14522
3DEA82B0
3CCB5738
BD2EF53A
BDD456E0
BCEDCC78
3DB2E6F6
BDAE77FB
3DB3CDA4
3CFECB88
3A27DC00
3DB01A18
BD93D8CA
3D704530
BE011889
3C4754E0
3D025BBC
3D40ED24
BCE94BE8
BD9D24F2
3DFABA60
BDF59A1B
3DBFC210
3B3E0700
3D35E140
3DA8F726
BD84CC52
3DEFAFF8
BCD05234
BCA6F3DC
BDFE58D4
BDBDAD34
BBCEB870
3D88D148
BC68CBB0
BDFA64BB
3D58EB40
BD28F4BC
3C9B50A8
BD9FBAE4
3DC63216
BD6E49B8
BC1BB648
3D1C3848
3DF0A4B0
BDA1F7D0
3DC517E6
3DDA53D2
3CDD8D98
BD138B0E
BDAC0B94
BB8F04E0
3D6B2DB8
3D748B1C
3DC55E7A
BDA93500
BC84B634
3D746E80
3DD128C2
3D99E032
BD6F7A70
3DAC3280
3DF5FF1E
3CB08D48
3D3D2778
BDC71346
BDC6E723
3A8AED80
3BFE0D40
BDC1E724
BD7C6198
BD67A98C
3D889912
3DB251E6
BB804820
3D544914
3DC93B0C
3D5FD7D8
3D44BC54
3CFEFDF0
3D105A90
BDEE1EDD
BD47EEF6
BC987BD4
BDBB905E
BE186EE3
BD7754B7
BCA11C94
3DEB77D0
3CCC08A8
3E15DC25
3DAB63E0
3CD91311
3D87BCD6
3D285106
3DB4A011
BE7D30BB
3D60B7A8
BDA56938
BD482074
BE30CA36
3DC248BF
BE03B435
BE0B9C09
3CE875A0
3D3700A8
3DD61A9E
3D2C31F2
BC56AA60
BC62DB40
BD5DA049
3DAB1B80
3D2ED0D0
3D426274
BD241EBE
BDF334A7
BDEADD78
3C94C8D9
3CBCAD0C
BCFD1D63
BD5CB1DF
3D1FFF0F
3DA3991F
B8DCDB86
3C376D81
3D6FD29F
3DA4B4F1
3D609421
3E1E43C4
3BE7AE77
3D97007E
BDC66F2D
3DB6ECA2
BDBE229A
BD548608
BDE2334C
3D7E0909
BD7FF9C1
BC83BF18
BD1D4751
BE1EB935
BD3DB362
BE24FA61
BD7FBC9C
3CBD3972
BC9233CC
3DD67904
BDC920F7
BDDD6909
3CEC8C8C
BC964474
3D3C78A3
BD9B2B98
3C8D6CE0
3D3FC44C
BDF1CCE2
3CD70130
3DD0B105
3D161B52
3D564121
BAA376A1
3D1E2FEC
BD156D78
3DD6BDCF
BDBB0E8A
3DE6D790
BDCDF3AE
3DC19F18
BD91182F
3D65E3C9
3CDFEA97
BD14D9C2
3D6A5425
3D616497
3DC21D3E
3D33BD78
BDFBF61D
BC54D224
BE00D37C
3D84BEF9
3CFB9139
3DB0D154
3D8EF421
BE1E4FA1
BDC1C389
3D49539D
BDC9CA92
BD3C09A5
BD7FA3FB
BD31C21D
BCCBE1D8
3DA1B654
BDDB8A86
BD57023D
3D63C136
3D94968E
BDD6ABDC
3D984506
3DA511E6
3D646359
3D456394
BD4F9C3D
BD34AF5A
BB55AAD6
BE4089BD
3D5C4163
3DF4A1F0
3DC6DE85
BD77841D
3D1BD17E
BED058EA
BDFD8EC6
BD3D050C
BDAF9527
3DED0447
BD010505
3EB0B34D
3D90E259
BE1285C2
3DF38490
3DCE440B
BD9B7D87
3DC194DC
3EF9DBDB
3BAB9799
3EBBC6CE
BC216C6F
3E051B37
BE0B9989
BD5465F8
BD8839CA
BDBBE234
3C3BACB7
3DD7D168
3E1BA418
3D8E099A
3DDC10F0
3EB46339
BC321010
3E1AA806
BD8D4B10
3E81495C
3D81BBFE
BE8FB88A
BEB13462
3D905713
3D4C237C
BDD293EC
BE296C70
BE1FE3CF
BC275487
BDF6E1B6
BE2BE546
BC350098
3E6A1C41
BC83FDFE
3DD374BC
BD3214A6
BCE293F9
3E981174
BCDAD1C5
BE059F69
3EB8E149
BD4A2A04
BE70E3E7
BDE53A42
BDBD8426
BD08848E
BDF3EE67
3DCA24A3
BDA760D9
BD73ABAE
BE8AE628
3EC14627
BE54495B
3D50BB79
3C8B0C0A
3EAC868B
BD8AAB9A
BCE24F43
BE81C6C4
3E47AFEC
3E04DB22
BE3F4F8F
BB25A6A4
BE578737
3CED6C8B
3EB62774
3EB13FF3
3EAEFE13
3CC6B58E
3E1FFC9F
BD8EBB7B
3DE80E6B
3D458012
3E1E85B1
BDF473C3
3C9281A2
3D7BE3D6
3D0A6881
BE1195DB
BDA04662
BE6119DA
3E0BC678
3D8A2E27
3E8ED6A5
3B751A3A
BD9EB523
3E8BD49F
3994F3ED
3E5B6262
3DE9C9C1
3DBCB732
3C2011C9
3DDD312F
BE091541
BD66955B
3D3C896D
BDA189B4
BD638544
3A8A1DD0
BEA858FF
BDEEFB5E
BE94AC27
BEBD2651
BCC50793
BE3A5424
3E84A055
BD8DA844
3DFA9FE9
BDAD2A4B
3B8DACFB
BD68E6B5
BCE91F2E
3D95892D
BD89AC66
3E44945F
3EC8458C
BEBA8915
3DA64888
BDA425F0
BBBAD17A
BD7AD274
3E7C2A89
3DA14E6C
BC9E70F8
BB82FC3F
3D39F368
3DB7766F
BD426084
BD9BE177
BD63F2EA
BCA65FC1
3E50A1D2
3E85D0CB
3DC8901F
3D1EB914
3E2C060D
3EBECA98
BE679C76
3E7A69F6
BE4C7175
BDA245DE
3E90B3A7
BE486FF6
BE98A417
BD0704B1
3E90E4FF
3E885965
BE8CA52F
3DAFA012
3A6E6C28
BE1EF581
3D9EF5FD
3DE613A8
BCCAF0F3
BDC658B1
BDD5CF17
BD4DC343
3E4607DA
3DD00C39
BD642103
3DA59CA9
BDCA674F
3E0F6414
3DC028D2
3D0B4D7A
BDC486F9
BE9722AC
BE846D8A
BD1492B1
BD921162
BCFE5371
3F0B3F18
BAA787C0
BDC4581A
BD3C59F7
3DEEB8F7
BDEFA8E7
BBC5E7A5
BE4CF8F8
3F069ADB
BD1DA1B7
BCB7164E
3D204E7D
3DC9DA77
3D8CB160
3DD8424A
3E2E72FF
3CE94AB8
BDB98CF8
3D82515C
BE303C85
BE3DF0A6
BDDE6269
BDC4C8AB
BE63AF40
BD844A11
3ECE93B3
BCD9108C
3D29AAFB
BDB2AB40
BE37636A
BE305B85
BCB0D32E
3E075038
BC8FE05D
BCE3C7A5
3DE71A8B
3D9565B0
3D558F6C
3E1DCCFB
BD3108FE
BDCA2457
3D0516D0
BE1A38DE
BCED6DA4
BE4A8A5B
BDA46B41
3D87E93D
BA35B609
3D9E4643
BE777E5F
BE583158
BECF404E
BE8D9514
BDD7CB97
BD63E259
3D247DE5
3E6D3D03
3E847813
3DA01764
BD5D8CBB
3D1C6032
3E34C727
3E1C7224
BEED7AA9
BEB99781
BE886BC7
BD8F7AE9
BD26D01D
BD851A30
3CC48C8C
3D3F4284
BA0177AE
BEA8C633
BC31761E
BCCD6F3D
BDB2E417
BD33C71E
BDCC28C2
3B054664
3D634D6D
BD18EBAB
BF0C759F
BBA7768C
BECBFF85
BDCEA07D
BEA1FFC1
3D51126D
BE65FE0B
BED81B6F
3B3CA032
BE89C2DF
3E967430
BEE83A3F
3E31040F
3E02CDA3
BE0A2C7A
BE76EE4F
BD9E632F
3D09CF48
BE0B4D60
BC5406A7
3CBD98E9
3D8C3009
3E4C1495
3CD78A49
BE2564D7
3D77BDBF
BE859B8D
3D02C5F3
BD73B836
BE2A94E3
3EE688A4
3CE31150
3C5602D3
BD6CEF80
BE712B0B
BED723B6
BCEFBF80
BD47F50D
BD410CE1
3C50312F
3D1EFDB0
BE69B2D2
3BB04162
3E94027A
3C9BBE71
3D4E458E
3DD25910
3D256C4F
BD0CADF9
3D330FCD
B9BE23EA
3E4050B1
BDBFD6AF
3D7E1324
BE41AC72
BDEBD5D7
3CEE7AFF
BE527F82
3D84D95D
BE294C29
BD9D387F
BE44DA5C
3E5C6A53
BD0E3732
3E80BD6E
BE94D4E2
3CD009C7
BD6B23D1
BE0621B6
BE45B5CD
BE0DFD84
BE519397
BDE94466
BDAF5572
BD871F9A
3D31A0C8
3E8F6065
BC982E85
3DA93AF3
BDBB5A46
3E1A7C5F
BB9D86B8
3D5CD099
BCF657EA
3CC592A6
BE67CF57
BDF2EE50
3E3BFDA9
BE1182E4
BD44C281
BE23979A
3DD43562
3DCA8AA0
BDB88E3E
BCD74C38
BDA92604
3DAEB434
3CDB45C0
3DE6C7F8
3CA2EAC8
BBDFCD30
BCC5A1CC
3CBF9E18
BE00D31D
3BEB4EC0
BB511980
BDC264E1
BDFDF3C2
BBA95060
3DEFECE4
3D569A40
BD9C677A
BDE61BCB
BD755CAE
BD805969
BDE45145
BDF6575E
3D4CBA60
BDB28AD6
BDA5B5B4
BDB04B13
BCD05BDC
3DFAF268
3DAC22E2
BDB5663C
3D3719F0
3DFD429E
3D57CAE4
BDFF216A
BC1D9938
BDDEBBD2
BD8CE5D8
BDC9D68A
3DF4B10A
BDF39242
BBEF6070
BD791500
BDB982E5
3DAA307E
3D2D3574
BD120FC4
BD3121D6
BD8718F0
BC7A0FB8
BDB4A460
3DDCE214
BDF51898
BDD57E70
3D1D8B3C
3B8265C0
BDDFF85A
BD672BC4
BDE4F088
3D2E2610
BD8FE1FD
3DBA308E
3DFBE0D6
3DA11576
3D8169B4
3D78EB20
BCC0B01C
BD38693A
BD012366
3D8A0F56
BDED4282
BB2431A0
3CE56318
BD2F66DC
BD3179C2
BDFC0F06
BB839540
3B093340
BD70A0DE
3DD1263C
3DF2F916
BD51B8C4
BD8373E3
BDD8A1E6
3D959F94
3D7ECD44
BDFBCAEC
3DC6608A
BD36EE22
BCDC7EF4
3C9FD290
3DF6DAC2
BD022768
BDF3BBAD
3D4C8398
3DC04FE4
3DC10256
3D317ED0
BD0F6B1E
3DF4769E
BCB50CD8
BD26E358
3D64FBD8
3DA58BD0
3DD5D71E
3D942570
BD098F12
BCD38FC4
3C378A40
3DAD1084
BD06CBCA
BBAC3220
3DBF3C5A
BD135FBA
3B73B5C0
3DC49F52
3BE13C80
3E54888C
3D957F45
3BD9690E
3D7C74E4
BE4748B4
3D685DF9
3DDCE7D4
BDEF2688
3DF48954
3D9452D8
3DF94F38
3D9235F6
3D81C4E1
3DE611C1
BD0DA1A4
BDB88803
BD027AC8
3C768190
BCB5709F
BD04C0F0
BC111770
3D393B98
BD98C4E8
3DEB90B5
BD3A96C0
BD594366
BCF62FE4
3D79CA53
3E3A49A1
BDF8C64C
BD0B3461
3B98FD31
3E4B3861
BE2D915C
3D4E6C19
3C81B76F
3D8EAB98
BD850253
3D51D211
BD8E7C97
BC5DA0AF
BD9B9A35
3D95D528
3DC35A8D
3D1E6826
BDC4A7D1
3D97443C
BCAC6900
3D6E64E0
BE16CB97
BD90EDE0
3E699FBD
3D02580E
BDB3BD54
3DC2098C
3D424F3D
3DB5E352
BD9F3FF2
3D2165A7
3CC7C59D
3DFCFDA2
3D4E3808
BCB5744C
BCBAEF34
BD3B5AA5
BBFE9E10
BB478F80
3E062E31
3D826EA7
3DC479F2
BDD7BBD5
3C968DD8
3D940DCD
3D2E2ED0
3D85A41C
BB55468B
3D85F7D7
3E07F045
BD1A2550
BCBE36C8
BE374507
3D9B610A
3E1C1546
BB9BC1E0
3D66FD8B
3DC9DAEE
BDA36E17
BDA9308C
3DEF9838
3D0D389C
3D042BB2
BC6F198E
3DC89CC8
BDF9B1B3
3DAF5CFB
3D49F0C8
BDE9A9E2
3E3211C2
BE1DD17B
3E4A91AC
B7EB114A
BDC9AF91
3D494F48
3E343E22
BE169FF7
3DECF019
3E368881
BD25E786
BD8957B5
3E25BF9C
3DB6A144
BD45A422
3E340DEC
BD52040E
BD2295E0
BD36C31E
BE24C78C
3E103EA2
3D10DB6F
BE0DDF95
BE89CF6D
BD5FEC5B
3E168183
BE239919
BEA0FBFD
3E438916
BDC11FFD
BDF718A0
BD9DD35F
BD610562
BCB269FF
BD36F650
3CEFFDF9
3F17A2A8
3D1D3A45
BDEBBF82
BD63C40E
BE0C0120
3D5B32F5
3D545C76
BDACA796
3CEF0AA6
BE2A9A67
BE38894C
BC15CE91
3E86F425
BDFDE959
BE376340
BCD9F714
3CCB45ED
3D9BDF36
3CEC25FF
BCD655A0
BC01D824
BD094BA1
BE088454
BE1BA4A5
3D7E0C23
BD9AADAD
BD95F7AC
3E476663
BCE7EC5E
BE272550
BE20096C
BE714F9C
BD96F3C4
BDA9E71A
3D24D74F
BDF8FE59
BF066275
3D2177C6
BE8CBB71
3E0B65F9
3C4D1223
BEB7C9B9
3CFF821F
BE045F08
3D4A384F
BD94D151
3DE26DC3
BE07EB53
3C362C11
3D8AA857
BE0AD660
BD471E02
3D9CC5E4
3CE0575C
3BEE38C4
BD87C5F3
3A59564B
3E0E7C6E
3CB8947D
BDBAAB5C
3D58E867
BD0E7C6C
BE8ED5F2
3DF6BA05
BDE69591
3D111467
3DB2D7A6
BD8591FA
BD190C0B
BB5622F3
3DFA8705
3DF306C0
BB8500E5
BDDF6F7B
3CB8D357
BC85C0C0
3D9E6973
BE196813
BE02B2EE
BE0C4B38
3D6506CB
BE318DCC
3C9A7ED8
BC182477
BE222E96
BDD34205
3E912E9E
BCFFE4C6
3D6944CD
BD7B63C0
3CB327AB
BCE89700
BD521D69
3DFCD914
BDB2C925
BD401B4F
BD66064A
BD498322
3D0E1E12
3E14A98E
BDDF2B64
3D3F82F0
3C5C29A1
3E2AACB1
BE396CE7
3D0F14E0
BDE93025
BD6D7328
3C6E125B
3D03C280
BBCCDF9C
BEA6901D
3D836012
BDCDA66B
BD87DA78
BDF6D1F4
BE1328B3
BD8FFD25
3E2F97B4
3E886D7B
3E3007F6
BD36928F
BE3BA31B
3E2D770F
3D5AC7C6
3D584AB2
3C601D11
3D0CDC08
BE19DE8F
BDE1D9E0
BE0048E2
BD1ADD96
BE3AC3AC
BD506300
BD36031B
BE056F0E
3E7B2DDB
BD3CE229
3D86AEA4
BD8FAA7A
3C01A119
3CF62F98
3E1A29B0
3DDA43B7
3D2984B7
3E3F50C4
BD4BB5B2
3E705ECA
3DBF5681
BD84F05C
3D1543C8
3E35BB7D
3D48F074
3C113FBB
BDCFE12B
BBD98559
BEFAD87C
BDF31D0D
3D61BF04
3E903E51
3DC40E73
BE14A84D
3CB82063
3D0EA28E
3E49D27E
3CDE43A3
BE904F71
BE112C55
BDC00C9C
3DA1AC60
BD48144B
3E03E70F
BD2571A4
BD331A64
BDA4ABCD
3D8B5DB1
BD26DB36
3DA88CD2
BCDF4FC0
BE788DE1
BD1F0BAD
3DB1D83F
3D42E264
3E147A8C
BDB9019C
3D988B9B
BE192D1E
BD326818
BD81D085
3D5C0982
3EBC8F4A
3D102086
BD7879BA
3E1C3110
BE0C1939
3EAA7B12
3D2DF903
3D482FA9
BDD648C0
BD083B54
BE7869F2
3BD547D4
3DA5688A
BDC6FCF7
3CD6C2F5
BC92BE8D
3D9DCE41
3CDC0C72
BDF8B3A8
3BA80B5B
3E4F35CC
BE075F91
BC81F3DE
3D654C36
3D8159DA
BCCEC9C2
BE3422B5
BDED08F2
BD4AA77C
3E0F93FF
3D14D1FC
BDB38789
3D984F52
BC478BAF
BDC9201B
3EB77278
3E4074CC
BBCB3030
BDD64B8A
3DD08878
BD56E35E
3E11633C
3D17B5BA
3D2867E4
3DF97FC6
3D96CE90
BD17CEA4
3D99E09C
3D1F3BA0
BD0054A7
3DBC2656
BD1069DA
3BED7D20
3D46072C
3DB572FA
BD0DB676
BE0572AB
3D9A7D94
BD99677C
BC93A324
3D0EEF65
BDFD2182
BE34167E
3DF77172
BD88F613
3DF15967
BC73EFC4
BDB4E74F
3CADF86D
3BE61D16
BE16DEE8
BDF22AF6
BBA30920
3D85126D
3DE4DC8E
BDF71047
3D17ACC9
BD768B1B
BD8B40A4
BDC4056A
BBFA9A31
3C047272
BC043870
3CAC19C8
BD86EAD4
BDDC8BA4
3B13491C
BDF44825
BC0AAC4D
3D272271
BD5830CE
BB45312B
3DE2BE4E
BDE0470D
3E03BCA7
BCC4D801
BDEF9542
BD54EE86
3CA00B78
BDCCB1D6
BDCCFB33
3D426E79
3DFC7AB2
BD461166
3CF9DB07
3D922025
3DE6578E
3DCFF2FD
BD93116B
3D00BEBC
BD2A1A26
3C735E80
BDEFFC42
BDB65E7B
3D69ADCC
BDB65E99
BDC86F8F
3C79ADD0
3DE390FE
BD5221A0
3DDD1502
BDCCFCE6
3DC111D4
3D1AAF47
3DA2C3BC
3C55A518
3B6F2000
BD6FC500
3DCB3308
3D850D58
BD6284EB
BD007765
BDE5F459
3D694B14
3DAD3AC8
BE255BC6
BE1913B9
3C4F1BDD
3CD39A70
BD724630
3D965EA5
3DF042F6
BDBC68B6
BDAC8CB6
BDFAF795
3DBB9AF2
3D4A7DFF
BD510CBE
3CC3A990
BCF473EC
3DF13F6E
BDD2CAEF
3CEC4C10
3D41F033
3D85D6CD
3DE650B8
3DF638B4
BD739C54
BBA76940
BDC3F542
3B992F60
3DCD93D4
3CAFDE30
BDA944C3
BD9BEB6E
3C2BBF33
BDD574C2
BDCB8ED2
3DAFC553
3D43ADC3
3D81FF98
BD3078BA
3B9D5874
BD022DFA
BDD991CE
3D28B7C0
3E054C56
BDC33E21
BCD2ED20
BA571324
3D0F8710
3CB0D9A8
BCFFA5F4
3DE01046
BBC611F0
BDD86E82
BDC5B5E0
BC2D6978
3DBDAA4E
BD5E6C68
BDA78651
3D810FEA
BD9945D6
BDA30A34
BD9DBF1B
3D836398
BCA37600
BD266C6B
BDE48B8B
BE005300
3D0E7C93
BD988243
3DA85882
BDB7FBBF
3DFD8F12
3DCBEC46
3A182E00
3D913E64
BCDE3B2E
3CA8BD2C
3DBDF10E
BDF1F1BB
BC1C7BEF
BC9E2DA8
BD18E2E8
3DF64298
BD7927AA
BD95C296
3DFFE46E
BCE50D74
3D4CF3E5
3D93F6D9
3CCB0D40
BC95C908
BD78FBE4
3A99F95A
BDCBFA4A
BCAE32B8
BDAB0722
BC353DBA
BD822447
BC6BC840
3D9F3556
BDC7A481
3C3717A6
3D48835C
3DD8769A
BDF9F5C6
BDDF782E
3DCF4EA6
BDF724E1
BD50280C
3D71669B
BB5D0988
BDB29039
BDEC2698
BD84C3FE
BD0E15C4
3D5C2E3F
3D88CB8A
3D950562
3DF6611E
3D811A22
3B93E940
BB868420
3B80C1B1
BDA3F458
BD646242
3D017A18
3CECAC10
BD23E100
3DF85CD6
BD1AF6D2
BDAEDFDE
BDFB9AFB
BDE631D7
3DA04575
3D818D5A
BDF80BED
3D0F0BF8
3DF6C9CA
3D7F351F
BDA1221C
3D7872A2
3D9949E1
3D9CD1FC
BD9A1478
3D992704
3D81F198
BDAB085B
3DFDA292
3D43CD64
3D3F6BD7
BD9008C6
3DBD8002
3DB60536
BDB67858
BCA318A8
BD3234F4
3D86ACB4
BD03E9A7
BD616364
3D10B4A5
3D8B69A3
3CD5C8B8
3E06AE10
BD9E36AE
BE09DF03
BD0CA2A0
BDEC8F66
3DB9419C
3C62C340
3D2469A7
BDB36912
BDB12FA8
3D8B5159
BDE15C71
3D926A6D
BE1F78A0
BD06B973
BDDAB3DD
3CC06D6B
3DB828D0
3BEB7078
3D0BBDDC
3C22B225
BD9DBFEA
BD53DA1E
3BE13E00
BDE99347
BCC61F4C
3D9FB27A
BD615949
BDF01891
3DA6E3A6
3DE64648
BDC7A821
3C0BC900
BD84005B
3D02AC07
BDC3393A
BAB48E16
3D4A1AE1
BCFCCC5C
3C39278F
BD583580
3C6C2101
3DBA635A
3DDAB1EE
3D68E9C0
3C144F61
BB8A75AF
3DCF186E
3DF1EBF6
3D61D20C
3E0364CB
BC931904
BD0ABCB8
3D70F3CC
BC9CDD5E
BD976A9F
BCDB3854
BD43AFC0
3D388F13
3CF5E96F
BC2E0D1D
BD90F5C8
3CAE5920
3D23F8C8
BCF6CDF6
BBADF3C6
BD350695
BE000129
BD92DBC0
3DE70A39
BD5A268D
3D0702B4
BD98F018
3D0BC38C
BDE1D818
3D094244
3CCC54F7
3DE9C6EC
BC93EE10
3DAB5B43
BE1DD36E
3DB20BD4
BD02D7A6
BD670FE0
BC52D288
BCAE73E3
3DC65FB4
3CFE2780
BD62249A
BDD1BF21
3C2415B6
3BF10DDC
3D91991E
3D4F7117
3DC2E0E2
3DB07E54
3A92D74F
3D8C69F4
3D6482A5
3DC0A42F
3DD77CD9
BDB8033A
3E2C4EF1
39D51E44
3EC086C0
3C26B3BB
3E6430BF
3D8EAEAC
BD8A981B
BD4EC3CA
BD53350E
3C83B7F7
BCD76358
BE003B45
3E8E76A3
3C2BC355
BD7766FE
BDCE4098
3DFF0E07
BDC567B4
BC82EC1C
BE06E201
3D1B6F10
BDF9F4DC
BDA17BF5
3E2434B2
3DDF8DC8
3E234D6C
3D89EE61
BE123976
3E1983C0
3CBDD1FB
3D816897
3E960DF9
3C4595A2
3EE555AC
BF007889
3C095AEA
BE6F9F8B
BDFC3DBC
3DFB74DD
BE654246
BE6E1705
BE83219C
3DE8DCE8
3DF4B194
BE58D9C5
BD812B4B
BE067D32
BE11EECC
BDAB9857
3E1F4AC8
BADEE418
BE1C69E4
3E2A68FD
3D6DAE17
BE28B66A
3DAF8DDB
BD24EB53
BDB4788C
3E49E7EC
3D27D384
3D0207FF
BD571547
BD6469F9
BDB3F4B1
3E37D448
BD66401C
BAB4A444
3D692CBE
3EEE6351
BD813D8E
BDFB30B6
3D9DC9FA
3DDBDBCC
BD45873F
BDAF6657
BF090A9C
3E26B2E8
BDACA59A
3EDA4C59
BD3A47FC
3D07DD90
3D0D1B03
BE8EAD11
3E8DF4D3
3D3E72A3
3B579312
3E98684B
BDD69A5E
BD16F20E
BD12B1F7
BE4222F3
BE30CF71
BD99FCE1
BE90A592
3CF225C9
3B8A8449
BE0C4257
BDCEA940
BDEA44F0
3C938C36
BDB18613
BD99924E
BE127790
3DE9EF39
3D51DA65
3E87D37A
3E8F4FB7
BCE55515
3D29378F
3E122582
3E21F06D
BDCBDEAB
3E8BEFF7
3CE9F074
BE11EAEE
BD18E091
3EF07DAE
BE47A704
BF0C60C1
BF0052E2
3EC998EC
BDA2F2AE
BE7A1A23
3BC0FCC2
BEA55A2F
3D361094
3D1D25DB
3D10E392
3D78443A
BD805739
BDD0D3CF
3BD4F33D
3E101ECE
BDF3F61C
3D843964
BD1ADD66
3E0C006B
BC8E701A
BE2F735B
BDB2AF34
3E074491
3DCB006C
BD03E27D
3E9CB043
BCDB1E54
BF1DBDE5
BCA97497
3E8B3DC0
BDB6C7A8
3E589FB6
BE3CEC27
BD98DCC5
BE8CE1E1
BE9AA4EF
3D1A9E3C
BCA4D721
3E0369D2
3DA68249
BCEBF638
3ED63AC3
3E9647BB
BE9340D5
BD26D8E3
3E83B1AA
3EE557FB
BCA0E565
3BCCB362
3D972479
3C6BD7EC
3D27CE0E
BC6063D7
39BFD8F5
BEE7DD33
3B54574C
BD8ADFDA
3D6573B0
BCA36E34
BDCB5FC4
3EAE84EF
BE27E66B
BDA70FA8
3DBA2B8D
BDECC6E3
3DCF94D0
BE3ACA3C
3D44064A
BD9113FD
3D780AEB
BD60E4C8
3E0F6D77
3EE03B0D
BD7C8114
BD1BA577
3D392E32
BCC11A9E
3EDA509D
3DB907D8
BE4EE536
BC3FC9DD
BD578151
3CA3CB71
3D125A54
BD9C110C
BE182E48
3DFE5E9D
BD2D1BDA
BD6F6C63
BDDFB3DC
3E7A8D3E
3C419104
BE0DBAD9
3E746C09
3D4F5E22
3D306635
3E0AA1F8
BDB8BF35
BCED5F47
BCFE9F33
3E5EB342
BD6091BC
BDC77D44
BE1007DC
3DFDBF6E
3DE482D4
BED55009
BE1E506B
BE9FFBF0
3D9BF05A
BCE90CF1
3D43C4C0
BDF76A05
BE07CA04
BEC3B961
3D5CC30D
BDDAB4E3
BC9D0FB7
3CB3F2C9
3DB308B3
3EF2CB51
3E450A28
BC41C450
3D356874
BDAB48DA
3C4CE030
BCCFEE4A
BD77177A
3D80AA63
BDA79184
3C9D3238
3CB81A2C
BCDA43DC
3D2C1B43
BDD5DA72
3E000981
3DC5F8A8
3D5B1440
3D5B4675
3D6D8DA8
3DDD9748
3DB45AA5
BD17B458
BDC58170
BD756CC2
BD42F9DB
BC78F608
3D7C710D
3D7379F0
3DC5046E
3D8674F7
3D776C3B
3C4627FA
BD989CAB
BD5B2D14
BBA0AFD0
BDC2A43B
3C779FB0
BDFE9F25
3D315CF4
3DA762F7
BDF8B2A8
3D22E2A4
3DE08B3C
3DF382B4
BD84679C
BD6DEB1C
BBA787A0
3B7620C0
BD25CB3A
BD405D3C
3C1B4B1F
3D8F0208
3E081FBD
3DB7957C
3D99D38E
BC5D09DE
BD4E8B33
3DBC0A3C
3D086F14
BCB3AE3D
BDF1D1BB
BC8FF72C
3DCC31A2
BDDF5D6F
3D4FBB70
BD4ACAFB
BC97EAC0
3A2FB700
BD58A1A6
BDD1FA13
3D76AB70
BC7E4158
3DFED36E
3D846308
3CEAB888
3DA8F39C
BD6309E0
BC954058
BD3E689E
BD503C80
BD37BC42
BC09DA88
3DC194F4
3DF067FA
BC6555A7
BD90397D
3DD7366C
3CAECB85
3D1B7D08
3D96E062
BD699F2E
BDA97CF5
3DF74664
BDAA5E66
BCBFD500
BD500015
3D90F3E0
3DFF0676
BCB75038
BDEE1E3C
BDE6D895
3CB0DFDE
3C8363C8
BD033E4C
BD888B45
3C9B8E90
BD6E8067
3DE47454
3D2035C8
BD864E7E
3CB3A5A8
3DBD0030
3DD0D9AA
BB14C960
3CD902E0
3DE6436C
BD9BF994
BC7D6E4B
3DEF8EB3
3DFD24A6
BCECDEEC
BE79E41E
3D561D8C
3C6B0407
BD533434
BAB25330
3DB08313
BD8E892D
3CD85AA8
BCE6A7B3
3DA31908
BD24A9E3
3D8385BF
BCBAAA82
BE70FE24
BD8673B5
BDD395B2
3E03D222
3B85E73A
BD890649
3D2BDBB2
3E8D2F05
BDB390C6
3D7C72FF
BD27C47E
3D88A6AF
BEACFFC6
BDD32956
BE8A4B46
BDF551AA
3E8AA813
BDC93728
BE47A11B
BC1DA270
BEDCC41D
3EA4FD3B
3D945A88
3EF0DD66
BC3F2506
3B7A800B
3EA58D28
3DD6FB88
BE2A1182
BDBD9444
BDC52B62
3EDD13CC
BDA5E1C4
3DA53A1A
3DBE9ABA
3D805FB6
3DBFB6B5
BCE45B91
3BDEFBD0
BDB0AD6E
3D12A273
3E8CC5ED
3E455FFF
3C57879D
BD8F84EF
3EA6EBD5
BDBEF066
BD4FBCC2
3D819535
3B9694F7
BE366C04
3D498D8F
BDA3A0D0
BC58BC82
BE7473DB
BE020324
3D23EE97
3E63B50D
BC8AC77D
BC7E723A
BE05C1C7
BD871F2A
3EEC43F2
3E3622B6
3DAFA3A7
BDA9A183
3D678EB5
BE058C43
BAF7557F
BB089C4A
3D352FDC
3E24537D
3CB5276D
3E82F4DB
BE04E20D
3E05FD3A
BE1F1674
BD5DE711
3E67116D
BDFEBF54
3E201680
3E247C5B
BDFBB4DE
3DA07CD6
BD75AC13
3DBDC8D2
3D0981AF
BD4B6E13
BDB2D4FD
BE498BF8
3DBD9772
BE9696D3
BDF9AE25
BD967D04
BD576607
3D8BD9AF
BE5D832F
BD81A6F3
3D3D6825
3E4059A2
3D794072
3CED7015
BD73F678
BC5EE927
3E65DFDF
BE963493
3C8F2F6A
3DDBDFA2
BCFAD61C
3DFC6F24
3D863DE0
3C91E3C8
BDAC5E56
3D5DE4FC
BD056F5C
BD3E77A6
3C442810
3D80E466
BDA331AA
BBAB9E90
3DD7765C
BD33985A
3DA53492
BC194DF8
BBEF0300
BC9B4F48
BD6FD274
3CEF31C8
3D2F46DC
3CFF3CF8
BDFB43B5
3DF807AE
BD8A32D0
BD7A7B80
3D6C10E4
3D5C8B90
3B471FC0
BD5756D2
BDC1B1F2
3D0CB800
BD94B8C2
3DC508B0
3DA02E4E
BD498A04
3C19A0B0
BDF4B324
3DD06CDE
3D9F0FDE
BBE56630
BDED3236
BDAB6CA6
BAB8B740
BDE10B70
BD6D9090
BDE956C4
3BB8BA40
3DE8B20E
BC6C6900
BC40EED0
BDE7A0E2
3DCA2C90
BDEC4C22
BC94D8D4
3C822AF0
3D700E44
BD157560
3D9E7BA0
BD9C2192
3D4D50E4
BD81B5CB
3DDA7EA8
3D6EB6D4
BC5B1730
3D795418
3DE8DC40
BDD7582A
BCEDD288
BDD9CFA3
3CF49CB8
BD45AAD4
3C398590
3D72C6F8
3D9EB434
3DD53336
BC8B2500
3C430120
3A4A3000
BD898BB4
3DA5CACC
3D91B226
3DDB81C8
3BFC4BE0
BDA36A86
BD4E95AC
3CC25DE8
3C1D2420
3DF74BD6
3DE3D4F8
3DE18D06
3D39FED8
3DF4F64C
3DAD8F02
3CF13820
3DC88BE4
BD108E5C
3D8C1618
3DD7A4BC
BD0687E4
BD252B14
BDDAE254
BD7F981C
3DB117B8
3DA03BAE
BDE0422C
BD7FEE64
3E002A6B
BD072706
3DF5EB44
BDB7E5DA
3BFBE000
3CDCCBB0
3D177C90
3D41EF74
3C433F20
BB11A560
3D066538
3DE34C8A
BD81ADBC
3E0E3E95
BCE4980E
3CAAB8CA
3DBE0B46
BCD7302F
BDF4A70C
BD06E74A
BDB7F27D
3D17BB13
3DEA5214
BE4E5403
BDC8A75E
3D359225
BDEE5E67
BE141D73
3DDC912F
3D8B7FF9
3C979C29
3D932E23
3E2D910B
BD842DF5
3D0F0E28
3E0D6B5E
BC5EF470
BD32E209
3C06B5D7
BC754EB8
BD43054F
3D651AD7
BD460471
BB267DF7
BCB96552
BDFE7DEF
3E1E0940
BD246E80
3E2CC5B7
3CA7DC07
BDD157BA
3D5B4CAD
3DAFCCCB
3DE94F06
3D91221D
3C8825DD
3E057843
BD8ECF50
3DBB1A0B
BDB87C96
3DCCB1D1
BE0B9F29
BDB2A1A8
3E2546D7
3E18EF65
3DA1885B
BDFCA51F
3C2E9C17
3C8126E7
3DCF8123
3D664746
BD0230D9
BDF2B1C4
3CE211D8
BC90E48C
3B641108
3E09D1D1
3DDA44D2
3CC378CE
BDCAFA24
BD94AD95
BCAC5294
BDA793A2
3A98AC80
BC614E40
3CC886E0
3DF94F37
3D89609E
3E3121D5
BD72CB5B
3DEBD064
3B5C4780
BE022ABE
3D809D05
3D06EA39
3C5F69BE
BDA7352B
BDB006A4
BD712874
3DF83921
3CA84A4E
BDFDEF9E
BE3EC963
3E094421
3DB5D7DF
BD667B15
BDECAF50
3D7405D7
BDEB4DCC
BC36E11A
BE0F0683
BD2DD20C
BDE3580D
3D5194B4
BD8EAD3A
BD23E897
BD0BE572
BE094869
3D4CEE91
3CF0F520
3D7E2A5F
3DEA4F1B
BD8CB7CE
3CD6C5D2
BD25BB3D
3C8D54F0
3CEBA76A
BC4EC100
3DAD030F
BC302FBD
3DA607BE
BE04AD42
BEC78261
392CA927
3E0981F3
3D5E5C32
3D8FC0DF
3D9CF790
3CA107B7
BDC5221F
3DACF935
3E263C92
3CE441FD
3E697BCE
BDAAF08F
BD8D8051
3D0AA8E6
3CC2C5C0
BD696ABE
BD95AEDD
3E2CAB67
BDCD1FA3
3E3A1C85
BDF62428
3D2E374E
BE267435
3D9C643E
BE3D8D44
BD326777
3D83A97D
BDE07DD6
BE369074
3E1CABF6
3D969DC7
3DC0C8F2
3D9E45DB
BE47A4D6
BDC317B9
3E138D84
BC45A0B3
BDD94D94
BDA6B5C7
BDA40AE1
BDB70FB7
3E81D081
BBD6315A
3A4EA4F6
BCFD51DC
BC289E4B
3BC831BB
3DB2C910
BBB9C071
BE10A6FC
3E454ED1
BD818B6D
BE4F750F
3E34C5B7
3E5FB82A
3CF2CD85
BCFA79C1
BD143651
3D517B4F
BDC3AB61
BD1D1999
BD87274A
BE9CB29E
3DE78DB6
BC85945E
BDBF566E
BE3C1467
3E158BDE
3E0E0F17
BE8ACCB6
BDB4ECA6
BE3B3A60
3CB9DF8A
BE2481EE
BD3A6821
3E211BB2
3E3642F3
3DEFA717
BBEF900A
BB4B6B11
3B2ED2BA
BD8C81A0
3E167099
BE2F4CA2
BC6A91A6
BE5FB221
3CB29CC0
3C4E1DC7
BD760FF2
BE8A26BC
BE8D37F9
BDBE4BE8
3E8DF843
3DB22994
3D342E7C
BD9F7DE1
3E1C6A2D
BCC9C794
3E04C944
BCEA756C
3CB4403A
BC80727C
3E1D5DA8
3E630680
BCC0D62E
3E0806EA
BDB8B7B8
BD8EC55D
BCDB5FD9
3D3E72F0
BDADC91C
3D74350C
BDD9EFE3
BE37D162
BDEF1629
3E1DCDDE
3D423CFB
BE783BC7
BE8F4B71
3C966654
BD6EB08F
3E59A32B
3DC30DBE
BDBF0EC0
3CF71924
3D918875
BDB309AD
BDDA9BB2
3E098356
BD839F95
BC8116F3
3C9B8A2E
BECAFBB7
3CA9E47C
3D88E9BF
3E8A7FF2
BDF306A9
3E40E41E
BCABF395
3D724F36
3D7265FC
BB1DA7C2
3D7905FC
BE0A7285
BC0E43C3
BD050D3D
BD6100BE
BD909606
3E5F9902
3D880FB1
3C819D9B
3CBF2826
3DB04449
BC694975
3D993708
BD708233
BD877F4E
BC902261
3DD2E57D
3E9ACD61
3ADD33AD
BD6EB717
3BD5AB53
3DD399C3
3D6EB6A9
BC0AA864
BDA3F539
BE04B29E
BBC6DD15
3D7F4E26
3D352180
BEC15125
BDF8D0E8
3E2AB11C
BD021A37
BE05E3D6
BE9689F3
3E3C8EBF
BE4CAF69
BD105F40
BDED4FA3
3D85683C
BDF87E1C
BD4288FB
BCACEECE
BDE0B5E5
3E18F446
3E3B0E28
BE1AC7D6
3E4A31ED
BD620A9A
BD83369A
3D8034C8
3D859BE1
BDF80E1F
3C7839FE
BD040EB7
BEBCB243
BDE1F587
3DEEE5CC
BDF2F883
BE0A93A9
3E410AB1
3E8C9B4A
BD8E0217
3DA72906
3D35B819
3E3D3D18
BDD332DD
BED27B35
3D989041
BD7CAAB7
BE60555D
3E0B264E
3C1AEB73
BDD5300D
BD57FA5F
3DB90783
BEB3336A
BE3B236A
BD853A19
3DFB636C
3CB0DDCF
BD077609
BC23783D
BDC4AB39
3DA3B19D
BCF6E5F1
3E8E1BB3
BE584A2A
3D114232
BD9DDDF9
BD64D1E6
3B1D6FB4
BD6C9C30
BD9D22A9
3E667AED
BDBA2AC8
BE46ABA8
BE33DD85
BE214E88
BE2D5B26
BCF2E701
3EBCDF6F
3DD9A879
BCC08821
BBA84D5E
BD5BEA8E
BC7F3E11
3E0D4D85
BE917992
BE46211F
BEDBD081
3CB68E30
3D1A7DDC
BD4D0831
BDA6DA29
3D9AC333
BD8F0E8E
3D7EDC73
3DB8262F
BE318078
BD9DE96B
3CF11440
BD80EE85
BE0F9536
BCBD336E
3D2BE2B4
BEE30564
3E62F2C8
BE6E44DE
3D89B681
BE0E01BC
BCD92AD2
BE35DB09
3D9E43C5
3C42AC43
BE97BEE7
3E95D6CC
3DB4AD87
BE860639
3E347631
BE4D2100
3E08131E
3D29EBB6
BD6E92A6
3CE1F39E
BD840DB1
3CBEDAF4
BDCB7BFA
3E5C52C9
3E0D4EB3
BE1357D6
BD48FEC8
BE8EA80B
BD86B1AA
3E1BD325
BE159672
3D9C22CB
BDCDCE89
BDEF1ED4
3D899139
BE4D7B64
3CCBC18C
BAF37180
BDC85577
BEE14882
BD1061C6
BB7FD8EA
BE15E5C5
BD630241
BE8E2B44
BE002A71
3CE3EA76
BDD91FE7
3C6CB031
3D974738
BE9A5E46
3C8CDF12
3E190EDE
BDEA93E4
BE25591B
BEAD998C
BEF0C2EB
3D3B9E16
BEF44280
3CF02963
BAC67581
BDC78690
BDE581A9
BE1E9D41
BD137BA6
3E9F25B6
BE237887
BCA329E9
BE13910D
3E1E4698
3DFF6ED9
BDEA7E84
BED74726
BDDFBB0A
3D996295
3E05955E
3E53665C
3E1714CB
BE1B708B
3C3C2EF0
3DD54345
BE031F15
3AD29C1A
BDE74DE7
BE92C4D4
BDA45053
3C806F1F
3D563F86
3E191EC7
BDD82048
3DD66D57
3E3F8E68
3D92E436
3D4B4768
BDDA080E
BDD00E85
3D87FFAA
BD739304
BD83329C
3DC8C9FA
3D8649C4
3C47CB30
3C4BFEC0
3DC3D00E
3DFDCBBA
BD20E76E
3DEF3FEC
3D994336
BDCE03EC
3D9004DA
BE001BD8
BDA03F23
BC830DA0
3CC0DF58
3D752554
BD5371BA
BD55B0C0
3C8BAEA0
3DEBF86E
3D8C80B6
3CB70490
3D007DE4
3DFF063E
3CCBFEB8
3DEF8048
BD8B0E18
3CDA6F20
3DFD3788
3D6CE25C
BDF4A185
3D626A7C
BCAEF3D0
3CDF37C0
3DBDB40A
3CEED090
BD527102
3D71E720
3DD16D1A
BD8C7C6A
3DA9749E
BDE0FD0D
3D938A44
3B974FE0
BDBA7A08
BCC495AC
3D459CCC
BDE892D2
BCF9B8D0
3D6C4038
BDB40320
3DB25AAE
BD5D67E6
BC516658
BDAD24DE
BD5AE718
3DEACB36
BDA9BD15
BD30BD2A
3D9A54B0
3D2DB2AC
3DF9041A
BDF32B7E
3DA03916
BDB6E3DA
BDB5C7B0
3D54D4A8
BC1A91B8
3DA18E2A
3D8008A8
BD96FAC8
3D5089D0
BDAA836C
3D58A778
BD92EC98
BDCAFF1D
BDF73A2A
3D5BCC20
BDEE0312
3B211C00
3AB76A80
3DD239B6
3DDB6740
3BD87600
3DA360C8
3DB2685A
3D640848
3B14A800
3DAAFE62
3D9E61AC
BDCF634E
BDA31F04
BD5C98C2
BD633626
3DB04A24
BDFA2562
3C213770
3DA33528
3CA7CD20
BD4B462C
BD72ADEE
3CCC4E70
3DC12C54
3C9E6E68
BDAE6388
BCD6FB80
BDFC90DA
BDEBF70E
BDF506ED
BD05DCA8
3CF05848
3DF67D60
3DC8CA1E
3DC79292
3E1EB2DB
3E7D2795
3BC58D20
BD7787D7
3E0D47A4
BCDEE668
BCE7DC8C
BDB8A4A6
3D30729C
BDC85E20
BB96B19F
BD8565BD
3DC86600
3D0EE45C
3DACC06C
BE277082
3D21E630
3BFAF10C
3D51FE58
3D84CD6A
3DB5A29A
BD4FB038
BD8A0C35
3DACDB14
BD1982CA
3DB03A86
BDB26474
3DDA4298
3DB94FA1
BD89D892
BCEC4984
3C5EFA8B
3DB5C43A
BC8A41D3
3DDEF2B7
BDD1AE08
BC5983F8
BE0761F7
3DE5CD4F
BD36DC08
3D61F120
3D937213
3D8D47B0
3D4441EF
3CFDD788
BDC6229C
3D8AEA54
BDA566F5
3D2960C5
BDE16302
3D8308BC
BC4C7087
BACBF4C0
3DD34F18
BDFAFD0C
3D7EACA4
3D9A53D2
BD9A915D
3CAB726B
3DBB039C
3B42AB40
BD2E0002
3D73EC48
BC49DD6B
3DDCD680
3D287E50
BD80EAD0
BD60F783
BDC21802
3D8215F4
BD41FF2C
BD48D471
BDE5ECED
3C9FC740
3D0EA7C5
3D3487B0
BCB5B9F3
BD86C6C0
3DAF6C52
3D64962B
3DB363E8
3DADBC76
BD0E8A2F
3D80670B
3DB34556
3D345FE2
3D726160
3E2785A7
3CB37A70
3C975417
BDA75C89
3D70F8C8
BE366905
BD988B1A
BDC9616C
3D595604
3D1DD2EF
3E004C1C
3DA33968
BDE95A1C
BD26679E
BD20B942
3E0E95C1
3DA9862C
3E21D2C4
3C566804
BD5CEF8C
BDC1D03E
BE17886A
BBE28F90
3CABC260
3D3E6508
3DA28382
BD827E0C
BD943C81
BD901BC2
3E1C2640
BD092CC5
3DBBF88C
3DE51023
3C32A983
3E4DCF28
3D54C23F
3E14485A
BDD8E603
BD6D4BE8
BD983AAE
BE111FC8
BE42FF8F
BCD9DBA2
3C2312C3
3E8ABC21
3C99B336
BD0DAE85
BD086169
BDF91B97
BE2072A1
3E40EDAB
3C213DBC
3EA481B8
BE256FA9
3B2CFC81
BE5DB72E
BE144DE7
3D706948
3D8E56E8
3D4FEE51
BC28CBCB
3D9DA45F
3E7373E0
3D4163B8
3E14F646
3E720A5D
BE0597A6
BD744D2B
BE2F971D
BD08B847
BD9C5EED
BE0C9DA6
3E99FED0
3BE8E5C8
3E19CCA2
BE60D71E
BE44A34C
BDFF0E3C
3C5CF62C
3BD9F044
3B1F51FB
3DC01DFF
BD7A7355
BE4D1897
3E687886
BBF797CD
BD9D072F
BDE4B245
BDF424D2
3D051060
BD313799
BE9ED5B7
BE02D4EA
3D9E697D
BD874536
3D3AA643
BDFF8BFF
3D4959D5
3D5347D0
BDD2E7B8
3D801842
BBD436AA
BDECF6D2
BDD68A6F
BD9BEDFB
3BC23073
3D8A0FBC
3C41E154
3DF0A527
3DC8769F
BDC005CC
BE331619
BE5EDB47
BDDAABCF
3C9B13E5
3E6DDF1F
BD4A7BD2
BDC4B48D
3E06C82F
BD99C821
3D9C2C9B
BE200598
BB950FCB
BECFA30A
3DC923AB
3DE29E1C
3E4A64D8
3D81C2F2
BDFB40B1
BDF39C11
3ADA5BEA
3DF7BCDB
BD6890DE
3D28CBE7
BE100192
3A3B68E9
BA86D965
BD8E9645
3C87495C
BD015D40
3C05CF28
BE46DF80
BD9D1B01
3D115520
3D1BD0DC
BE0A3576
BE2FAC9E
BD8568AF
3E59697E
BE9F9EE0
3D78015F
3CB29CF5
3E712679
3E0A76A8
BD29FEE0
BDD5D49A
BE4CFB27
BE21624F
BD0466FC
3DABAF5F
3E01AF31
BE303C29
BDF426D2
3DF79A20
3E3E8FC3
3D81AD77
BE03EE74
3D6DD4F9
BD8485F2
3C1C8BA0
3DEB26DA
3D889CA3
3C4174D8
BCB0F1E2
BDAC219C
BCAB17D6
BDBB69C9
BE027B7F
BE1D9632
3DBC69E3
BDC8501D
BCA6E531
BDA5C08D
3E40F79D
3E00800F
3ED76200
BDC48635
3E7B229E
BDD1208B
BDE0EBE3
3DA28F9A
3D4FF36D
3DEC388F
3DA16328
3DF6F6CA
BCCDE632
BD53E12A
3B4CDDE9
BE06337E
BD82DE1D
BE29FE62
BE25894B
BDCEBC53
BD35A185
BE04E929
3D92C4DF
3CF3295E
3E2657B6
3CD7DCAA
BE4708E7
3D89A8FA
BE909EBA
BD830306
BE296682
BDCB7FF6
BDF11341
BE79F0F1
BDCD2BE2
3CC158F2
BD2EA71E
3E879891
BCB2A944
3E786771
