BDAFEDE7
BD92C784
BDE60D44
BD881942
3E91A058
3DAD383E
BCBB443F
BCB8080F
BD0F9545
BDEE9B82
BD31EB31
BD90980D
3D4B9643
3E342865
BCE294CE
BCAFD1BC
BDA9A11C
BCE2BED0
BC30CED1
BC20635D
BD45EF3E
BD8AC643
BD846585
3B15F36B
BCDE2CC6
3E2CE339
BD28BB35
BC7B8009
BDC156D8
BCDEA101
BD5194DF
BD01EF14
BCD6B440
3E5ECFAD
BDA08CEC
3E378FBE
39FAE957
BD1ACA2B
BCC230BD
3D97F821
3DC57EDB
3CD3598A
3E10C524
38E3CDA5
BE2F442B
BD7300A4
BD7B6CDA
BD7D1DAF
BD799128
3E976FA9
BD584591
BD0B3063
3E1D0B01
BD913877
BC067A08
3DD68180
BCCDABFA
3E0D0228
3DFD299C
3E8342D4
BCD7552D
BD283BCC
BCEFA507
BC861D92
BDA2433B
BCE2D66C
BD1BECAE
3DA82814
3D702808
BC001017
3D1F62CC
BCFDD7AC
3DE6FAE6
BCCAE47D
BD6F8CC1
3D955A34
BD178B94
BDC6D05E
BD4A0864
BD86D2D8
3E1B5DA4
BD1D4330
BDAA5864
BD8138AB
BD203EC0
BD74F6E1
BC7DFAD7
BC3C3E86
BD8FDB30
BD34C0EC
BCD5780E
3D44D103
BD626D91
3BBAEEC7
3DFDD67D
BD563889
BD605545
BD53BFF4
3E386BD0
BD89AD31
BCF4C582
BC159C5E
BCA51852
BC2B46A7
BCCE48E1
3DCCA67D
BCC998C9
BCDECA58
BCEEC4F9
3DE22C11
BD8830DB
BD9632F8
3C410D20
BD18616F
BD54FF82
BCF73F16
3EB7597B
BE54AA0F
3DDF2DA6
3E00FE77

