BD750C59
BD91776F
3C578EC0
BD5F627C
BC6CA5EB
3DC0E7BA
3E1F5B83
BDA23A64
3DD83422
BDFB30C1
BE62E75C
3E025C33
3DABF4EC
BDDBC1A2
BDE685E1
3C4EA117
BE97658C
3EB5F64F
3D2814BC
3E8E57BB
BD841B2A
BD7DB10E
3DA4086F
BEBAB5FE
3E821DAF
3D66A908
BCCC65DB
3E51658E
3EABF675
BD9FE886
BD9B5368
BD2B960E
BE05F94F
3D59F8DE
BDD79EEC
BE4AE59B
BDB04AAE
3E5B9909
BEA1DE70
BE3E73AB
BDDB6890
BD508FAD
BCC075C5
3E0CE820
BE41FA46
3CF2020D
BC2332D8
3D5DD323
BE8CA681
3E27BFC3
BD81FDC7
3D8E678E
BD8B5A5A
3E1C024E
3DCA506A
BEB31D38
3D85BAEB
3A35FC00
BD6A15CD
BEB8E96B
3D5FB7B5
BD97E727
BE0D9798
3C83C3E4
BC828DCA
BEDACDD9
BCD5EBBF
BDA886DA
BDB831E6
3D817AE4
BD6B2541
BD0E0F1F
BE38EFD4
3D17B5C3
3D18867A
3E942B92
BB4DC493
BDCA04F8
BD89C7ED
BDD5033B
BD2106BB
3D0BA80F
3C16B2E8
BD99EEA7
BD16246C
BDAD9DC4
BD78AC39
3E1AD5C7
3E4DF12D
3D1A2C54
3B2E1883
3D6FBAA3
3D60E76F
BD8D18A7
3CE40478
BD3E3137
3E6DE74D
3E0C2D62
BD56216A
BC59BD65
BD84281F
BDBF88FB
BE8F9288
BE9FDC12
BDF37B75
BD1EB93B
3D91F613
3DC5B625
BE0A0238
3D15CCFF
BB2C63DD
BDE031B7
BE9B02BE
BC1F037A
BD11A866
BE8FACD5
BCB48794
BDE75DDC
3E86F30E
BE115CB8
3DB2647C
3D7C7FA0
3E5134BB
BC33C5D4
3E145FC5
3DB1AC82
3C5D6ED0
BC4C9EB0
BED1874D
BEE16C49
3D74410F
BDE62173
BD53C858
3E670B40
3E8125E4
3E5AC544
BC23CCD1
3D4712DF
BDBC1710
3E812ACA
3D88EBB0
BDF92E67
BD6362E3
BD8DD948
BE4E495B
3EAAE37A
BD430F1B
3DA9ED59
BDFF2EB7
3DDC1684
BC99E29C
BEAED39B
3D7C46F9
BD625EF5
BDBFC907
BAAC5051
3E7DA06A
BC5A9CD6
BDFC96E4
BD521E88
3D178FEB
BD3AE6F5
BDAB00A3
3C6C40C1
3D416719
3D6F45EC
BCDEB391
3D05C62C
3E0EF8EE
3D2CAC9C
BDEEA697
BDC0EAEA
BDE5B395
BDE7CE77
3BC504AC
3C1DEF09
BE220D8A
BC45E4C5
3A265D00
BE2565F7
BDB893D5
3C7F1BBC
BDED724D
BCCE69A4
3CBEE9B4
BCA026C8
BDDFEAF1
3D6586CA
BE00628B
BCA78846
3D9BF58C
3DBAA81E
3F00C169
3DF7FDEC
BDDF9111
3DAC8C1E
BBC02684
3CE2AE01
BDA416CA
BEA05887
BE0ECE47
BDF4F8AC
3C2D9831
BD0B8D7F
3DFD121A
BC72A457
BBBE9215
BCC2AF14
BD44B99A
3D4734FB
BD1184BA
BE34839E
BDAE1502
3D06E705
3DDA4EFF
BE57094C
BD9B02FC
3D9D9E54
3E18B06D
BE084F17
BE00A5D5
BD4AD480
BDA90136
3DBBE706
BE6E0BAC
3D88D49D
3D2C8F45
3E194E5C
BD3871B5
3E1E4297
3E3AEF84
3EAD76D2
3C8D3272
3C1F2A4F
BD09F7CE
3EC55F53
3E34FECE
3CB4BB1D
BDA7F834
3D77A444
BD7861A1
3D2C8B70
BCF71155
BE5E251C
BDCCE817
3D1165EE
3D75E032
BE916099
BE1DAE3F
BC6C7689
BBAFCDE3
3E5AD97A
3E6D383B
BDEBA98A
BC913CAD
3BD00404
BDA9D908
BD7F7A5D
3DB7037E
3E8C0135
BD9AE9FA
3C522CAB
BD0375F1
3CC7FD81
3EE934F2
3C94043C
BCF6BD4A
BE2B41AF
BE8FB4AB
BD23E54F
BDCE6CAA
BDED2F81
BE1BF6D6
3D3579E5
3BE6BC80
BD2A13E2
BD35C701
3CF4B02B
BDED4BFF
BD97B03D
BDD41AED
3C67A968
BCAE0754
BD357BD4
BE00F8EE
BB20E9A4
BD1580C8
BDBDDDC0
3EBEB5C7
BDAFCE26
BDEADCE5
BD98E962
BD746D11
BDC3A86E
BE18EBFF
BE2FA75F
3D1D4124
BDD6AE36
BCA29B64
BE27AE13
BB823DE8
BE0FCE09
BDBBF31D
3BB795EE
BC9ED36A
3E0BF932
3D1E0438
3DB5E773
3D585B4C
3D416986
BD9C1704
3E922952
BC0818AB
3DA2AF44
BDE08498
BE886F4F
BDD12FD7
3C4A99E0
3D992CD0
BD9287FE
BCF1BE17
3E517CF2
BB5FA9FD
3E6170B8
BD20B0F8
BC688E7F
3DE472A1
BE119C4E
3DA507D0
3D60520C
BDE2FDDB
BDEA80B7
3CDF4D62
BDF67CBF
BD8D5DFF
BD891CFB
BCF4BA79
BCA9830F
BD4D6120
BEDB573B
BDC00B47
BDB47470
BDABF722
BEA904BD
BECAD42C
3D9AF60E
BE0F9C49
3E5AE63C
3DC9CFC3
BDA3EDA0
3D3BC692
BD336921
BE14FB72
BE1339F0
BDB194FB
BE552237
BCA2F47A
BB92A3CD
BE96A532
BCC91426
3EF1474B
BCD97B10
3E077668
BD629EEA
3E2BEFFE
BD022833
3D24F556
BDEBB7E9
BD85C5A7
3E1F47DA
BBAA4E59
BB487C1B
3DBAD824
BCB9FEFA
3C8F33B3
3DD571EE
3D97F190
3D106A48
BC0FBBB0
3D9215FD
BDCD88F6
3D47064C
BDA12DB8
BDA82E74
3E3D76AE
BE81C230
3B3B4F34
BE45D267
BDD88801
3B692D15
BE326F88
3E0CDDD7
3D91DE2E
BDF6A91E
BDE5B98B
BD202549
3E20CDA5
BDB34A1F
3D844612
3CD56B04
3B5C324D
BDC47D82
BD3AA738
3D14B6AF
3CF058F8
3DE1601C
BE38A04F
BD76BF75
3E88666D
BD0F6C22
3D08C99A
BE9FB1B8
BE7BD198
BD507FEA
BCD34F64
BD7C145A
3E92890D
BE02E0C1
3D7DE806
BCFDF9D4
3D2FF778
BD9EDFEC
BE54A5E9
BEEF8CB3
3EDBDBE4
3D5C6F44
3CF1E016
BF0DA2AD
BE90D7A4
BE110144
BBC70133
BBC47E35
BDA21E4F
BE4ECC3A
BBF1BB79
BEDF5928
3D1E9752
3DFBBCE0
BE64E778
BCF8225B
BEEBFA08
3D426D05
BD997C75
3E8494C4
BE260E21
BE1C6BD2
BDB47593
BCA62CE4
3D711CA8
BE463438
3C7F3440
BE9B90D7
BDB972F5
BD48391F
BE0CA017
BE5D1B64
3EC78CE8
BE026EEC
BC1C11D6
BE1D6E8B
3E9BB8CB
BD80F3C5
BCB4E2FF
BD968C5E
3E00C3BD
3CE52D3D
3C90CCA4
BDADCAE6
BD268722
3D9E718D
BD767094
3C7FC327
BD867050
BAF518C0
3DB719E2
3E1B2577
3E27B457
3D817B69
BCEF3DE8
BD85A730
3E106BC5
BCD9C853
BC34E3EB
3E1C9E71
BCCBA4C9
3D5DF679
3E5F78B7
BDE7FD8D
3DBBB5F0
3AC67874
BE161737
3DC2F291
BE79EE75
BDE3FED4
BDE276F0
3C6322F6
BD638713
3E9B3131
BD5DB566
3EF69C25
BC2A3288
3D5E929B
3D8A29F8
BE977995
3C99DD5B
BD20F8D4
3DE38E4F
BDEB6E80
3E831CE3
BDA179D2
3CC1D5A0
BD3B683C
3DEE63F8
3DE1A5A9
BCD81179
BDA3977D
BE1494FA
3D1BBE70
BE228EC9
BE473A82
BDC4D855
3D97600C
3E07D8C6
3E914A12
3CB9A20C
BDBEC001
3CEEC820
3BBE7E42
BED3BC13
3D99C059
3D402E88
3DDE4A30
BDA7D75F
3DC8A809
3E84EFEE
3AA44B56
3E90A9E7
3DCB177E
BE1907FA
3E8B5380
BDD7BAB1
BD7D649E
3CBDB80B
BDA0B6ED
3EAB5541
BE005E3F
3DA3DFD8
BE3AD0AE
3D360DD2
BE8F0A0F
BD31E6F9
3DA747E3
BE3AA67A
BDBC5CBC
3D8C9A64
BE901340
BF1DE386
BD921DE7
3D3E7780
3D428CBB
BDE83CB2
3E6B38DB
BC6EEE50
3CEEBFDC
BD3621A3
BC87431B
3D18EB25
BD1E085F
3D48FD8C
3DC71BE2
BD4AC7A7
3E58EE92
3DFB3E51
3D85934C
BD773BA8
BD957632
3E6C98AA
3E2C2708
3C657DEA
3ED27F21
BDE20A14
BE389985
3ED46DC8
3BC69E9A
3CDB125A
3D270D3D
BD0CA32D
BE9291F7
BE97EB20
BE279205
3D2984C6
BC836215
BDB79D7D
3E8967DD
3D77380C
BE63C00C
BD96D8C4
BCF367EB
3B85EDFC
3DDB41C2
3D8360CD
3D77D870
3D9AC6C4
BADA03D5
3EA16847
3DA2F966
3DD0A5AC
BD9A7C27
3BA9C6DE
BE8AD93E
B90EAF3A
BE3BE6FB
BDC08868
3BC026F4
BE5A537C
3EA4DA7A
BECAA382
BD85FABD
BE19A164
3E68B85D
BD4676D6
BE111446
BDBEAD0F
BDD2EFD9
BEC96F76
3DA408A4
BCFF5CA1
3E7BD12B
3D0172A9
3E09D1CF
3F19708E
3D26D340
3E2C166D
BDB6D574
BD47A1D0
3EAB1F12
3C65A259
BD60AC70
3D2715F5
BD6DE4A3
3E94419E
BDDEFE5A
3C8FA312
3CDFB7C3
3D8508B6
BD720681
BC8AF29C
3E85E195
3C2A8B3A
BD34D6DA
3D8E3116
BEC63286
BEC1B278
BC9B6DA9
BD44B6F9
BE0D2E05
3E0407E8
BD7FC5DE
BDBA7D66
BD221680
3D37C0F0
BE777280
BD5447A0
BB801057
BD862A2E
BDBFE0C6
BC8C7AB3
3CFCCA0D
BD016E0D
BC815A0E
3C0AD1C0
BD2890BC
BD5FEC28
3D951048
3AF3F4F0
3EC78D1E
BDA287B2
BE3A0841
3F026667
3C335891
3E05A4F1
BDBD4334
3D64C3C6
BEB88CD7
BE7994C8
3C1488E1
BDD71C27
BDCC21C7
3D74A15F
BD30FA93
BD655E69
BDF4585A
BD99EE22
BD2B0CA0
BD6FF850
3E32688D
3D3CE74C
BD77B277
3E237A7C
BE6E7150
3DAEC80E
3CB84248
BC1932C0
BD9FB3A2
BDE03E07
3D46EEBF
BDC0362E
BC4530F1
BD142CAE
3DA50F55
3CB05543
3E959047
BED6765E
BDC3B02B
BE1F5E98
BD3C5987
BE397705
BD18677A
BD948120
BDE02E32
BDFC30EC
3E20099E
3D9D67C6
3DD340F5
37438604
BBB6C26B
3F00F6BF
3DF4CDBE
3E2C8E3F
BD6A5508
BDE120CD
3D9FEB82
3C35B462
3D6B780C
BE0D9875
BDFA74D9
BB5ED651
BC93FD6E
3D6F9D45
BD98107E
BBCFB516
BAE8DEBD
3D72472F
3E65232E
3E17CBA0
BC463465
3CFFB83C
BC54BD4D
BEC23BE7
3C6ADACB
BDD07A5C
BD0CF064
BD8BFFFF
3DA37A06
3D24BF58
3D7C8F9D
BC260410
BE02E47F
BD62992F
BDE929F7
BD7F936B
BDCECB7C
BCE7D6DA
BD85B51C
BC0D9F39
3C11B33D
BDBEF9E8
3DCA29D2
BDB532A8
BDE3A34F
BD5048A7
3DDA7E43
3A7252D3
BE6D6EE6
3E9CA961
3E5E4815
3E163FA1
BCEDCF5D
BD85B9DF
BD3CCEBF
BCE7CE7F
3C33A571
BDBA6BC9
BDECCC3C
3DBF26C2
3D7D76E8
3C1156B0
BE6F2EEB
BD351AB8
3D940005
BC1CC127
3E62F976
BDE1AE18
BD86307C
3CB04C56
BE9FAA6E
BE2A1F2C
BD8A3741
3C590F28
3DC0B758
BDF72F9D
3E3851FF
3C3ABE5B
3D8CF8D9
3C3A3218
3DA11C15
3D992CE1
BCBA363D
BDD9DAC2
BC889DF9
BDE6CC60
BE8FE67A
BEC1394F
BD375390
BD8299AE
3D11E753
3D23CCE0
BD5C16AF
BD4C7954
BE31522D
3D05290E
BDC12811
3ED1E89D
3E812A58
3E3DA13F
BDA3D389
BE06267F
BDE3659A
BCA7E444
3D276978
BDECA40A
3D0D54A2
BE500A95
BE22038E
BD847BCC
BEB890EF
BD065D0E
BDB2511A
3E91DD05
3E15DEFD
BD90D777
3DA3F33D
3CE3C99C
3E8FB3BD
BE5F7F36
BD3B23D3
BDE75C27
BD84B0A8
BE7828C8
3DD5E8EC
3D7F1774
3DE998E6
BD87EF69
BCDC8C5A
BC197F77
3D330D92
BCDE1AA2
3C96E8DC
3BE870B0
BC021BA0
BE3453BE
3D26A73E
3D45D1CC
BDA3EA4B
3E51B89C
BE059294
BD60A8B3
BEE407E2
BD052823
BE1EE7B4
3EB7A2F2
BE5DD272
3DAC0C85
BCA3330E
3D828C3D
BD47AB7B
3E3C7976
BE0E3703
BD9E51F4
BDA14CF1
3D102CA9
BDF890ED
3A896080
BE539225
3D8A7E18
3ED4BD74
3E440709
3D33F44E
3E2EB1D9
3D69AD78
3E3802A6
BE3B6D92
BE54956E
3DC2858A
3D41C30C
BCF88070
BE5B8482
BE7D3A4D
3D3CCC9E
3DAFA32B
3DB34E34
BD7EAA14
BE6F0B09
3DB61A14
BD995579
BD141870
BE27A87D
BD1A627F
BEE60121
3D2AB31B
BD3F4D33
BDF32CFF
3E605562
BE2FF372
3CE3AB98
BE7DD031
3D3BE0DA
3DD0B68C
BD09B13B
BDC86D7F
3E099F9D
3DA68B42
BC9746D3
BEC88CD4
3DA9FA0C
BD378142
BE1A63B3
3D9496CB
BAAF67B0
3DDCBFA5
3C047C0C
BE8B3A33
3CFA6B02
3C20C537
3EB5B31A
BBBF9B78
3E868543
BDB2840B
3D2FAE4C
3D82D495
BE323BE3
3CE81BBD
BD8BAD5B
BC5684AD
BD228215
BD037C6E
3CEEE021
BDF88A77
BD823DAD
BE143956
3E2254A6
BDC04999
3E217C0C
3D8FA076
3D85CF16
3D9DC7F6
BE4077BE
BD631493
3A3F7000
3DA7B61E
BDC39EA7
BEDDCB81
BDBF2013
BE06F980
BD250B1D
BE13FD42
BEA82C06
3D8A076D
BE6E12AB
BD258723
BC66C1E6
BEAD3D72
BDA590E6
BD5FF81C
BE009378
BDAB8A16
3E619298
3E5552CC
BDB082A3
3D83C1B7
3D9517BC
3E2F8FD9
3DE77FA0
BDC51967
BD9586C7
BDD27DAB
3DCD6644
BEC931C3
BD8FF8AB
B907A000
3DC26194
3D555FF4
3E2EB442
3D15F1AC
BBF3D41C
BDD87B42
3D6C5AB6
3E17DB2E
BE85E9BF
BE872B55
BE86A8A5
3C1A8B18
3C7147C4
BDF20D44
3E261311
3CBF2B30
3D4549FE
BD94C435
3E34916C
BEBC2BA3
BDB1EDAF
BE903B6C
BB2B780B
3D7C354D
BDB56B9C
BDA6BD9A
BDC1650D
BD74A3B7
BDA7BBA7
3E4F6DAE
BE871173
3D5C4AEA
BD42E389
BD54CB8A
3E817EDE
BDABDE4F
3D1786B7
3D22B679
BDA43DCA
BE42C91E
BE012966
BD23DE32
BCE81BCE
3D9F4A2C
3DB5BEC3
BE3430F2
3E939FFA
3D11E645
3CC9D883
BE2DC804
3D4D8CE2
3E07765D
3CF7CAD8
3E8D7FE5
BD3108C2
3E6C6829
3D5D3602
3DC7E643
BDE692A5
3D918E56
3D32BF4A
3DB2479C
3D17DDA1
BDC57094
3DD2AE78
BD8158B7
3D862D4B
BDB1949B
BD969141
BDF1061B
BC87B240
BE7E616E
BEB79FA1
3DA3993D
3CC1B6D3
BDEDDF24
3CEAF537
BE9EBA0D
BE3A776E
BE16660B
BDCAC807
BD13EF5F
BE3A801C
3DCC685F
BD9FFBFA
BEA9512D
BD40A50B
BE1B75C3
BDF4F017
3D1DB5BF
BD354336
BD77180A
BDB8B88B
3DA74C18
3D1E8061
BDB8D00F
3D4D9354
3DCD3B00
3C417DC7
BEBAAEA8
3D9ED98D
BE1BA13E
BD0A0350
BE0B4199
BD510221
BBF422AC
BF0F1D96
3BFBC638
BDD58151
BE5152ED
3E43B89D
BDB38250
3D233323
BD83B1A1
3E18A383
BDD0921D
3CBA4F5D
3DC45484
BDF5037C
3E137A56
3C3B2D8E
BA1CADCA
BDC3E3D7
3D03304A
3C606369
3D65EC9A
BEC0127E
BD62F224
BE0FA45D
BB460AEF
BE8ADCF7
3D3267F3
BD300E31
BDFFDDEF
3D424AC8
BDF9F162
3DAE96FB
BDF52E74
3E361447
BDA4FC75
3C46FC05
3E9B7786
3E4B02A8
3CDD9B93
3B8417BE
BDFA9D84
BCAC7D6F
BCD6E2AD
3DBA9AEE
3C96B894
3D8EB160
3D1E3DAA
3E1D16A1
3DC8517E
3C86518E
3D56AC44
3D820A4F
BD8FC441
3D29FBE9
3D64300F
BBA8A6E0
BDCCE1E4
3C34F80C
BDE76B84
BDCBD0CB
BEA8E71E
BCB16B9C
BE2CE5B2
BDD15EE6
3CA862C8
3D083A85
BC53FCB5
3D98EAAF
3D4398A9
3D4F5F4E
BE10B21B
BD2BA09B
BE0CCF4A
BD0503E6
BE713A9D
BC1C8B38
BE27A7F4
BD5880C4
BD28E958
3E0CA1DB
3D915167
3D64A214
BD2319E2
BD09E5E3
3D038DB1
3E4DCDED
3D41893C
3D02ED74
BDADAD4B
3D81B4B0
BE49D2E2
3D9DFFE6
BE225943
BD2C51A0
BE181D83
3E9409F2
BEA460EF
BD252631
BDAD16E3
3C16D5AB
BE9CBE31
3E2951B3
BD8D13E7
3C7483C0
BCAC0380
3E7F40B7
BD584B0D
3D379972
3E051069
BD8C890E
3C1A14FA
3E07E005
3E603A52
BE08EE28
3D0DDD35
BD377A81
3D15FD54
BE91CA18
3D0992B7
BD9E515F
BC3FF9A9
BE2CD282
BDBE2D9E
BDBCC1A4
BD7509D2
BD48372C
3B7D2B7C
3DEAEE61
BD9BA542
3DFDCE60
3D527887
3D0135BE
3EBC28B7
3E53DC68
BCDF21F6
BE0EEF8F
BD6E6E7B
3CCB80DA
3CB9F7BC
BDC7B1EB
3D073ADA
3CD4B748
3CDE8CAD
3E01D915
BD818BEF
3DAB862A
BC675280
3DA8A413
3DE2D675
BCB1F6EF
BD981A21
BDAE7338
3CE3B6B8
BD86A5F7
BDE83D19
BDC9C087
BE8FA984
BDE63746
BE18800F
3E9FA624
3E2E3418
BD164869
BDEA203A
BDC12187
3DF5782D
BDC79DC7
3C17B16C
3D169AD1
BDA19AFB
3DAAD8AF
BD89632D
BD8B5E11
BE21C405
3DCFE35C
3D2492B5
BC7B3233
BDEA06B9
BD08D72B
BD8B35BD
3D902F70
BD73C5B1
3DB7E4DB
3C82B390
3C42A4A8
3D51E590
BD3F18FD
BE38DF71
BD8C5464
3D65D8C2
BD8787DF
3D27688B
BCA8CC64
BEAB2E44
3D50EC9B
BDF8D47C
BCC4F4A9
BE97D2D6
BCEBEAA2
BC9D3BDA
BE0D381C
BCF06DC9
3E89D863
3DF4072B
BDD92473
3CEB724A
BE049FAA
BDA61304
3E472843
3EADC659
BCC95E39
BDC4B49A
3D48EC11
BCD6CBFA
BE58BC32
BD2FF3DE
3D317952
3D0D78C4
BDF68E56
BEBA3C2E
BD296132
3E6CB97E
BD6D4581
3D7AC3CF
BDC25E08
BD76AAAC
3C2BC5C6
BBE2CB75
3CC6FFBF
3E6422F7
BDC67D52
BD022C71
BD306E5C
BCC7A25D
BD08C264
BDFB3FC6
BD6EE4ED
3E2A0755
3DC31F74
3E70B303
3E3077FA
BE0291FA
BD140274
3D1E9A34
3D85464A
3E8AAD43
3C9DD63E
3CFACF94
3CF98BA8
3C19D1D0
BC1B6243
BE2039F6
3BB1E451
BB07D2F2
BD7AFBE3
BD07A6BE
3E87A0CB
3E34652C
3DDAB895
3D653DE4
BD121F81
3E031F13
3D0F1071
BE0A550F
3D9ED542
BCEF67E0
BDE146DE
BD3B3F8C
3DC0A4D8
3D61DD4B
3D7EEAA4
3E862517
3DD9393E
3C08094B
BCA79847
BDAFC3C0
3D4E854C
BD795F7F
3E9DC89C
BC8557E8
BCD41040
BDBCBB38
BE6C31A8
BE55C144
BD332723
3E6A0E83
BD780B67
BD576534
3C9B4AD5
3E0385F7
BD76115B
3D89AEDA
3C8B3F17
3E857A8F
3BE6C4E4
BDE59F39
3C9A332A
BCBC5349
3EB18B58
3D655C7A
3DAB391D
BE8D65F5
3D28E574
3DBC19CB
BC6272A2
3E1D03E2
BD7D65FE
3C8FA200
BD25CC0F
BE5C7B8A
3D39CBB2
BDF16482
BDAAB450
3D09978D
BDF8714C
BEF2551B
BD878939
3EF6D689
BD98B615
3D68E077
BD822532
3CDB2125
BC7B5336
BD6D098D
BC596ECD
3E1BF053
BD24DF1A
BD89D50D
3D16BCEA
BD7D513A
BA6EB2B5
BE99215E
BD92F51D
3E4AF930
BDB7238B
3D858871
3DBF496B
BD5E1D94
BDE80050
3DCFA444
3CCC0DF9
3E05A928
3DEF0258
BCF50EBB
BDD1F19B
3D0A01D0
BE33D061
3E1EC629
BD3951E5
3DD24CC2
BCDA39A1
BDBCC69E
BDFF2C5F
BDB0885F
BDEC97BE
3CBD6807
BE1A442C
3D3351A8
3E0EBC27
BDFA8684
3BE60C18
BE0E2EC0
3E45FDFB
3DE1781A
3B5FC380
BD98EF8B
3DBDD6D8
3D7C55B1
3E85086F
BD9C3A08
BCB2360D
BDC02AA5
3E36B0B1
BE9D0549
3E4551B1
3D8A8D52
BC7C0EC8
BB9616D4
BE4D74E9
3E1E1F11
BDB90F7F
3E8F9CC6
BD8D3027
3DAC75D2
3DA7D37A
3E7A4339
BEDBF3CA
BC8E43BB
BD6FA0B3
3DB39D04
3E3DFF63
BB299349
3C02675F
BE1D4316
3D0463B2
BE948B98
BD8DF38C
BE05A8CF
BDCFC054
BD99B21B
BE92E9E8
BE31AFD3
BEAC26F4
BC29F9F8
BDFADA2D
BE3BAC8E
3D733F0A
3D18E6E9
BD978E27
BD0812FE
BDF366B9
BD372D4B
BDDF4DCE
3ED1C5E5
BD5C5ACB
BC0CFDD3
3E12EDF9
3E143FB3
3E048D73
BDB2B868
BDCA4824
3EEBDCD9
3E89376A
BC66BD79
3D50E81A
BDD4FD02
3DED58E1
BD10FA22
3D214180
3D9E7DC9
3DA9B732
3E41E769
BD0BD933
3D864A69
BC5B7A76
BD3D3108
BD0706D3
3D74810D
BDC068CA
3D030B51
3D15803C
3D80721F
BE91BC1F
3DDB3AEE
3D8C0A70
3E05F267
3CF19F71
BDBD1EF5
BD80DF39
BDD170AB
3D72B4B6
BD88DE69
BE341058
3E8D0B11
BD138353
BD4BC941
BD8A5442
BDD89586
3E7B05E4
3E8A5069
3D9F406A
BE3D5FA2
BDD2524F
BCFF7803
BD210BB6
3E2308DC
3ED95F86
3C9FA750
3B528DDF
BDDC23F8
BCBE1A90
BD6B6C3E
3DA48F08
3D85338B
3CE66773
BDBCF4F3
BD9C975B
3E4967C2
3D252082
BE69C0E7
3E52DC69
3E735998
BDD07775
BD8D00F4
BE3CB239
BE109240
3E89347A
BCABDEB8
BDB150B3
BD5F0D81
3E1ABAE7
BE1CFE93
BDE37E13
BE78BB70
3CAF5433
BDC61895
BDE6CA9B
BE31FA7D
BEB6BB28
3CE8A1DC
BD9ADE83
BE33276F
BDEE021F
BDB51A3A
BBA76B34
3D6C238C
BE028732
3E232F46
BC886EA1
3E95EE6B
BC1BDF2E
BD429304
3D242F8E
3EA17998
3D55483D
3CB75440
3CD405B0
3EAC2810
3D9A4384
BDD43317
BDD07A8A
3D3652D9
3D832E4F
BE8606BE
BDC8B981
3E360463
BC0A9D88
3C833C30
3E2AF646
3D8EE29E
3D74696F
BD706B5F
BC497320
3DFE0027
BDB6B66F
3D14076D
3C5A4288
BD7076F7
BD4AB23A
3E0F582A
BC683AE9
3E0B884E
BDF63517
BE45CF8E
BC81B368
BD4AB239
3E1B12D7
3D7B51A6
BC6E14A6
3E0FD435
3E21A6BC
3D3435A3
BC715A5D
3BF0D11E
3C8CA5CD
BE1BEF57
BD2141AE
BDBC8E87
3D5BABCC
BDAF8E1B
3DA537D9
BE8521B0
BD09BD69
BCFB6CB0
BD25198A
3E57FE08
3E186AD8
3DC05002
3D13E1EC
3A28CB00
3E6CDEDF
3E6751CD
BD57C784
3DBC2456
BDDB7FEB
BD546A7F
3C4ECB57
3E509B4B
3E08B746
3D90402C
BCC2D9A9
BE86EA66
BD21D550
BDB971E0
3D3B3645
BD6DD82E
3DE7F5E4
BE224C38
BD57599D
BE1DB023
BD729448
3D13E085
3E477995
BEB1FE57
BE7484DF
BDADCD11
BDF2A2A3
BE09564B
3E2393E9
BCA42E8E
BD95430D
3C7C9604
3DB9DE79
3E86B4B5
3D27062D
3ED20615
BE0FFEA0
3D96E6D9
BE0D13E7
3E90E447
3BB28826
BC916B82
BDBA3570
3E143E33
BD16A4B9
BD9E5319
BE1FFDD2
BC1239E4
3E132EFD
BD3C9195
BD8C4844
3C230FDC
BC9EAED4
BBD01292
3E1C42B3
BD908A9C
BD379A39
BDAFCA9A
3CA9A5E7
3CD6589D
BD2C1340
BC8F2145
3D239CD0
3D285E58
BD2F2F2B
BE295EB1
BC881FDD
3E2BA753
BD6A05DF
BDC43E00
3CA47283
3BE63E9D
3E3626B8
BDFB8625
BDCD3DAC
3C849700
BE108A5C
BD8CA96E
BDE68530
BD370693
3DEBC61E
BE558EF0
BD3EA1F0
3EAE8016
BDAA4991
BDCBD000
3E285E82
3DC5662E
BCD98180
3DB90D54
3E03F8C3
3DAD25F0
BCA720CB
BD331E60
3CF98AA8
3D662750
3DBDCF8E
3DA8FC9D
BD07404E
BE01B948
BE19E510
3CFB32DB
BEA35346
3C9D1F6B
3E6AF835
3D64FF1F
BE3C673F
BEB642F4
BE70CBA9
BD8F70F3
BD11973C
3CC94EFF
3C6F55C0
BE91F864
3CA2FD11
BD9F391E
BD633DB9
BE3D6EC9
3E425A29
BE9E9D1C
BE149A0F
3D247C6F
BE1D96CA
BD9EF9A0
3DCE175B
BE0E1713
BC97AFA3
3D062477
3E1C41B6
BD60A6D8
BDCF5F59
3E5EC569
BDA97530
3E0B730E
BEB9C66C
BE1B2AE8
BE309C64
BC122636
BDE160E8
BE8C0EC8
BDA9A3C8
BD90D681
BD157038
BDB9A57B
BDED9BFB
BC25453D
BD9686B5
BD3F06B5
BCF41E6C
3D8360F4
BE75879D
BDDE76AC
BDFBF22D
3CD129F8
BD513879
BD0AA860
3DBA6201
BD9E169F
3D3B8290
BD8D9EF9
BD8E3704
BE469B68
3DB3C61E
BD699061
BD13CC2F
3C49FC93
BD436ACA
BE7944DA
BDBCEC35
BDCB8E64
BD64B80C
BE4DA5C5
3D040EF7
BDB9C6E7
BDAB79AE
3C9378B6
3E15AC3E
BC968EB7
3D373FE0
BE02E718
3C5E4FD0
3DFF6398
BD0D059B
BD8BE746
BCF2390C
3D186268
3E2788F8
BDFEA876
3D0F9641
BD968756
BD8AFF45
3D192B00
BED7A45F
3DD52C2B
3D1F4A77
3E089BA0
BDB37A82
BE39DE7F
BD3A058A
3D8AEA66
3DC051EB
3ADF2132
3DCE19DB
3DE1A1B0
BD387DAD
3CFEE1CC
3D1C8052
BD7AE555
3E09D4A8
BE32FCFA
BC0FBBCF
3D897F2E
BE10B248
BDB6C651
3E37765B
BDC452E0
3D3EDDAB
BDEEE255
BD01051C
3E44958B
BDFF82E7
BDB46F3C
BCD7DB03
BD53CB9C
3DA78323
BCD154E2
3C8C50AE
BDEB0C14
BE0EAC0A
BD45EC5F
BEECBD7D
BED50DEE
BE8BE601
3AF56900
BE4B8180
BE9AA4CF
BC845858
BDE44DD8
BC81BB01
BE2D777F
BC1F426A
BE307DD3
BCB05ECB
BC7E404E
3D93CB6A
3D62A82E
BD45B4BB
BE8E3DF9
BDC7EE9C
BD91D1EA
3DA3D678
BDA9DEFB
3B80050E
3C4CE55C
3D83217C
BD543800
BE8B0C64
BDE97FCD
BD1D39CC
3E100441
BDABF6BD
BD9C51D9
BE2811BF
3DC68A80
BB858EFC
BDC1B835
3CEB313E
3E1F3D88
3E79AD3C
BDD2D0C9
3D4DF296
BD6D1D64
3D7D2ACD
BED8AAF7
3D7677EC
3C878917
BBEF16C0
3E0382C8
3D5D8741
3DF88128
BD6E8AF9
BDB27FD7
3D84281D
BE3C9D89
3E76301E
BD55C5DD
3DC6AB38
BDCA9970
BD54A92F
BE5C8A4E
BDB5A912
BCCBF5DF
3CB9E7D2
BD585AE5
BE6235F9
3D1A1019
BDC0B63B
BC27FE0A
BE4A4987
BDD9ADC8
3CA732D2
3CA30145
BDD16F79
BE31BA15
BDE2CAC4
3D972C30
BDD12FE3
3EC9801B
3D0A1EED
3C7BB991
BE6647C3
3E09944B
BE37D1E0
BD407A88
3C885FCA
3DD670EB
3E0740BF
BDD6111D
BDDB114F
3D0C2FFB
BE33B772
3E90AF5B
BD268E8C
BE2185AE
3CCC4198
BD869EA6
BD3467F7
BD82D65E
BE805C1E
BDD1B39D
BE2581FC
BDB194ED
3ECCE166
BCC11DA8
BD813213
BD0E6DC9
BE6F9583
BE2C950A
BD383CCA
BC82310D
3D818946
3D5CA956
BD2D3BD4
BC002CCF
BDB93A45
3CE964D8
BDCEA5A4
3E1C1AE8
3E2323AD
BD0E97D4
BCDD4F04
3D1C7EC2
BE52B844
3ED0099E
3D781E77
3C27EE46
BD8E114D
BE2BEB72
BED337A6
3E4F4AA2
3DC19B99
3CC1EECC
BD178875
3D3DFB41
BE076844
BDC8AA06
BDD799C3
BC85BFF7
3DD0B66D
3E6424FA
3CDFE170
3CABE15E
3D4FEBD0
BE3367EF
BB8BF556
3C5A76C6
3D87B20C
BCBE5504
BD13E149
BD712E59
3D9A5FCD
3DC0106A
BD27DD38
BD143DC4
3DD02D92
BE48A5F7
BDB80EC7
BE191D21
3D03E750
BDBC92C9
3D6E7DC5
BDF2CC2E
BCEB6DD2
BD91445B
BE1887B4
BE96EB90
3E46906A
3D8C47FE
BDD9FA53
BDBA2AD4
BEBE0393
3E810ADF
BD687915
BCA0B681
3D910C91
3D4E44AF
BE4852CA
3D3AB5CD
BDFAA728
3D472408
BD0BF8E3
BD57EA1B
3D2CD07B
3D1D2798
BD514846
BC053CD9
BE39E42B
3EACDD5D
BD0960F8
BEAB971C
BD9B5CC4
BD8567DA
BE67F73B
3DFC0CB1
BE0A1D8E
BDC096C2
BDD41DC8
BEB9EDFD
BD5D69AB
BDA0ABAA
3D357148
BB35BF3A
3DD340E7
3DA86319
3D157328
BCB2DDFF
3CA0FB2C
3D210501
BD045B4E
BD89E5FD
BE135B14
BDBB88A7
BD293055
3D943A70
BD9655E4
3D3E8324
36F90000
BD8140A7
BEC4CBAD
3E9D9ED4
3D8518D6
BE314218
BDF8CD74
BDCC41B1
BEA66B05
3E5B91A8
BE3E02E2
BC08F85D
BD93CE0A
3CBBCE91
BD87659A
BE028DD4
BD1650E6
3C41090D
3E21C979
3C1D5F95
3DAE4678
3D632257
3C802BB0
3DECD5CE
BE59D82A
3D0CABB6
3BA7D5C1
BD88D984
BD8CE8C7
3E87C647
3E3D1B4C
3D46D7FC
BCA132C0
3DE4E68B
3E9247C9
3DB46270
BDA79F89
BE9F81C0
BDD1CCEA
BCA6499D
BEBAEA53
3D71B7DC
3DF3DA90
3DBCF532
BE2E110F
BE59BE08
BE1F6D46
3CEE3E70
BD48F368
BD81A6F6
BD9E6A4A
3EC5A8A1
3DA12AD3
3E0461E5
BE1BAB2B
BD095244
BE090611
BE132D1C
BE0A7C61
BDE076B0
BDA0B8A2
BE2F7CEA
BDD86B7C
3B510584
BD73997E
3D13D53F
BE643CDC
3ED51562
BD85DF9F
BE60A7DF
BCC6BB2B
3C6FD23A
3DDAC6A1
BD0B9E04
BEAB2267
3B3FDCA0
3CB1ED5F
BE72665D
BE188353
BD8D6BB5
BDB60A98
BE109885
BCA9BB78
BCCECFD6
BD913E6C
BD4E313C
BD9FCF24
3DA74B07
3E14BBA9
BE55236A
3D9616D5
3B0C0C60
BD88D1DB
3DCB7192
3DB2B6E9
BC6214DB
BCE0DADC
3C6874C0
BE9DC460
BE6D4895
BD1EFEA2
3DDC91CA
B9DC7486
BD872FD4
BE95EE11
BCF6EEA0
BCEE198F
3CD967B2
BD33EE2B
3B97BC2E
3BD59635
BB6184C8
BD8C2B6C
BD89F6B9
3E47B05F
3EA001C3
BD7C2343
3EAE3FAC
3DCECE9C
3C0D8459
BE75413B
3E02B0F5
3D9DCE7D
BC221290
3DC4C57E
BE24C066
3E310B2A
3D9E9F02
BD9D19D3
BCC5ECC4
3E3E784C
3D72889F
3CB4E455
BE368A4E
BDDAB68F
3B99C174
BEA72DF2
3E42B41D
3C30AC0E
BD875FF6
BD5187F8
3E00CED1
3BBE3977
BE0A41F3
BD617A8D
3C8D2DD9
BD049227
3EA9810D
BD8735C9
3E035AC9
BE18E095
BE50917A
BE887F74
BDE2021A
3DA26CD5
BD55D6D7
BD4B22DE
BE01FD43
BE6DDAC5
BBE1B2F4
3D06BC0A
3D623809
BEB3BD40
3E26C14E
3DB093D3
BEA1B677
BDD5F87F
BD0B2575
3D84FAA6
BEB8F392
BE2E0FA1
3B835E2F
BCFB5BD8
BCBA7BFB
3CAE6B52
BDFB7129
BD057C57
3CFBA4D5
BDB9ADE2
3E1172B5
3DB5992A
BE67CC84
BB944CB0
BD97B019
BE19F904
BD93BCA8
3E27217D
3D122350
3DAB28D9
BDAC7EB8
BDF3CA5E
3D5DE004
3D14E514
3D503640
BE41395A
BE0D883E
BDCF43D5
BE1F14F2
BD7C62A6
3CED455A
BEB4B589
BE9D3E4F
3DB30E6E
BDD4C506
BDDE1821
BD048784
3E406F25
BC26BC55
BDF5D916
BD86652C
3E82AEFB
3EC18D49
3D1ECD68
3DC896F1
3D0519A4
3D1A742F
BE594449
3D29EE71
BDEB771C
3DB0B8BE
3DCB5EC5
3E124ED4
3D11B89A
3D15BCD0
BDA14B28
BDC68D6E
BE0E360C
3E000C93
3D84A516
BE00D637
BB9B8BF7
3C99B8D9
BE510C81
3E6325DC
3E230A6B
BDF88C64
3B4A82A2
3E503600
3DB205BF
BD9A0001
BD108648
BDAC4AF9
3E1A3D29
BB6C397E
3CADBF12
3EA2C836
BDBBA0CA
BDA606DA
BE39FADA
3CFD4E2D
3E42FFF7
BD5B435F
BE07B455
BE91E450
BEB61B64
BA9E762D
3D77070D
BDB57ACA
BDA06009
BD4025CA
BDAB8EDD
BEF6E148
3C3551F3
BE27B334
BCEFFD1E
BE3D0671
BDF4857E
3C758FAF
3DFBC6BB
BC28C4F6
3D2981B4
BCBC6E31
3D065166
BC97E2A1
BE9FBE35
3E022888
BDCDE0F8
BD8AC0E1
BDB67B76
BC2481A6
BE6EDFD6
3D725A48
3E37DF55
3C49E2C8
BDB8FC93
BE870883
BE544A86
3D1E36F9
3C9A501B
3DC6EF1A

