BCB3E74D
3D109C75
3D90E8B9
39E03483
BDB18616
BDC07BD0
BD832BB1
BDA54995
3D81F78A
3E61BB55
BC8D704A
BD3F33B0
BD1E14E0
3E4296AD
BD506C2C
3E1D7391
BDB1CDB8
3A215E70
BD8F666C
3D666BC3
3DD30C0F
3EDFA3B9
3DA8D2B6
BCDF0288
BDC8A7E1
BE1A81CC
BDC2AD84
3DA4FC39
3D943CAA
BD94AC32
3DA6F0F5
3E089921
3CA86025
BCCB68D3
BCA2C764
3BA5A3ED
3C80F2C8
BDCCA361
BD87E913
3E83B7D3
3CA3DDB7
BE27AD40
BDDB30D1
3E9D896D
3E7886C9
3CF517DE
BE192042
BC742DB1
3D9CAF41
3E2484C4
3DFB2247
3C8AB860
3DBF5AB1
3B317272
BD2E158D
3C272D45
3D7BE88E
3D36858A
3E8C71B5
3E225EAE
3E46A0A6
BD64DDF5
BDCEE8D9
BDB341E9
3DB18203
3EDE6006
3E12CF2B
3D58C92E
3DD51921
3CBD0584
BCA20D41
3BDA4213
3E28538F
BE74B622
BE3C5ADD
BB658DEA
3D0D9422
BD0F64CB
3A889C29
BD7E9804
3C07ED6A
BC18ADB1
3D22CBFF
BDEAA544

