3DE30CFC
BE4015DE
BE2A699E
3E6A9441
BC624C75
3C9C9CE6
3E5CB5BC
BA4D1BB9
BEA3746C
BDE0E64C
3EAD40A7
3F5E2695
3E81AFB3
3F025641
3E8BAB19
BEE1B875
BE40F3AD
3DB55D51
3D2D2578
3F058361
BE912B35
BDA4F440
3EA9D024
3D3E6462
BD3FB750
3E8ED2CF
BE34F7D9
B91040ED
3DFB6858
3D7782AB
BEEBC126
3DD32957
3E35D0EB
3C3E153F
BE23D341
3EC5CF13
3CDA6F10
BED1E6D7
3EA7DB41
3D715CC5
BE08075C
3EC5C651
BD913F33
BE9263DB
3D326217
3DDA5B5F
3CEF4166
BE521BC7
3E4DE471
3E6941CB
BE0CA538
BE066A32
3E056907
BA160550
3E782090
3D96EDDF
3E7548B0
3DA1107A
BED16081
BE6BBA46
3C8F2E38
3D8757D8
39C89886
3D6B694D
BF12AB38
BE98ADD2
3E61BFD6
3E037FCD
BE4F3CFC
3E0FF0FE
3E7EDDB3
BF15CD37
BDB1B8D9
3E11D64D
3F132448
3E83716D
3EE9B9F0
BDAF8743
3E27B311
BE536ED8
3DB95257
3DCC1F2B
BE709F36
3E948268
BCDB637B
3E2FDAF9
3E76E628
BD58E7C7
BD6D51EE
3DB2F8BB
BE186BB3
3DA1669D
BD3251AD
3E1FF6F2
3E13C06C
BE24D65A
BDBCDAAD
BD4D5414
BE0DDB15
BE40872B
BE49BBEB
BE07BE0E
3D06A0E8
BEA073D3
BD6D02E6
3E511CB0
3D0D2464
BD70CD40
BDB16BFB
3E638BCC
BCB75D90
3E9722C2
BE113F07
3C321FC3
3E2006E1
3E56BC5A
3DBCEC9D
BB755EC9
BDB2E322
3EAD6B62
BD653ED7
3E07C8B2
BC265274
3DA8B956
3CFC7AE1
3D894866
3C99CA00
3D0E8AA5
3EA4954E
3D00F39E
3C05E889
BE0DDECD
3D232A4A
BD3CB209
BC377DF4
BE111893
BE082DAD
3DE1FF46
BD82A1BE
3DA5AB12
BE8FE833
3E0C3807
BE29360D
BCF85B4A
BDE8D1F0
3E23EEE1
BDC7BE8E
3DCA9C32
3CF991D1
BD57F55D
BE21B1FC
3CFCC877
BCD83E3F
BE0EE803
3E3198A4
BB84F8AD
3E4553A4
3E405B1F
BC674325
3D7EF8E5
BDD5F14F
3E5E1114
3D830BDC
3E122660
BD9BA9D7
3DE44AB6
BD9AA4DA
BD91740E
BE090FB9
BD9FD1D6
3EE001CF
3EAE23B4
BE37C8FC
BD8BE646
3C99E02E
BB5EA119
3E9D8C84
BE430433
3DC22334
3DA692CC
BCA0B09F
3C22D8CC
3E2CED3F
BE35E815
3E15605C
BCF826F5
BDC4AD88
3E6E7E1A
BECF45C3
BD3A2096
3E610142
3CAFD404
3D0615BF
3D88B13B
3C9FAB8E
BDAF032A
BD0AC840
BE4B3DC3
BDD3A4EA
3E3A46AE
3E9038CC
3C9481E6
3D8FC99C
BC70B360
3E26CC69
3E76A453
3C4B0828
3EC2CB5F
3DF99F80
BE11C527
3CB685CE
BEDC77C7
3E11239A
3D55AFE6
BCDEDAC2
3EB2F5D6
3DB7F4C9
BE0B32A4
BD0B9ECF
3D905E77
BEDFDCD9
BE18FBA0
BCF53408
BDED93CA
BE804EA4
BCE33DAE
BEE0466F
BD3AF686
BE09C328
BE2EE718
3B1F893C
BE37CA31
BE7DB86F
BE9992A0
3DB0DC6D
BE8372E9
BE8383E8
BDC0CD6B
BBD79E79
BE58112C
3E2486D1
3E36A225
3E052F1C
BE635AFE
3E4726E1
BDD0BE11
3E2CA22C
3E1A5310
3E5560F1
BE63FF86
BEE9256E
BE494604
3C9112BF
BDCA92D7
BD5C163F
3DF68969
3D713007
3D845F86
3D5B51E5
3DA0D5CE
BE092250
3E09C8C6
3E48F461
BD4C2011
3C1972C0
BE57723A
3DDB5CAE
BD1AC01C
BE07A8CB
3C38D069
BE2A4A0D
3E08DE48
BD7F5883
BE240ADF
3E016AA5
BD88C584
BD7E46D9
BD0E884B
BBBF7220
3D7158AC
3DF1E43A
BE09F1C4
BD1758E8
BE694AC2
3E38CB75
BD6E2858
BD244D79
3E13C600
BC463B30
3E3AB33A
BD9E7206
BE27D57B
BDFBF92C
BE421FA9
3D6FF254
BD946E5D
3DCCB73B
BD4F1FC7
3E01DBF6
3DA2A45D
BC97EA03
3C88C5A8
3E00E871
3D0AF936
BE0EE48B
BD7AA6C1
BD16AC85
3DF5A30F
BDF88EFD
3D9B003D
3E3A1A64
BDBE9B90
3DAAD9E5
3DAFE2CE
3C0F0640
3D829606
3DB052A6
BDF34178
3BDA874F
3DCB4DBC
3DEB587A
BDA8476D
3D57327C
3CDCD0D8
BE1BEDA4
BDFC38B0
BDC03283
BDC2F8FB
3E202E55
BD96A6D1
3DEC1189
3E1C7CF5
BDC56707
BE486B81
BCF7926C
BDAE5BC7
3DE5D496
BDB85C63
3E0F585C
BE5B48FC
3DED9D47
BDC208C8
3DFF4C4B
3B65B13F
BC66D434
3E63A769
3DB79E25
BED1AF30
3DC2E3F6
3DF08DFD
BE3913F6
3EE1222D
3E296783
3DE9F97E
BD4342DD
3DB4A68B
BC7CA055
3DD21CF3
3E8A0D0C
3CE654A2
BDB74798
3CA3F476
BE540E2C
BE1B95F4
BE0F8C03
BE48BF21
3F162C16
BE6116F6
BF173C90
BD185604
BC23438C
BE85AE40
BCD0C306
3D281DE9
BE5890CE
3EAACC52
BD1FC1B3
BD0A6A8D
BDC3F4F3
3E0EE85E
BD678BA7
BE670E22
3E887F80
BDB542F6
3DE0AD39
3ED660DD
3E4CCD7C
BDD9B6F6
BD898E7A
BF0352E3
BEBAC0DD
BEA11698
BD60B14C
3E2F0A54
3EDB5E26
3E762AB5
BE4BB953
BE26088C
BE55562A
3CF7FC1F
BEE6248D
3E5FB58C
3DE79898
3DEF09EC
3CD010A2
3E649E0A
BCEA407C
BE5EC36A
3BD9CC62
3D443B79
BD9C476A
BE68C773
BEE5EE7D
BDDEADD0
BE88A937
BE9BD979
BD8F56A0
BF10FA97
3DEAEBD3
BC92AB18
BD112003
3E3742DE
BE3BB13D
BE024E28
BE54CF35
3CB5E72D
BDF5AD91
3D2834CB
BDC5CC4A
3DF78463
BE96649A
BD6C50F2
BE15EE7C
3CB7C71A
BDCCB42A
BE944DF8
BDAF572A
BE0D19BF
3DE1B739
3D232C74
3D12FB0A
3F041DB3
BEF64488
BE24C693
BE3C560E
BE811DF1
BDA7F954
3E24E5AC
BE98D498
BDAD3CC0
BE23FF0F
3EDA5E87
BE6D9FE8
BE0CA990
3D92A14C
3DF2CD33
BEC3BB71
3D912ACF
BE213727
BD7E6298
3E0F0272
3DDE0106
3DB7CBDA
3EC4B409
3E3337CC
BEA8BE85
3CA4D8FB
BEB8379A
BF041DE5
3CEF0375
3DAB8A97
BE110D60
3E7A653E
BE3BECDD
3EB34CCB
BE94D378
BDEC4647
3E338309
3D96AD3A
BE747E09
3E231315
3D51FF10
3D720FE5
BD235FE6
BC11A7EF
3F05FFBE
3EAC28DF
BE6E79D0
BD5E43AD
3E03B2F4
BDF32645
3EA983A7
3DA560B7
3DEB2258
3D6CDFF9
BD87320C
3BCA5953
BDED1A74
BDB6ACB5
3E9DE3C4
BDEC9C29
3EABB45A
3E071A94
BE412D74
3D946F4A
BE15A477
3DD745CD
3E10DA4A
BE2E3F48
3D45D02B
3AB4E7FD
BDC1DB17
3E1AA564
3E18D7D8
3D16ACB9
3DBB87B9
3C9241BB
BDBEEA5F
3D0ACB2B
3DEBEC78
3BB4002D
3E092C5D
3E3762C8
BE3CA724
BD729910
3DF44757
BDCAF9C9
BD906F5F
3CE2C53F
BD351418
BE438AA4
3D5DB034
BE1A9C82
3D67FA59
3E0EE7D3
BCEF65DC
3DA9BFD3
3DD6BF30
BDBCA069
3B92F467
BC173DCA
3C8CBB20
3DFDD12E
3E1A89EC
BD402633
BE1BEB55
BD02EB0E
3E1C6115
3D751FB3
3B969747
3E1BA5F7
BD9DB108
3E1786AD
BCF45868
BE1179B1
BC87F02A
BE0B2863
BD9CF397
BDD72022
BC9E05F5
BDBF6328
3D8A482E
3DCF15A0
BCEF07C9
BD9FEA4C
BD5B71BC
BE21A11C
3D2A3628
3D6CE720
3E5803CA
3D95ECD0
3DD776DB
BDAE331A
3DB21082
3DE5A1E6
3CABFACD
BDE6E36D
BDA15B04
BE164195
3DBACE12
3BF4458A
3DCF0D7A
3E2A1088
BE02D578
3DB5D424
3E21A066
3DDED6FF
3E000D20
3E24EB8A
BCCCB258
3E355BCA
3D961CD1
BE2DC278
3DE3B474
3D0CA649
BDB6629E
3D8B2FBE
3D915FC4
BDDA49F5
BDDE9896
3DF026AA
3D8AB6FA
BDDAFBFD
3DF334C4
BD80060F
3DB46B8B
3E0A0DB1
3E007C0D
3CCEEFA8
BD6D99A8
BD98E3AA
BDC562D0
BE1F9C21
BD67AE81
BCF13EA0
BE053BAE
BD8C9EF4
BDD79241
BE117C4D
3D825143
3DFA86C6
3E081E3F
BDC16628
BD547117
397B29E7
BD5BC244
3E07CF20
3DF2CB2B
3DC17547
BCBF5D99
3D9F3736
3D258A5C
3D3C6298
3DF56B9A
BE02ADFE
BE1D91B6
BD885B2E
BC703820
BDBB905F
3D6F5653
BDB25560
BD458928
BDC054D0
3D43742F
BD9B6464
3E0D9CEB
BE0756FE
BDD31858
3D97C590
BD7503AE
BDC348D8
3E18CED3
BDE393DE
3DCA5C95
BDD7CED6
BD69CF89
3DDE8DD9
BE087A44
3D516EE0
3DA6F1C6
3E2545A9
3E169547
BD80BA99
BCF3A833
BD950692
3E014CA5
BD02815A
BDE1FFE2
BDFFFE65
BE15583C
3E00BD5A
BE06B368
BE253CC1
3D4A55E4
3DE05998
BC98950C
3BBB7CC4
BE171AD6
BDDE8CD6
3B2DF2C0
BE1AE790
3DF5543D
3E2CBC87
3D442364
BDEE0CDD
3E1C1416
BD957148
BDDAA7B8
3C911A89
3E0EE05C
3DC1A794
BDB386EF
3D843DA4
3C79CF86
BD98A270
BCD22788
3BDEA865
BDF0BE97
3E035E0F
BCE0EE58
BE3B0B60
3E1A5D96
3E08104E
3D6DF48D
BC71872E
3DBDB6E3
BDDD7D3D
BDC8DFC8
3C90D824
BDFA6D6E
3CC9474D
BD47FFF5
BCE4EB9C
BD4D9639
3D19DE40
BCC1A5E6
3E5769C0
BD674974
3DC972B3
3C89E229
BDA6B83F
3DD63819
BE0D9CB8
3E186A0F
BC94B75C
3CFB46BA
3D3A52BF
3E27E275
BD0D07C2
3C541E7E
BC187714
BD4B50A1
BCDE49F8
BDA78482
3C2D12B0
BE1D50F4
3C6B23D4
3D82EC47
BDEAAE7D
BE124DB4
3D892A93
BE219D58
3DEA09EE
BDDCF071
BE0393D2
3DAFB7B8
3DA629E7
BDF73A48
BE44113D
3E333831
BD849370
BDEAC646
3DFDC2D6
BCEE2212
3B3C5CE6
3DEE99CB
3EA1A6FB
BE2EB813
3D27435D
BC41ED92
3EA8966D
BDC55A1A
BE87838E
3D90418A
3E1D99FD
BB3DD451
BD9CD1DD
BE3801A7
BD6155DC
BE037F08
BE22ACAE
3E2C0CCA
BD8E9255
BC0DB378
BE1E79D5
BE1A350F
BD03CA88
3DC4AFA7
BE435DC7
BDFE2C97
3E1F44D0
3E7310B9
BD94A342
3E046FEC
3DADCC77
BCA6CB36
3D1CA2C0
BD716DF4
BE04A66A
BDBC9564
3C2A4C4D
3E47DAE8
3DC9607E
3C71EFEA
BD24F352
BE2B3DC8
3DBE52D5
BDA7E882
3D8EED40
3E8267D3
3E40DBA8
BCF067E0
3E72C441
BDA9C9B3
3D57A682
BDF38AB6
BD9BE605
BDFE0D07
BE91D4BE
3B20BD99
3E95DB55
BE92E969
3E2FA3CB
3CB37DFB
3D160F15
BDCC8431
BDC3FEE9
3D267C54
BDF34879
BDA47B95
3CC19734
3DFA91BC
BEAF200B
3DEAA932
BE219A9F
3D535705
3C26FD15
3E1ABC2D
3C12067A
BE0F9B2A
BD8F10A8
3E82A4E7
3E241434
3DAA70E2
3E13757A
BE48910C
BE178790
BDFEEC1A
BDADFEF8
BDD359A7
BD80998D
3E0B59A4
3E39C929
3DC00B8C
3E89CA4E
3E1BB8AD
BDD8DAB1
3E00207F
3DF0CB11
3AD31860
3E092104
3E03A2CF
3CD85608
3CA45C87
BD42BA97
BC9361E5
BDB359E5
3E117310
3DC6F010
3E158A16
3D3DFC79
3C999DC4
3D840F74
BB35C240
3C0778CA
BDC91EB8
3DF73D5E
BD9AE225
3DF4BF4E
3DFBD53F
3D6102C2
3DB68999
3DAE7AC0
3E3462C4
3D885D3D
BDFC62C7
3D15C65A
BDBF54A6
3C5E176A
BD4A3DA1
3B2405C0
BD23AD36
BE213D78
3DCF179F
BC9710A6
BDF809E3
3DAD26AB
BE23BC1D
3E408FB6
BDFBFDAB
BDB91A01
BC22B213
3A69D1C7
3DD67977
3DCF5A38
BABE42A6
BE3AAAF5
3D9559FE
3DC530D5
3E247936
BC91E631
BCE5F548
3CD6D87B
BDCDE8B9
BE0FD209
3D815247
BD9398C3
3E2E7D2C
BE0F42F5
3DB4FD1F
BC2D8DA0
BD6200B6
3D3387C6
3D673B43
BD5E9397
3DD0051B
3E0AE5FB
3D3AE244
BDF1B564
3E36F9E9
BCAF9408
BDF03741
BD14389B
3D313B36
BE349535
BE8EE8AB
BD272126
3E2E9CBA
B9203DF3
BD9C5AC1
3EB682E0
BE111990
BD7E86C3
BEC83C1B
3D81713D
3EBBF2D5
BD0DEF53
3E9FFFF9
3CE33679
BED9A71B
3D1DBA71
BDD6AA40
BD6EFCBB
3D0EDFA3
BE2DCE5F
BEEF0269
3E9CC4C0
BE04EC88
BD9904A2
3E1736C5
3D40CD17
BE8E0D4F
3F04110F
3D6C0868
3CBC620D
BDFEE3A0
3E56E3CA
BE664F8A
BE0962C7
BDCE2603
3DEFCD92
BD95604D
3D986B31
BE819FBA
BDFB3C05
3E9C85DF
BE650DBD
3E38C3C7
BE81FED1
BE770922
3DA07CFE
3D6B5D6E
3D943830
3F0B9A66
BED6840C
BE91516D
3E854A5A
3CC71342
3DC4FC76
3EB4C1CF
3EC5161D
BD9B80D5
BCFA262F
3E2AB16C
BCEACE5C
3D4BD45B
BD35DA93
BDA7EEB8
3DB2D6DF
BE16AAA6
BD8AE171
3E8D8148
BEF328E9
3DBB7395
BE0E6335
BE8B2F23
3E2478CA
3E4480E8
3EB7EFD4
BE1C98D8
BD6EA411
BE204F4B
3E1F5E67
BE83D883
3D521AFE
BE2EED4F
BED910C1
3DD50162
BE8CD1C1
3E1FA70C
3DE07D55
BE8201AC
3E16326D
3DEE9099
3E2F10C5
BE83C2DF
3E18E516
3E2640D5
3E2D805F
BE0E5908
BE1E9CFE
3E9881F0
3DA34B9D
BED0AE96
3F0D3A9E
BEA7DA52
BD66A3E2
BCAE6813
3E3A1BB9
BE065BEB
BE1E7C07
BDF392EF
BD907EB8
3E8666A0
BDB3D72D
BE2113CB
BD2B8D2B
3DFA4D9F
3E92431B
BD50233E
BEAA2E8B
3D7C5F5C
BE46DAED
3E4036A9
BDF32379
3E0BD066
BE092BE3
3DA072A7
BC89C8BD
BD9487CE
BE35575E
BE4E67CB
3DEC1F79
BE7F336B
3E9FFE20
BD2AD49D
BD1F4268
3C41870C
3E64ACCC
3DF2DD7F
3D60E47C
3DB0FC43
BEC014FD
3E0BA649
3DB3BCC8
3E2DF604
BCD837D5
3E8E4569
3D2DBC2D
BE1A3620
3D99A2C6
BDF76A75
3EB09F45
3DA8E4AE
3E802BC0
3DA344B5
BDE6CEA3
3EA4F0F9
3CF44C70
BE1B7446
BE204236
3C704FDD
3E67566D
BE48B81F
BEC93E0F
BD15807B
BE72C55E
3DA588E4
BEA0B3C4
BE06F654
3D9260E6
BD4BD028
3E4D026A
3EAD45ED
BD6D69B4
BE52AD7A
BE767673
3D99C144
BDACFE08
BE0C32FC
BDA1EDE7
B8E9F011
BEF8382A
BEFACAF7
BE0A9830
BDD78793
BE5EEADE
BCA8EA1B
3D9B1F97
3E2CA03C
BDCCD3C8
BE058691
BEA4EF83
3F161B11
BD907BF6
BC2D53C8
3D18BBB8
BD407C68
BD124492
BD8377F1
BE5463A8
BE4C82C7
3EFD16DF
3D77541F
BE5CC64D
3D7D0CDE
BD7286DF
3DE537B4
3D21DA00
BE2F528C
BE0EFDA5
BCD9F9AC
BCAC8A72
3E17CB1F
BE209DA1
3DC0D892
3EC83BB1
BE8D0C7C
3E2CA71D
3DB667A0
BF1C7B45
3E54605B
3CDE8DA6
3D59DDCE
3E3D0DF6
BE8FCA7D
3CBD45F1
BEA4B788
3E071CF1
BEA1B46D
3E82E08E
3E452E2D
3E9E74B2
3B897D00
BE126B7A
BDF5A744
3E8763B2
3EB41B89
BE5E6CDE
BE10C689
3D2BDD70
3E4D9BE8
BC57CB7D
3EA5175E
BD459A58
3DBD1D54
BDE74E7E
BBE7C56C
BD7293EF
BCED7809
BC98C7DA
3E65CDC2
3E24D9F1
3D60BC4E
3E42CA9D
BE054986
3D9E0BA6
BDF3D762
BDE47E1F
BE104CD1
BDEE2AF6
3D106504
3DA444CF
3DF8476E
BD8F55E7
BE20FE98
BE1F56CF
3A9F031F
BD83E8B7
BE095093
3D35C51F
BD4B77CE
3DC7D8B8
3E0C31BF
3DE0FC4E
3DE71C7A
BD941916
BDE99B09
BD45F956
3CACF6E0
3E239B29
BDB30E81
BD2A189C
3CA24778
BB5EEB40
BE0BAF89
3D61F568
BE4A2C49
BDD48824
BDCC4CC9
B93D2000
BE0C3376
BE125E6E
3CFA2640
3DDF68A6
BD9EFC7E
BD08AE38
BD3C3C1F
BE2F0D86
3DF31436
3DD4F309
BD7895CE
3DB0B89E
BD8B5A62
BDB64C9F
BDE89BD3
BE1D3A8E
3E1FE273
BD1AB860
3A8C1C8E
BE024EDD
3CA500F8
BDED6296
3D05A325
BDB2F282
3CA03090
3DE330DE
3B921980
BC1332E0
BE136654
BE1A52A9
BD45A76A
BD932B48
3C458890
BD966DD6
3DB876E4
BD595B30
3DC35BF2
BDC63BEE
3E0C6CE0
3D458E3D
BC2AB150
BB8B4CC0
BD1B25F4
BD69E6A1
BDF4B574
BDEBDEEC
3B9D3800
BD31D23C
BE2955C3
3D945DD6
BD1F8D77
BD9B574D
3D21C222
3DF72B24
BCF9F757
BE1E3CE4
BE1AE49E
BDE9BCA1
BB1F8928
3D86A966
3C7A6205
3D5CC5B9
BD150B09
3E2EE8AF
3D0C37D9
3E04CF25
3DE2526B
BDBD44C1
BCF57BA0
3DD3C67D
BDC7B793
3AF67C32
BDCFF6BF
BD03A461
BE21D7ED
BCFC7B0A
BE17CDC9
3E7B43C3
3D9A8E00
3E4801E8
3DCD4C05
3D38FBBB
BBFC3A36
3D4E81CA
3E67DE4E
3D98522F
BD546596
3D03A8BF
3DBEF866
BCB5553D
BE20AEAA
BE1DB9E2
BD0E76F5
3E035265
BD64FEEE
BE1C5842
BE52D111
BE09FB47
3D693FDC
3D86EF4B
BD70CC18
BDA3E69D
BDA9AC5B
3DB8B703
3C7615AB
BCB2BEA5
3E839C35
BE0FDD77
BCE579F8
BE42AEEC
3D3D2F8F
BDE1F575
3CD3D98B
BDF43F5E
BE0C2416
3E4610AD
BE56B011
BD7E69A5
BE097E90
BDE9AF5C
3DFEDDD0
3D2155E1
3DB0E36F
3E369876
BDFB9956
BD2677AE
BE3E0CF7
3D47DB1C
BC77D4B8
3D56EB91
BB244938
3D999E55
3E10FD3F
3E5B2E76
3D814E7C
BE9FE20E
BD8A3CEB
3D3E82AE
3C967D4F
3D0FABDA
BD3AA914
3CDB2FE4
3E18E455
3DAA430B
3EAAF69E
3C490C75
3F2C5B8C
BE31B466
BE787EFF
3E1191E6
BE9425BB
3D35F010
BE05E521
BDCA76FC
3E050012
BD882FCB
3D1F300B
3C788DE0
BE43D469
BE5078EB
BD8BC463
3E774774
BE3B71C5
3C5B3F8F
3E9FF471
BE2DF72F
BDDEC6F0
BE1BB01A
3DF1C7FE
3C9D8D95
3D62F231
BE4E6BBF
BD9D36C9
BE5A91CE
3D806A89
BD9F21ED
BEA3158E
BD90D243
BE0168DE
3CBFEBC0
BE131681
BE3FFAAF
3E1FFF0D
3DE62503
3D577428
3D1CEFBE
3E101D5A
BE1F1563
3BCF7A72
3E951B5E
3EB1DEA4
3E294136
3E8424D6
3CA33DAC
BE25A417
BE0D816B
BDED274C
BE205075
3EB4AF21
3EB92828
BD01C647
3D5C7296
3EF66BCF
BD938645
BE285345
3EADBFCB
BD317221
3ED0109A
BD801C62
BE5D74D9
3C6B8A76
3E308B3D
BE07052E
BEF55CBF
3EC1CD90
3D3D6C62
BE3D0770
BD920F19
3C6AB070
BDEE5B81
BDB164A1
3D8D89B5
BDF488CE
BE0CDA18
BD6C89E0
3D773190
3E0E76DE
3E2BA6C8
3E196CD8
BD071268
BDA58E52
3B29B916
3CC68F4D
BDF94E28
BE19FB85
3DF0EDA8
BB89AA03
BBE2BAA0
3DA51FF4
3C544160
BDB6E8E7
BDFE1B6D
BCA2D170
BE2BE909
BDDE345E
3D3A33EE
3E062053
3E0BADA3
BE1E6C6B
3DE83579
3DC7ED6C
3DC9AE67
3C132A50
3D104E8F
3E194017
3D41AD56
BDD87642
3E239344
BE18A896
3D7532D2
3D9B816C
BE1582AC
BD19CD80
3E0E682C
3E117653
BCD375DD
3CC05E98
3DF4107B
3D3EF00F
3E189500
BDE622BF
3E0FBEBB
3D570C22
BD3BD51A
BDEC73F0
3D05B699
BC353ABB
3E151CAD
BDBBC327
BDA0E2AF
BCDA3D3F
BD12E41C
3DF9CA4A
BDAE7C61
3C3F0680
3DFA8849
3E10C659
BDE8F602
3D08EE38
3DD10541
3DD9B72C
3D1E2B08
BC656A3E
BE2B117E
BDC6FD2B
3DD8E1C3
BD47C656
BE0F181E
BDB3AE29
BE012410
BE27BDA9
BE2754C3
3D3F1496
3D5B4060
3EC98D3B
3E0C43D0
BD3F393B
3DA0CF3C
BC5F325A
3D108112
BEA20E8B
3C957DE6
3DF6BEE3
BE093CCA
BE09F1CA
3EB48532
BEC61747
3E567C84
3CDBEFB5
BD7A77EF
3EC70EC5
BD4EBF24
BE4CBE95
3E3B178F
3D8FAAD5
3DA072C7
3E344822
BD5ED5A4
3CE12DAA
BEA8D0BC
3D287F6C
3E3DF9A9
BE6304FC
BD5F50AC
BBFD82ED
3D37BB19
BD18E075
BDCE0664
3EBC3EF0
3DABAD28
BC90696B
BDDB3949
3D5FE840
3DC5A797
BDFAE706
BD09A9B1
BE028BFA
3AD2087A
3D56E62E
BD520444
BDD9AA3B
BE1B8B1B
BE4C2E8A
BDBBBA9B
BC45FE9E
BA7E45A0
BD878F4C
3D98E256
BE5B6484
BF0F0EE4
BE5C63E1
3ECCB5AC
BE595B6D
BC8AD0E8
BDD37E4B
3EDEAD62
BE8EC80C
3C8726E5
BB938BF1
BD536DCE
3C167A7B
BD9E74A4
3E2CA3F5
BEDEB156
3E4A2097
BD38B00E
3DAD8E4A
3DC5495E
BE304BE6
BCE59FC7
3EBF9DD6
3DD254FA
BE2E5807
3E44F110
BD9258C9
BD6927D5
3D04245A
3D9718B9
BD767847
3DC802A5
3D22DF06
BD44D2E5
BE337A1F
BB7FD82E
BE368685
3E289399
3D93AA49
BD79358A
BCD91497
3DE28906
3E104A4C
BE2A1F60
BC3C8D07
BDE53D97
BD6BB70E
BDF6FF28
BE042D9F
BD061523
BDF55C92
3D951385
3E4751BE
BDD14AB7
BD83ED2B
3E42F116
3B27A94E
3D5527E7
BE225E11
3D14EB36
BD87B7C8
BC7D1C36
BDDAA722
3E576F00
3CFFA266
3C469978
BDE8933B
BE062B31
3DF59FA1
3C943E14
3DFDF74B
BE1D1850
BE2EF2A0
BDCAA22F
BCD0F2D6
BE2347AF
3CE6DE86
BC3F6297
BE1598BE
BC877FBF
3E363514
BD4C57A1
BD7E9AC7
3E533F21
3D3164CA
3B5CA644
BD2CDE7E
BE83DF03
BDB16CEA
3D9A5184
3DB7CE19
BE299C6C
BCAAE7CC
3DB5548B
BD950496
3D6F5D6F
3C4C19A0
BE13EFFD
BE0CA676
3D035DC8
3DAF2603
3D7FDBDF
3DC65189
BD81D9AA
BD0F24B7
3C62E2A3
3DB6CE69
3DCF252F
3E4D3331
3D3C0813
BD3E28CC
3DA00853
BEB964C8
3D304A50
3E90942D
3DC52FE9
3C955275
3E44C8AD
BD959739
BE503E7C
BE1EEA8E
3E0B140B
3E081910
BD016B6A
3E94772B
3E169EAC
3D30DE06
BD8E7A3F
3E158D02
BE19AEB3
3D93D1DA
3D2A8DD6
3E11DD9B
3E8D1F30
3CB2C47F
3DAD666D
BE8F317C
3D870E89
BDDDE44A
BE04A6A3
3E10697B
BCDDD522
3E4DB3C7
BDD78EC0
BE0BF25A
3D001B63
BD2D88F0
3DEBBF0D
BCF9CDA3
3E3171D7
BCE25C39
BE50C00B
BDE5A960
BCBD35D9
BD21B7E4
3E274679
3CE7E8AD
BE0E253E
BE06911B
3E5857D8
3E5F6373
BDAF3CDF
BE15E644
BD54028F
BDC7EF94
BE9CC810
BE3D6373
BE771A99
BBB9B588
3D258EA2
BE75F59B
3E39E410
3DC013AC
3CAC199F
BD8AE6BC
BEA60B71
BD820D06
3ECFF604
3D1C3626
3D7F6FC4
3EE8EECB
BD1223D5
BE0C77C8
BD7C473B
3CF7CAC5
3E16446E
BEC8B063
BEED03F4
3D78F51D
3E96FAC6
BE441E9E
3E0A1F54
3D886957
3D85FFEB
BD71E7D7
3B6AC2F4
3BC25CF2
BD8436B3
BE578CB0
3DDB5F85
3C97E791
BDB8774F
BC9C75F0
3DEF8A47
3E138630
3C68134E
3DB60BCF
3C274E10
3C700CAA
BD785C4C
3E227425
3E2718BA
3CD1240F
3D66F647
BDD3F8D0
3CF4CF3E
3E12FDEF
BDBB137A
BCC22300
3E173ED6
BE27EE23
BE1E1292
3CE279FD
3D9B8EE9
3E28B8B3
BDD31103
BDF6A9B9
3DA4D1AD
BE0A5184
BDBA73CE
3D5D4C6D
BE499770
BD77A35A
3E29EE70
3D3910DF
BCD49FF5
3DF27F19
BDDB1B6E
BD9C12CD
BCDFE1CE
3D0BCFA6
BDC4C03D
BDCF90AB
3DD8581A
BD83ED39
BC2EAA93
BDE91757
BCB6BE80
3D9F4C2E
BE483018
BCAE5CB1
BE0AABC2
BD052F63
BE038560
3C809D32
BE0D304E
BE0F26D6
BB658FC0
3DEEA08A
3DED5796
BDF7783E
3E1A6BF9
3D24570A
3E27860E
BD261294
3E14E80F
3CD618A7
BDFDCECC
3D84DEB2
BD02DA3C
BDC1CB9C
3E0BE2B7
BD52C92A
BD3BD160
3E0363B4
3DCFBCA4
3DE37C61
3D870566
BE43EBE5
BDBC9440
3CB7B718
3DE185E0
3D8FC70A
3D0866CB
BE1417D5
3E0C8112
3E2DCB54
BDBDDB79
BE0809E1
3E3BBEBA
BD58FD2D
3E0BD841
3DCC9153
3E39A6AD
3D8D64C7
BBA93B98
3DA93346
3DEC38A3
3E2E061E
3DFBF9BC
3D2A726A
BDCDC3FE
BD11A214
3CBFEB75
BD9F2F5D
BD46E232
BC02CD15
3D63D29C
BC8A9F15
BD0924A6
BDD8D07E
3CCE71AA
3DBC4F9B
BDD42D03
BBB55E63
3DEEED7B
BE227823
BD385870
3CF53A3A
BD46E9FB
BB403DAC
3DD5CBCB
BC09BE72
3DE12637
BD0301C9
BCC278BC
3DBF4939
3DD0D5E7
BCF620DB
BC420973
3D67CF35
3E15B9B9
3D2AA6AA
BE5221D4
3D762D38
3D9DA897
BD5D2F35
BD414F5E
BC0B3D17
BE4366E9
BD52DD3C
3D10A916
3DE74A7E
3E03AB12
BD017F16
BDB58786
3E46A327
BE29B437
BDBFB433
BDCD553D
3DCAB2FE
3E14C309
BD9159A0
3D92B19B
BBCF8822
BDAFF035
BE481D7A
3C235370
3E1B91D8
3D365B50
3D7A4F8C
3CD4730B
3E1873BA
3C5CFB29
3E4DF2C7
3E46C229
3EB0EE59
3DD834F8
3CA9E5F1
3E569041
BE2109C9
BE349034
BC498FC5
3E39AD61
BC186BA8
3DB59745
BDAEB1B4
3E9958F1
3D9DB477
3EA0049A
BE50F56B
3D2FF089
3DCA2FE9
BED3DE13
3DC20DE9
3EA56BD0
BDDCFA61
3CBDE344
3DEA1634
BE1ACFAE
BE993184
BEA725E8
BE2B240C
3E498B99
3DCD7EDF
BE161FF7
3BA60BAA
BE5B3870
3E6D2042
3DABE18D
BD96AF74
3D2CF328
3E009161
BE1173FC
3ED44E6D
3D99888E
BDB54370
3D8EFFA3
BE2148DD
3E63D512
BE364188
3E09D34D
3E11261C
BE0E4562
3D8B3F70
3CADCF06
BEC4AF3D
BDD1EEFB
BE43B7EF
BE7DF3C6
BDDD3460
BF054C4D
BDA41FD6
3EB5095B
3D0F2532
BD591FC3
3D8B87B6
BEAACD30
BDE59439
3DFE9786
BE03C784
BD28DCE4
3E337C58
3D9F2A26
3DAD5BA6
BE0D157F
3ECDF8B8
3E78BA19
BE7DAB36
BD93DB74
BE6BFBC0
3E998AC2
3E930548
3EC38A55
BDA7F3B1
3D5235FC
3EA7BBD8
BE1CA699
3E0E062B
BDA9ACC8
3D4A59E2
3E0ECAF5
BD981DFD
3D8A217E
3DE46C72
BDE249D8
BD3CB6E4
BC5C92E9
3E0A3ACA
BAD3CB80
3CFD693F
BE0FE6F2
3E2C76A9
3DCA4993
BDED09CB
3DDCF86A
BE1412EC
3D919150
BE0374E9
3B82B9F5
3DCD921E
3AE45E00
3C346840
3DDB0286
BDDD4E5D
3E0F7B86
BD94A5AC
3DB276D6
BD271732
3CADBE40
BD8B5B8B
BE2D4C48
BE012F0F
BD7073BD
BD916B95
BCCC60C8
BE0DAC54
BD154F64
3D97CAA0
3DC95CFA
BE25D1E8
3DABC970
BE0792FC
3DDB40BD
3D4BD4C4
3CBDA6FD
BE27018E
BCFB3BA8
BE27A45A
BDA07557
BDC9AF3D
BDEFCB36
39D99600
3E06101F
BA330E00
3CB27298
3DBF491A
3DB33992
3DA38CE6
3D2D8870
BCADA808
3D8CD250
BE2AE0F2
BC09ADBD
3CBB1188
3C414E40
BDBAF2F1
BD73AB44
3E2834E7
3D94432A
3DC0131D
BCBAF380
3DE57E36
BD0F3FB8
BDEED232
3D89392C
3DFF7B62
3E3D4B80
3E171237
3DD96F5A
3E08C7EB
BE735F82
3E2690B5
3F1DAFB1
3E19DFFD
BE4A7069
BE6EC432
BEC272AE
BD0103E4
BD2D5EB1
BC09E240
BE8232D9
BEA411BF
BE8BCAD0
BCE21F77
BDAC41DB
3E9A6EF1
BE8397AD
3E75BCFE
3DD94B3E
BE843CBE
BD98DD1F
3EBF60C5
BE57F22C
BE351F8B
BD6F12DA
BE81B64C
3C9CF954
3E3379FD
BEC6200F
BE04CC1C
3DD95F50
3DB5D4BF
3DC85DD6
BE352C4B
BE68887A
BE58A643
3E650E8D
BDDEB4C3
3C88D043
3EDD9CCF
3D770CE9
3E4F21C7
BD9406F2
3EDC3A58
3ED819FB
BD01C118
BE0B44CB
BDA5F64E
3EA6075C
BD34D928
3E2648C7
BEA9B5D8
BE98912C
3D012ECD
3E520240
BE53A601
BE0BD837
BDC01622
BD7CC766
BEBFA019
BE1AB7B6
BDA087B0
BD9AD431
3D28664A
BE50A860
3EBEABD5
BE83405D
BEB1A537
3E91FDE2
BEAEFC1D
BD82F336
3CF25822
3E2F95CF
3E25D95C
BE511D4E
3D077681
BD827F9E
3D722295
3E0BE787
BE8D52E0
3EB20883
BE0985B5
BE7D13CA
3E08DD66
3E2E991B
BD95E221
3D663EFF
BD30E3B6
3CB75FE9
3E0C706C
3D930E2A
3E2F65F9
3D7B9654
BE1D46F8
BDABFF80
BC48AED3
BDC80000
3E43974D
BDA069EC
BE0E81B8
3D83B5A6
BDCB81C6
3E112719
BB978294
BDCF4541
3D265818
BE076CEC
BE062F77
3C40AC00
3CDDF5FA
BD902B02
3C915070
3CE05220
BBBF2EA0
3CB7993B
BD00EC59
3DD8A2E2
3D0765E0
3E19F067
BD6FC5F6
3E241943
3DEC3782
BE1CEE90
BD33A4B4
3DCBA9D6
3D3223D8
3E253BB3
3CE73D10
BE0C84EF
BD9F5304
BE05DA32
BE04559E
3E39FCFC
3CFDE9A8
BBE11131
BE2770CE
3E2F4580
BDAF9A8E
BE012FBF
BE199B1D
3E324677
BD91B2E2
3D9C3438
BDFC0337
BE285217
BDCC352A
3E2F327B
BE1FC08A
BE203BD5
3DFD7335
3D5FEC4C
3DFDDECE
BDE1CFF3
3DA7925D
BDAA3999
3DDA6170
BD40E34A
BE0C4566
BD69D6A2
3D93313E
3DF1F33A
BCE45720
3E1A083C
3C86FEC0
BDDD3889
BDCBF177
3D94F7CC
BD930B66
3E390B9F
3E5F04BB
3C97A85B
3E14267C
3DE4E22B
BDCC2C36
3E094E1A
3E3E4082
BE8070C0
3DB42A6F
3E64BD79
BD9356B9
3DED704E
BE0BD189
BD68A0A2
BDA7DF08
3E718E69
3EB86A05
3D1A75DC
BE4C4E1E
BEB03028
BDC8FC94
3DB373CD
BDE8EBF3
BDEDE32C
3E4CBD67
BD50D598
3D8B30FD
3D8C99A9
3D8F810B
3D7A1AF8
BE512150
BE1BA98D
3CA429AA
BE981E71
BEA3C033
3E54F959
3E2AA437
BD65717C
BDDEE668
3DEC82DA
3E7FB2D8
3DD567D8
3C94847E
3E361E18
3D399DE0
3D973142
BCB01CB5
3DEEE01E
3EAA7DE0
BE6096F4
BBD80411
3E196B92
BE5F1229
3D59AA07
3DE5D969
BC56FC33
BE6FE3B2
3E94FBA0
3E7E0B4D
BD1178AD
3D48DF6C
3D771F20
3D41C964
BE0550D4
3DC81188
BB82D10A
3E346D54
BE388017
3D8556A5
3CB38645
3E926827
3E345CFC
3EAC96B6
3E3834A2
BE492E1C
BECFE528
BE5A2C7A
3DDE2234
BE0769BC
3E1138AD
3DBCAF74
3DC8FDA9
3D2D80ED
BE3C2F0A
3D058A1B
BE205D74
3EB5C922
BDD0B023
BD0DCBA7
3E889480
BD2B8BD1
BEAC5DE2
BEC83044
BE50770C
3E436E4B
3D497D32
BDA3BEEA
3E93B400
BE7B32EC
BBFD9EBC
BDEF5C27
BC1D0755
3EBF9BF3
BE0E027B
BE9157B2
BE168A49
BD296CBA
3D68A886
3E985852
BDC74F07
BDDA2546
BBE3552D
3D723235
BDCA1472
3DE090BB
3BADE38A
BDEC7C01
BE13825D
BC58F297
BD0D34DB
3E39D93C
BE41CB7C
3DEF0CB6
3E085171
3EAD7C03
BD3404EC
BE02134E
BC097109
3C96D691
3E08C095
BDF10EB7
BE9C2A21
3DE8ED42
3A80FDB4
BDF4B855
BD9B7DB2
BC01FAA8
BE40DFBE
BE006D7A
BDE5F279
3D670F1C
BD981657
BE3DEACB
3DF69D09
3DCD2C05
3D9298C6
BE41EA78
3CF00550
BDD58C45
3EA2DB4F
BE191E56
BE1FBF41
BE7E6E52
3E53CA6B
BDE11760
BD5F8FC2
3EB6CBD0
3E7BF22A
BE08C176
3E2FF875
BE4AEF66
3DCFD733
3C870B6A
3E99E15A
BEA8C514
BEB4B7B0
3D2E44E9
BD5B0E34
BE4E79C1
3E27C3AC
3E6BE2BC
B96D943B
BE6365D2
3A893748
BE3EF3D1
BDC6BBE6
BCB1D507
3E719D01
BE1D0407
3D9661DA
3E8284D0
3DCB07C0
BD886237
BE27AFDA
BC949553
BC8B7740
3CE11C21
BDD8C4EF
BED6365E
3EE41AC6
BD892975
BE26D04E
BE689471
BE2A2C44
3DAA4F11
3EC8D73E
BDB39035
3D8E8C1A
BEAF990E
BE3912F3
3BEEA707
BE2D1C4E
3E10D32D
3F037433
BAC13A0D
3E016E0A
3E9A11AF
3C7C615C
3CADC6F4
BDB1CA35
BEAB2F30
BCFD9614
3E02AC57
3E1C95E9
3E49778A
3E57B806
3E5F6E98
3EBAC0D5
BD8858C8
3C4C7D78
BD890442
BEB025AD
3ECB3D9C
3DB1CA2F
BE414613
3E92D4CD
3E2868A9
3C45F9B5
BB4DC6BE
BE00EC33
BE1314C0
3E6CEBB8
BDDB70EC
BE9B76E9
3DBAA50F
3D416802
3E8AE87C
BE498F14
BF00AAA1
BD1816DA
BE3E927E
BD7C5E4D
BEA1BA9E
BEC39D6C
3E9005C5
BE495487
3E8161EB
BE1CE567
BDC8A23B
BCB0B64B
BDA8FB07
3DF5B802
3DF3AC90
BD1AA29F
3D5FE2E7
3E2C1699
3CBE05FA
3E6BD80B
3E154701
3E8A84C4
3E854A6B
3E65F8B6
3E8E4151
BC5AE264
3E526E3D
3D87743A
BE771DCC
3E54E938
BCBCBBD0
3D7067BD
3EB614F9
3E1CA802
BE73C6C1
3EB3310D
3E0B1B6E
3D66B3DF
BD16EDFA
BE21393D
3D4460A7
BE4225C8
3DE5977C
3D718688
BE212A77
BDD1117A
BD5C2D37
BE3C80FB
BDF67DC3
3D8E8737
3D25F751
3BC47D74
3D7B8A0D
BD5D1F54
3D6A463A
BD482225
BE27648E
BB77C0B2
BD6F88B8
BD4E7EB5
3CD3E8B6
3EABE493
3DBE0CC6
BDECCB2C
BDECFFA5
3DDCB120
BE1C477A
BE2E825C
BE8C3136
BE38D5D3
3DF13FA8
BD2A3B42
BE07504C
BDFE7F02
BD78B8F9
BDC5A4BC
3DC6B613
3BC0DF19
BEA267F8
3E8B161A
BE05361A
3C808100
BE0B24F7
BE3339E3
BE675E98
3E8842EA
3D78D0E2
3C3C38CA
3D6AE01F
BE42C0FA
3E2059C5
3DA612E7
3E707F84
BD688123
BE31A9B5
3E55405E
3C90A7B5
3CD0420A
3D8FBAED
3EF73238
3E6E3A45
3DE23A4E
BD9BFD9D
BC5921E9
3D8EE5A9
3EB97E16
3C9BC9ED
3E939DC9
3E37FA07
BC504BCC
BE1D94CF
3E0AA5DB
BEB22805
3E523D0D
3E538871
3DD32B91
3E63055C
3DB2AFF3
BEDE86F3
3EE20A28
3D1762B0
BE315AB5
3D52C8BA
3D2ED641
3C47CEC0
3C868D42
3E0665CB
3D4A069E
BE17316A
BD379387
BE40DF55
3E4EBFD8
3D6C33CF
BD8235C3
BD2A8587
3E8F20F2
3E80DAE2
3B7F1F21
3D0D3F14
3DE89D47
BE4BC721
3EA277E8
3E488946
3E26C487
3D2A7901
3EE9FB37
BDC7D321
3E2618A6
BDC5CDBF
BE00E2BE
3D3A9C88
BE8F9BD9
3C8FF77D
BC865C7C
3E15DE5B
BDE79BA0
3DD4DE14
3D904F53
3D5E7F4E
BE3F363D
3E0D85F0
BEB13CFE
BEF05E4D
3DEC9F5B
BDE09D3E
BDC272E9
3D7508CD
BC2C196A
3E0245EE
3D4AD385
3E428326
BD02E3B7
BE3E94E7
BDD77E3B
3E87194C
BD5C5EA9
3E72D3B6
3E54E21F
BDE51852
3E41D588
BD85E6AA
BE27685A
BB78B8BD
3CFA4550
3E1E417E
BE6790C4
BE815DC2
3E393EC2
3D4554DB
BD49473A
3DB56634
3E65B83B
3DAD252C
BDF8FF65
BDEC4409
3E9F061F
BE88264C
3E792FEE
BD3CFD3C
BE325B68
3E803724
3E0CB5EA
BEC4C8A3
3D269DF1
3E3865F2
3DBCE85C
3EA788DF
BAB49B8D
BE7667CA
BDE62725
BE25F577
3E966700
BEC4DD9F
3E0AEC04
3D78FFCD
BD7A0BA5
BEA2A3E3
BDF530D4
3E916FEB
BDC1DBAB
3D0C1AB9
BD9B8491
3E1EB653
3D886153
BE7559B5
BE53F2AD
BE98C59F
3DE7DB97
BE5142CB
BDFDC093
BE0FFAF1
BD3E264D
3CAC444A
BE050D9E
3E2B0AB3
3E845E56
BE1EE24F
BDD24497
BE1F950D
BE1253F5
BE60CB44
3E12492C
BD73060B
BD9D01C0
BDFC578B
3EB481D9
BEBE3E4D
BD95F014
BE4F4655
BEB1F6B0
3E285511
BDA15890
3E84796E
BEA21DB0
3E60A2B3
BCCF7D8A
3E470813
3E6E1F94
BE318365
BE23D43E
BE67928E
3E6EC432
BE4C9883
BE04D028
BE30A265
BCFA0866
3E7F033F
3EA1B101
BE60E863
3E7516EB
BE4C24F1
3DB3DB83
BCA063E3
3E66B510
3EF228DF
3EF1C614
3CE9BC79
BD2F654C
3EE42669
3D906008
BE870C4D
3E8F9AFC
3D236487
3D8F447A
3D2C5A66
BE052440
3D19CC10
3E4BAE9B
3E3E882D
BCB2F619
3DAB8C5C
BD24E1C0
BDB8A04C
3D2F817B
BD9F3232
3E81EBFE
BE6D2D7D
BD416478
BC00BB89
BDA937CD
3982441D
BE3E35B8
BCFF4C70
3D905CE9
3EF7E4E1
BD9ACC69
BE8136D3
BB22FF66
BEF417A8
3E9C1F9B
3E20BE54
3D9F8338
3E0434D8
3ED7E55C
BEAFB62C
3E435EF9
3E088B48
BF033C8E
3E2DC48A
BF0664CE
3D8FD1BB
3E263B3B
3E99DB40
BD5537A4
3DF6D8BC
BDC1DC44
3D9E3634
BD57F11E
BCBD2DFC
BD7CC5F7
BE4FF85E
3E7095D1
BE7D831E
3E238C8E
BD2DFDD3
BA51FB56
BE858B85
3E453A96
BD706532
BE7E2D9A
BE8EADF4
BE6D5ED6
3D72DDD6
BE91502F
3E65CEFA
BDCE8A3C
BE3CE322
BD2A675E
BE120313
BE302511
3E7BFFEC
BE75DC44
3E94729C
BE9B5E5F
BDE48311
3D839FF1
BE9D31F2
BE6AEA6F
BEBF2B16
3DEA2592
3EBA99DF
3D17613C
3E144C72
3DC7585F
BE98AB67
BDA27C68
BC551962
3DE99C98
3E3EF720
3E4634BC
3D6D0238
BEC1F27F
3D9CB27F
BE1D125A
3E1FB90A
BBEFD3D7
3E8E3125
3DDC0269
3D526999
BCC066DD
3E7C04B6
3DE5CBA8
BD851B43
BDAC56FC
3C5808F7
BE22EF89
3E29F782
3C392EB3
BE9694D7
3D99C5F7
3E94B136
BC90C7F7
3E22BB6E
3E135BD2
3E0C89FF
3D848BC1
3DF235AC
BDBC3234
BE3D25B7
BE4294A9
BB2469B0
B9A6B609
3E3D20FD
3EB7BEC7
3DB3B74C
3DA8D912
3E894B2C
BEB2E2AD
3BD359E7
3E8A832F
3D82FDBE
BDAD9FC8
BE38372A
3DEDF95A
3CAB9220
BD95AE0A
BD8B6C1E
BE9986F0
3DDC0114
BE34639C
3E970413
BDE03FC2
3E04C593
3E261F43
3E126850
3E8968CD
BE907A97
3C1F67C9
3E162931
3DEAC055
3E42996D
3D9FBB0A
BDECFE70
BE51F75C
BE13C96B
3D692A36
BDD4B9C5
BE4DDDA6
3D459593
3D6A7941
BDD4F54F
3DE12618
BE84A6C3
3E823C49
3E27EE96
BDD3D019
3E7FADB3
3E28D445
3C8C0D98
3DFB9F6F
3CEC7A7D
BD8CC8C8
BE6EDE0B
BE3745A0
BE81D2E7
3E948208
3CFF4E17
BDEAD1F4
3E734245
3D231DB9
BECF4C89
3E794242
BE17E494
3E84F8A4
BEC82269
3DAABCF8
BD937CB9
BE63E859
BE0C9326
3E86B672
BE866195
3C9926C9
3B4C0562
BE194D78
3CCDD8C3
BE4C937A
BDE86976
3DCD459C
3E2A72EE
3E860B39
3E8ECBA8
3EBA69CF
BD9AF572
3E810C75
BD84937B
BE9C412D
BCB2FFD7
BEB2136C
3E29550A
3EF003D9
BDCC6CF4
3EA2389E
3EACAB31
3D6D01F7
BDF6656F
BE14EA55
BE06B9E9
BEBA2B40
3D51FD0D
BEABDE71
3D872017
3D73A6F6
3CFD7519
3A2FFE34
BEC50672
3C8C5B5F
BD97F473
3C2CA69C
3E0E4260
3C636B38
3DC75F2B
BDB43A7F
BEB9D025
BDD144A9
BEAA21E1
BEC0D6E3
BDE9CB5D
BDF2C3E7
BE804C5A
BD6DAF39
3EEA1799
BD8B6D50
BDFF96EC
3DA156AF
3CECE555
BE58CFD1
BF17849F
BE19F83B
3EF43D49
BE0CE743
3E417C84
3E855931
3E334059
BE82F290
3DB9E518
BE2B0CB4
3EB65A65
BDCEFB64
BDFE35F3
3E445068
3E393FF2
BD882F0F
BE9B4AC8
3D527E01
3E62A443
3EC2FAEF
BD637E5A
BE1AE2DF
3E49AE9E
3E7B79E9
BE068081
BCB177E6
BE8D73C7
3EC97E23
3C00791C
3E3C15D1
BE02C3F9
3DC49C4E
BC92003E
BCF210C0
BE9C99DA
BD212F81
3EA8B0A7
BE307290
BDAC1D80
B99B5D6D
3F0DBECB
BE1E3B86
3CB7F4BD
3EA582E8
3EC9DD27
3CDEE900
3DACDDDA
3DDD886A
3D9A76AC
3E1D3F8A
3D2FADBB
BD4C50AA
3D44454A
BDE4886F
BE5C964F
BE25584C
3E3D6C2E
3E5FAF21
BE9B6745
BDF77BA0
3C020167
BE270F01
BE990743
BD3193C2
3D1D1F9F
3E528C82
BDCB5DFF
BDA74F67
3E76872E
3E2EB384
BD1750EB
3E4C2F3C
3E0EA4E9
BE8EF9D1
BDFB4743
BB5B1FB0
BDA7CF6E
BDB81380
BDC57660
BDE1DC98
BE2A75E4
3E3B7A43
3D1D73E0
BD2E2489
3DB6A78E
3DAA6588
BDF7B0C2
BE097584
BDFF2E08
BD9EE52E
3DDE5C42
BD6C3883
3D798725
3C1CCE86
3E15CDDC
BE24937D
3DEEC50C
3E0BCEAB
BE24B731
BD272637
BC2B495E
3D106AD8
3DDF100F
BC5C20F3
BD92F26B
BDE81C5E
BE23B88A
3E01BD6C
BC55EF63
3DF68C18
3DB0EA05
BD414CCB
BDC0444F
3D858CBA
BDDEC167
BDD62A9B
3D7790EE
BD8A357A
BDA3CCC9
BBDC238B
BC4BFDA8
BC8321E6
BDE3200C
BE279B3E
BDD138A8
BDCE566E
3D189B68
3DC9A380
3E04C044
BD87125C
BE2443F3
3E1C6990
3E17888C
BE2409B0
3D7A9C3C
BDF87A01
3E124271
BE2B638F
3E2F1A4D
BE2A10AC
3DDE9A1A
BDA202B7
BDF6BD6B
BDEE2602
3CED6E79
BE1B98DF
3E1ED993
BDB105CF
BE148501
BD19BDF5
3D3982B0
3D3EC9B0
BDA65E8F
BD5F4A97
BCDDE838
BDBDA35E
BCD83827
BDD3B186
BE0BFA41
BE210812
3DB60E47
3DE1F2EE
3CB0F017
3DD454F7
BDEE41DE
3D47C1D0
3D84C299
3DEF95B8
3E794954
3E51A7CC
BE0ABCB9
BE41A494
3E8323C2
3CB8681A
BE5C25F0
3E5E1E6B
BE2D6654
BAE491B8
BE1C249D
BE68364D
3D1DF72C
3DA983D8
BDCC8AD0
BE959F75
BDEB1E06
BE0713E3
BE4D77EF
BE8F20A3
BE212DDC
3E3486B3
3E08AFB2
BE8740FA
BE13F42A
BE0BFFB8
3EAAF055
BD134E96
3E8D97C3
3CA60AB7
3E6F3239
3E733225
3E134357
3A2C8BA8
BEC9F134
3E8992EE
BEB53B89
BD878544
BC9BAB1D
BE995440
BDD32227
BC1A5B21
3E7D41B8
BD90F68A
BDA0A931
BEA2F2D6
3B7B56FC
BE5672B7
3C64CBC0
BEEC1923
BC07C8B6
3DCD4B1A
BD5F7CA3
BE06BCA3
BCDA1166
BE31F044
3DCE167A
3CB785D0
3DC25693
BDEDCA67
3C872C3F
BE0D158E
3DCD6811
BCD730BD
3E63CF18
3D1F196D
BDA3426F
BE11B76D
3CED0608
3E4CD75E
3E317357
BE01B98F
3CC3E860
BD4468C5
3D9F0C1D
3E13AAB9
3E4E488A
3CF41D49
BD536568
3CD7534B
BD5C2590
3D69E75C
3DFBDEC9
BE28703D
BD9F9907
BE215CF3
3E81A59D
BD9109DD
BB667685
BE064642
3CF82B60
BE5234FD
3B185B20
BE97F609
BD67A1B3
3E718823
3E7F83EE
BDFB2CBA
BE40E9D3
3D5D44A5
BD03F9F2
BE736F32
3E19404A
3DCC9E71
BD2DB1BB
BDF56449
3DF79FA5
3C2A4E59
3E0F5DEA
3E08B6A8
3E3F250F
BAB85C36
BE6F9F8A
BE153E05
BC821FCB
BE5A69DC
3D0BB91C
BE08B412
3E751649
BE85C16B
3E81B56A
BE67E617
3D9277F1
3E8A32D6
BD65EA75
BEAEA6A6
BE6A558D
3DF2EF4A
3ECC1655
3E26822B
3DA4BE16
3D98B335
3D2CF2C9
3E1A4474
3C540B5D
3D9B1480
BDB93AD6
BE2CA3A3
BDA8814E
3E285D43
3D45CB19
3B41A31F
3E3FA545
BE195D6F
BE96F076
BDEE37DA
3DD03A70
3DE39BAF
BE557BDB
3DD1F44D
3E058F46
3DE84A21
3E2B60AE
BD9F8A5D
3DE8D6B8
BD1C8BFB
3E0A67D5
3E4288D6
3C741570
BE96D4DC
BDCE2337
3E33B1A2
BD24CD55
3E4C3B3F
3D5C1988
BD034D2B
3DADF833
3DF37630
3E7D4FB8
3DA1DEC1
BE10ED65
BE6DC8AE
3E181F9E
3D767670
3CD79944
BE4F21DB
3E123C57
3CC4DA7B
3DC47544
3DB8AD05
3CB9EA66
3E466EA5
3D326675
BE0F6943
BEF781BA
BC3F2050
3D87B04F
3E9A8E51
3D3A7CAB
3E63F506
BDDC6E8C
3D25D420
BC6948C6
BE049ED3
3E999F87
3E83FC07
BE300AD1
3E784F35
3EA970DC
3D668F7D
BEDB7C38
BE2F539A
BD896EDD
3E9823C5
3E6BE427
BE0B3A97
3E8666B0
3EC95426
3E13139F
3D26B1D3
BD73ED4C
3D9F0889
3E6FA18F
BED14146
3EEC5F50
BD97EA0B
3A47CAA8
3E60E4E3
3DA42B47
3E43A813
BE2C483D
BE06B0F5
BCF942AC
3E8FBEB9
3DA0CB45
BCFBA544
BE20D2E3
BDBFB47A
3E1C287E
BDBDB4C4
BE0167EA
3E96E697
BEF1F5CE
BE8EE0E6
BEA26A49
BED081DE
3DC7701D
BE3BBED3
3E8FAC21
BEBCFA8B
3E7E5557
3D34ED23
BF0239CB
BDEE6A85
BDC22DC0
BEDCFD16
3E51745E
3D1C7464
BD421E2F
BE6ED67D
BD6E5471
3E526E89
3CE54B5E
BEB08F23
BD460B3C
3D4A6B8A
3E8F898A
BCD21E94
3E6A968B
BE3AE4EF
3E5296F4
3AA7248E
BD42B720
3D9DF1BC
3EE763F8
BD7DCA75
3E312A59
3CDF14B4
BEAB0D23
BD889811
3E968581
3C3300AE
3C9CD2D1
BE9A2556
3EFD9324
3E2D826A
BE7C1363
3E262326
BCE3F9C2
BEAAAB14
BE07CC6C
3E3E7EDF
3D90A203
BDC4F2F7
3E077FF0
BC643FF2
3C0EAD5B
3D0B74DE
BD3C6D01
BEFEAEED
BCC5D1A4
BE1E44B9
3E1306A8
BE443C70
3EACBCCD
3E372BF9
3D30C5FA
3E942F0D
3D14D77D
3DE0EEF1
3ED06897
BDC70401
BB5A2B83
3DA77B12
BC7D2090
BE02EBA3
3DF8A198
3CBEFF65
3EA7DF4E
3E454EE8
BD3217A9
BD8C27F6
3E6BD6CF
BDD02A7E
BE2A73A9
3E4BC517
BD7CD245
BCCF3461
3E8AE46C
3A71E1F3
3CE3D433
3E56FE4F
BDEAA9DC
BE1BA590
3E81C32D
BE31322D
3DA49520
3EC0F8C6
3E2357F0
BE6927A2
BE05380F
BDB9C981
3D3F275B
3E676168
3CFD333A
BE98AE21
3EAFA25E
3DE32219
3CDBA687
3D61468B
BE8E6B34
3DC45257
3D2346D8
BD6F39A2
BD51B4E1
BCBDE5F3
3E775FC8
3EF256F5
3E93D8A2
BC13B4B5
BE1E74E0
BAEE5901
3E3003ED
3D68D3E9
3EE11085
BE803F85
BDE9E623
3D46DF4E
BE4B62F0
3E256BA6
3E168BF0
BDF0AF6C
BCB9971A
BEB6DBE8
3E7BD2B6
BC72EE65
3E696DE5
BE5D18E8
BE6E74AD
BDCFF64B
3E963ED4
BEC9C3E7
BE4964FD
BE42DF3A
3EC93AD2
BE042D50
3E25DF26
BE65B109
BE023417
3E847267
3E07906E
BC7430AE
3E9B940C
BE2CB8C3
3DC64D3C
BD7076A7
BEA7D555
3EA79A8A
BD991240
BB85AC5C
BD033419
3E94DC0E
BE8B047E
3E1CBA23
3E0A06EF
3E2BED39
BDADF129
BC9DCB19
3E9DE746
BEDABF3D
3DCD1176
BED60227
39D3612B
3E99B87F
BE417D6E
BEB9CC3A
3E415974
3D1B32F2
3E0F9813
3F053AC0
BE59FF05
3DC74C2F
BAB78CD1
3E408E70
3E2EE313
3EA0A9F1
3DA1E2D5
3EC6199E
BE430C9F
BE807962
BDC08A1B
3E8380D5
3EC02180
BD9F7E85
3E9D2661
3E2825E4
BE5D2DB8
BDBBA52D
BDD97438
BD5AB50B
3EB5BB56
BE29076C
3D6D3C8C
3EF28D97
BE05FCB7
BD26A60B
BE2354C6
BE292027
BE935F18
BD454E73
3DC885BE
BE7781C6
3DA8CC82
BDE7DE55
3E173C1C
3D67778F
BD203CA5
3EA0EFF9
3D09E1D7
BE08D8EF
3C629EC9
3DA332F5
3EA4C2F5
BDAA1B19
BD871A71
BDF4DA90
B9C4F68E
3E567A90
BE4FBE27
BD8744BF
3D01AEBA
BE8DDD6F
3E0B723A
3E5C417F
BDA3C6E1
BD71C820
3CF502DE
BEB82A8B
BE30BAE1
BDD966D0
BE9286B7
3E863C98
BE2602AD
BB24210E
BDA42073
BEC007C6
BC868914
3EAC33FC
3BEBA348
BDD3806A
3E992658
3D86B818
BD808FEE
3DBABD9A
3E97E8F6
3E9D75ED
BE3CFE60
BEE22CBA
BDCA0CCC
3E66894E
3E07A271
3C8FC91F
BD93E323
BBFC009F
3E73F0CB
BCE1A2B3
BEC7EACD
BE6CBC21
3EAFA57D
BD1F2BAA
BDAC8444
BD0129CC
BDE9E1A9
BEBC66FD
BD91A0A6
3DC63119
3F0D41CC
3D8A186A
3E849374
3DB2D095
BE829E5F
BEC5CA5D
BE3A39EB
BE466408
3EDC96F5
3E73B5E6
3E0CCC4C
3E1DB2E9
BDAA91B3
BDDC9534
BD85A7DF
BE44EE57
3D49759C
3E87C4EC
BD54A292
BEBEF297
3EED1BDC
3E63F271
3E4DDBFA
BCCB95C0
BBCF12E7
BBC2AC45
BD47ADD6
BD92BE25
BE25952B
3C324855
3C1C4337
BE8380B5
BE909931
3D0F3824
3DC8DD6D
BE770CBF
BE209F5A
BCF858B2
3EAC6D23
BE5A2908
BE1A80D6
3CE99C6E
3E53B5AF
3ECA6407
BCE7323E
3C286806
3E3EE285
BD9E513E
BEECA36C
3E2FA482
BE4F2248
3E048BFB
BE2810BC
BE80AC43
3E2B7514
3EC9DE1F
BDA0137C
3E32395A
3B9315A0
BDF9A631
BE223957
3E0F1E01
BE22A493
3EC6A281
3E69EC3D
3DFF831F
3DB8802A
3C55C154
BE9C48F1
BD94A645
3EB2111E
BE98297F
BE56B768
BE3C5E7F
3DCDB6ED
BE0319BF
3DB35233
3D515A3F
3E167AF6
3D1757CC
3E343955
3E12D8BA
3E1564C8
3E200ACC
3DA12481
BE3D90F4
3CA78821
3E1954EB
BD1EB523
BD96778B
BE49B63F
3D1C4BFC
3C2C51B5
BD0A0C24
BC3F5DFC
BDA65EC7
3DBA7BDE
3BC508FD
BD836AF6
BE3D2E9F
3CE98B2A
3DD14ECC
3DCAF32E
3E49A5D2
3CA231AB
3E0E4FBF
3DA39570
BD38F148
3E32C6CF
BDF8057A
BDBC3FD2
3C4F9057
3DE48FCD
BDD7A1F7
BCB506F0
3D7C4C31
3D1843CF
BCFED5AF
3CE268EB
BE03C2F0
BCD9A400
BD4608EB
3CF5FB67
3C0AB7A0
BE220967
BDA256BC
BD140BCF
3DD35C3E
3D305568
BD2CF2BE
3DC2BC65
BD8A7233
BD8E8986
BE0A7185
BCF4BF40
BDB1E155
BDAE03C4
BD8FC63A
BD683072
3E103007
3DDD5D53
3DCEC3F9
BD76323B
BE2CD8B9
3E252869
3DD140B2
BDBB40C5
3DEC3C33
BE0B6B68
BD243DB7
3D529FA8
BDF49640
BDAC71BF
BAB3026C
3D32C30E
BDBEEA7D
3E0441EC
BE1238CC
3DBEEC64
BCA8BE57
3E29243F
BE188895
BD9A691E
BDA78A4B
3BE09AA0
BBD277CD
3DDA2CA2
BDE29B15
3D79B586
3B92FA80
3C5F7719
3DFED09E
BCB2B962
BD23BC31
3D653C4D
BE168F12
3CBB8B19
3E1EB6E7
3C160058
BDC6BE18
BE1E26BB
BD9E20D6
3E4ABDDB
3D1F15A4
3E181DD9
3DB6C523
BDA35648
BE3158E3
3D22D9EC
BE33976E
BD92942E
3E2BEB4E
3D2152D7
BD3A79EC
3BADDF22
3DFC0388
BE38D8D1
3CD06EFA
3C725F81
3D22A365
BDAF69A4
3DE5916F
BDA7557A
3D8B2975
BDD00C5B
3DC0C0BA
3DEC23F6
3BC24072
BDBD8C50
BD6122F0
BE2D3508
BC040FD4
BE017509
3D25DB42
3E06C5C5
3DE84913
BE2FB67D
BDDBBD86
BD87BD31
BE077C72
BD99FFE9
3D0F8704
3C3F8F1F
3D9FB140
BDF109B9
3CF54129
BAC039D2
3E1FAB19
3DB2A7B2
BE066656
BDD09EE6
BC17B724
3E1622C4
BD421A83
BE0DAD66
3DD2B59F
BD5E5446
BCDB26FB
BCFEDB77
3D5D753C
3E1B6FC4
3D42FCE9
3DB236C6
BD90038A
3D95A286
BAA9EE38
BE237E72
BE1A7E20
3D962EFF
BD21AE08
3DC9F992
BE2CA4CD
BD98B64C
3D8DD652
3E1393E9
BCD4C909
BD36AF75
3E31A443
3E1CA02B
3A0AC38C
3D4627F6
BDF5248C
3CDD5C89
BD9FD095
3D60C2B8
BD9C2B20
BD6C9CDE
BE2EA1CA
BDCA6740
3C8A1537
3D6BB571
3E08AFDD
BDC61178
3D861F16
BD7DDC2E
BC945139
3DE041EE
BC88D1D6
3CA35790
3D230E39
BE37284F
3DFCAE7A
3DE46B94
BD0082B1
BD91C346
BE1A2283
BCFA1195
3D52C207
3C09B35C
3E111794
3D9F6C2C
3D56038F
3D9F7442
3CDDBD2C
BCC0BF7B
3E0E5B31
BD44AD55
3DA01CBB
3DC6D47D
BE3353CC
3CC431BC
BDDBFBBD
BD59F798
3B05584C
BC506070
3DC60472
BCDCE2DE
3DD6E708
3B90A00A
BE231DE6
3E2F304D
BD6A30FE
BD420164
3DECAC01
3D2E3EDC
3D345EB4
BD680797
3DF960E4
BDD40AE7
BDD79F39
BDB4B89D
BDADC0F2
3E150DE3
BD140730
3D5C3241
3E19180A
3DC87A9E
BD9C7E59
3ABD0232
3E030F7B
3D66C606
3E37337B
BC5C81D0
3DBD2E79
3DC45338
BDD4E8F7
BD42AD2A
BDBA0251
3E13488A
3E33497E
3DED7B16
3B95B5DB
3DBC583F
BE2316C6
3DDDCC31
3B97250A
3D4F1950
BE3EE8DC
BCC73F30
3DFF659C
3DAD9A14
BCB8D940
BCC1A9F9
BD7FF855
3E1CACB6
3E232F9A
BE049B82
3DF10771
BE201D61
BE0C202F
BE0060F8
3C1B4364
3DC01AAE
3E0EB49F
3D910823
3DFE0523
3E000344
BDF5FA79
3D714813
3D56E864
3C3271C2
3D085C20
BD136330
3D166F3D
BE4788E2
BE1D7C8A
3CA98299
3CB37CA1
BDC4ED67
BCCAA6EE
3DD9559F
3DD344A8
3D6B9A34
BD49239C
BB9E3B07
BE1F42D1
3E1989DB
3E070551
BCA4585B
3CE9BAC1
3E071E36
BDA62970
BD25220D
BD919DBC
3D0966D6
3D910FCA
BD0DA35F
3E12603C
BD942190
BDA12239
BD05B3A0
3DFE5A20
BE03C24C
BE2C9642
3ABB466E
3D721246
3CB12FF5
3DF63F0C
BE069114
3EB1ED0B
BE886BBB
3D289910
3D363227
3E8E4742
BE5142F8
3E7ADE33
BCFDEA31
BE40BEE3
3E89152D
BEABB368
BEA05186
3DC1329B
BE83A0AD
3E8029DB
3F180764
BDCDFAF5
3DAA1C5C
BD2402B0
3F0F8C7E
3EBCFB92
3E0E872C
3E5F353C
BE100827
3C6C12EB
3AEA6056
3D4A7F4F
3E2DE6DF
BE5B9454
BDB99F30
3EB6D282
BEB73AFF
3E021BED
BEAAD818
BD87E940
BECA4A7E
3DE4AF92
3DF6CFB7
3B9CC49E
3EF97847
BCC08E54
BE9B201E
BB80B631
3D5ABBD7
BD9DC612
3E451AC1
BC9E4EF8
BD4F439F
3DBE9082
3F0485F2
3D7A5A02
BD7491C0
BDDB42F3
3B967B74
BE474B50
3C06BC3B
BE850459
BCF6081A
3ED5434B
BDF0C623
3E393ED4
BE014C1F
BE1D0037
BD04B924
BE43D8BB
3D38D6DE
3EE0B456
3E1195E7
3ED2D78D
BE1A2F07
3C46A3D1
BEA07F91
3CC92322
BE3B34F6
BEBACDEB
BDAF0837
BE04DEE7
BC8A4DA4
BE9D2663
BECA80DA
BD8A474E
BD6AF74F
3ED37A10
BC9C9D36
3E2CF415
BE443A96
BD98478D
3E069E52
BC29F880
3DCE1C9E
3D2C1853
BD816514
BC97B93C
BDB91BB7
3DC701FF
BCAFDA00
BE1C25EE
BE12B932
BDFD613C
BCEEB24E
3D9F7BE0
3DC474F6
3D0FFBB8
BE191E18
BD8D7E33
BD8887A1
BC3DC044
BC2F47F0
BD8A2EEA
BDC0D87C
3D645F7C
3E092E6E
BDC7FCB5
BDA19993
BD2846AC
3D34527A
3DC4A6C1
3DBAFD88
BBDA5C00
3E42233F
3D34FE38
BDA19C3B
3CAF7620
3DF93280
3D939EDA
3DF6671C
BCFC1430
3E09EBE1
3DB7809C
3DC3710A
3CD8742E
BE31A4CD
3E46F18D
3DF37208
3D90867C
3CD6B130
BDFCA03E
3D3A6207
BE0CAB61
3E370C36
3B1CA800
3D91A480
BC6A0C69
BD9FD9C5
3D4EAAB9
3DC54BCA
3DD02D72
BDD70F03
BD077AAC
3DDFA102
3DE421FE
3E076D87
BE085892
BDE66CDF
3DEB1B72
BCB79968
3DCE99AE
3C8E3193
BE178D44
3DACA6DA
BC4CCF60
BDBA2DA2
BE46AF8F
3E321F01
3DA9B2C6
BE2D7CA2
3CA72B64
BD9749C3
3EB2994E
3D70AF27
3DD0B38A
3ED8E51B
BE9B0AFB
BDA941CE
BD87551A
3DA6F661
BE917AAA
BE952B61
3E269EFF
3ED4FC41
BDAD9D48
BC0245F2
3ECD7695
3DBDD906
BEC122A5
3D282D7C
BBC7854A
3EB58DAD
3DEA2A04
BDEC9B4B
3E532650
BC7F5D3E
3D903080
BD003745
BD4F100A
3D19A40C
BEB39F03
3DFE0943
BE89BF35
3D4C53A7
3E24E9E1
3E876046
3D0974DC
BEAE527B
BD94410A
BD4D8CE2
BE156778
BD18B21A
BD290088
3EC32838
BE4B0987
3E61EBBB
B90AE312
3CB7079C
BD3CC1CD
BE590001
BECA8F61
3E2AE1B3
BE5B4985
BCC53340
3EB81A60
BCFEF804
3F071CDF
BEF10A8C
BE33B06F
BE184A4C
BD41A6C0
BEDB1E69
3E9818FE
3CFEB3ED
BDE7EE5C
BC4B4F36
BED9FBB1
BE0585BA
3D34F64E
BF178208
BE04A5D2
3DC71550
BDD9918D
3E9443A5
BEAF7ACE
3E9E80FF
BBFA675D
3E36180A
3E7F026D
BD477FF3
BA9ACEDB
BEEAABD0
3E83AECD
BD628EA5
3C78EA86
3D143FD0
BE43F2D6
3CFCB8B6
BD404C6E
3D349A52
BE3064FF
BE3884CB
3D66EC38
BD6029BA
BE2CA24E
BDF1D966
BE7FD64D
BD75D2F6
3D341912
3E42FDAA
BE47DE07
3E874D98
BD8655DA
3CBF4F2B
BC118933
BE29D602
3D5C95FA
3E7E661F
BE39E9E5
BD650ED4
BE56B5F2
3D7F5B7F
BDD650AD
BE70F402
BE472BAC
BCCD84F7
3E43F50D
3E372791
BF091EEC
3DE9CBC8
BE52323C
BE5F258D
BD904C6D
BDDEED10
BE1C4841
3D670E25
BD9F2713
BD85A62D
BE8781CF
3E8DFDCF
3E78811A
BE7AE587
3E2C20FD
BE67E328
BECC0ECC
BCEAC712
3E634919
3D5C378E
3E2EBDE6
BF1A7747
BD98B697
BEA921D4
3E2DD655
BE767E16
3E2CD09A
BDC8F361
3E22B87C
BE2C1254
BC608693
BD4597C9
3E131AFD
3EC34DAE
3D3E7A34
BE339CEB
3AA38A51
3E780032
3D308BD2
3D0BB754
BE1C76B6
3CADC70C
BDEA0024
BE9E8824
BE9682AD
BD87AAE0
3D90094F
3D96E573
3DDD134D
3DF1328B
BE00C673
BDC1342C
BDBE7F63
3B0A10A1
3D87A3B4
3CE8C202
3D8309D5
BDA6D04B
3CC082DE
BE1F0047
3C6DFC5B
BD8BE22F
3DE7B343
BD42EDE3
3D679F37
3E354A61
3E8A7254
3E03FED9
3D602FA4
3D772552
3D8D5519
3E5A6326
3D65C202
BDBBA763
3D630ED4
B9B93E23
BE26C6DB
BB064618
3B982E00
BD21AA24
BC87D569
3D98441F
3E7AE45A
BE8094AA
3E1572BB
BDEEE48F
3D29B37E
3DC15815
3E23DBD0
BB80B52D
BE1A6CC5
3DCE625B
BC8E73CF
BE16A27C
3DE15BA5
3C340FF8
BC66173E
BD6170AF
3CD14474
BDAB170A
3D6F3811
BDFFE13E
3D755881
3DE0AD06
BDB78950
3C28A6E5
BE64FA0A
3C00CD39
BC2EC251
BDBC68A0
BE2BFB67
BE09DACA
BE35B35E
BC9A0D90
3E140B21
3CCA3EE3
3C834642
BE5FE731
3D8B2F72
3E7E0E2A
BC57814C
BE03C5DD
3E0981BF
3E02E1E1
3C5E45ED
3DB9AF0D
3E188C61
3D8513F8
3D617F07
BDFCDB26
BC3F1EE7
BE42740A
BD1D263E
BE195A01
3E2BADF6
3D92D8B6
3E443516
BEEA2960
BDC7C8E9
3D230EBD
BE8E01A2
BDBAA421
3DFAB3AA
BD3CCDEA
3E1067E0
BDD5DBFD
3EF2C112
3E9992A4
BE284772
3EE64443
3EEF53E5
BDBF8ABE
3E0D9E57
BE207281
BE2B3D63
3DB7ED50
3E31E2E4
BF007442
3E0462C6
3E57E4F4
BE2919F7
3E393D49
BCEFF755
BE258A9B
3E19F8E1
BD1FC39E
3D1A1957
BDB80B50
3DEED99C
BD0ED88C
3CF45A14
BE6C2D01
3D8195FB
BC82D2EE
BE244C59
3E8EDCF6
BE305738
3EAEF7A5
BD0EAC53
BF024508
BC266416
BE17D344
3E343545
BC2F826B
3D771FDE
BE87BEA0
3E950FDD
BDE6BF60
BED6F283
3E74AA39
3D920997
3E480F67
3CF1619E
3DB2E282
BE5E49AD
BE3219BF
3E729317
3DBC35D7
3C3E8F2D
BD8E758E
BDD644B5
BCC4D3B7
3E3E283F
BE97C237
BC244D6F
3E6AB9FC
BE817618
BD085290
BE6BC512
3E1EDBAE
3E8B7126
3D5C34D9
B91747B0
BD92E9E8
BE4B7942
3D9E65CD
BD6A9974
BD6B34AC
BE644AA3
BE37D5EE
BDAA21CD
BEBCB2AC
BE3038A1
3E0A9085
BBD08269
3D94E6A5
3E397079
BDB554ED
3DF4A5D4
BE594B77
3E4263FA
3C935DEE
BDC22AAC
3E999CD3
3E44D5BB
3E967746
BE31359C
BE01A711
BE5ACABC
3E5B4C10
BE6A7DA3
BD4CE4F3
3E537DF1
3E2CB047
3D3E4BFC
3E68130C
BE0C8F0D
BEF061FA
BDFA2FC6
BAC69C8C
3DE4BD6E
3C3D974C
3DFFFE13
BC942BF2
BDDA1D12
BEB85B7C
3DB49BAE
3D8DC049
BE17CDA9
3DA534CA
3E231DD6
3E22053B
BE65204A
BE141707
3D90FDBC
BE9D3D0A
3DB8A85A
BDD6E779
BD285661
3D9F25E3
3E26C7B7
BDA6B23E
BE872369
3D15A5EA
3D3D09CD
BE0694E2
3EC99C78
BEBB59C1
3E4FBE72
BD33DDC5
3E4B6EDE
3D73DC70
BCE3E96B
BE0AAD14
BEB92DCF
BE30335E
3E216816
BD397F1A
BE4323D9
3CDA49EE
BDC6B926
BE6A1924
BECA3F37
3E001FA6
3E48D724
3E08ADFD
3DAD3258
BE325318
BE49AAF0
BEDA92C1
3E8E95D5
BE34A2BB
BE2C1BA0
BD975C8A
3DEFBD8B
BD210314
3D51AD6D
BDE12098
3CC8ACBF
3D212C4F
BDD0A784
BDFB42FC
BE32117D
BD6F3D83
3DE432EC
BE00DC61
3D5AA784
BC3D1E3B
BD9DA926
BD3F0B27
BDA9728B
3AC58EA1
3DEBB322
BDE5C646
3D397114
3D5ADE88
3B2D9314
BE0E2AA8
BCE2C030
3DDB8302
3E2A3DA5
3DBB396A
BDB005F2
3CFFEB36
BE0D9E88
BE35412B
BC354EE7
BE1A38BF
BD8B86D6
BBAAD011
3D8B0970
BDFE545E
BE12FC60
3D1FD860
3E100520
BDAC8FBE
BDF09A0B
3DCA7960
3DB57D70
3DA704DA
3E0D520A
3DDC2918
BD96CD6A
BDD47685
BE12A2B7
3DD38208
3B468B49
BD018ECA
BE08F5C2
BDB90548
3DB91A54
BD53BBE5
3DD2AA45
BD3DA267
3D7BDD54
BDF4D5B2
BC6B86D0
BD176E8F
BE03B904
3E01196B
BDF90D51
BBC7EF6D
BE2D86E1
3E1FF84A
3D66AA0C
BBEFEDE0
3D9422B6
3CB7B02F
BDCEE409
3CED1CD9
3E2F81D1
3D45736F
BCBEE351
BDBC5D5F
BDF92B72
BDA49EE6
BBB6BB24
BD917937
BE9F4E82
BD69ACA1
BDFBB795
BD5A1AC1
BE41CFEA
BE8399E4
3E1D3D1B
BCD2BBC3
3DD74CD7
3E0A93A4
3DB895AC
BDD918FF
BE1840E6
3D9BEBC1
3E4F5355
3E0AB5C8
BCD4E943
BE45FD91
BDA377D1
3E4635CF
3E4E269E
BE903270
BE4610B5
BCA1C984
BDD09869
3EE4AE5F
BD9E54F7
BF361120
3DBCBAEE
BD1FB32D
3ECF0E29
BE921968
BE922C48
BDC8C98B
BDC18775
BE06FBB8
3D0B8944
3E482869
BDA3A230
BBC202B0
BD983A1A
BDEA4853
BC8B0932
3E21CEBE
BE6C97A4
BF02A21C
3CEAD751
BE84B8D7
BE88DD40
3E7AFBCB
3E9400A6
3D630B03
3E16ECE7
BF0CBDFA
BE0FF979
BEA1B085
3EB86098
BED0279C
3ED8E08D
3E7C1ADB
3D2783D3
3D7D54BA
3DA4A2D6
BC1CC4DE
3E33D597
3D8644B4
3DF1EE03
3DCADE93
3C9F9576
3E4EAD46
BD3205EC
3CF2576D
BE5B6ECF
3DCF3012
3E16713E
BE0AF38A
3D02402B
BDA56DD3
BE7A28C0
BE87F669
3E0E0E6A
BE5D5FD1
BDD7207A
BBCE0B62
BD9825B4
3ECC5BD9
BDA558CF
BECFC2CF
3E39D820
BE2CC48C
BD6D974C
BE422EE4
BC66F25B
3EFD1108
3DA77435
BD144C05
3D97BFD2
3E1D6B48
BD5BB8BB
BBE0F369
3E64E9E1
BE898F9D
3D91E28D
3E7DE47B
3D7E0A78
3DEEE27A
3E8AFE07
BDCEBE5A
BD24CA6C
BED0CC10
BE4BEB3C
3EA895CE
3E5E6510
BDF52451
3E391B19
3D3B8FF4
BDA24FCF
BD7091DC
3D8AB018
3D9F4890
BD9A5DCC
BE621A18
3E4D9DEA
3E7D6A0D
BE91E19A
BE881F01
BE453392
BEA9ADA4
3E8E4449
3E0D3EBE
3E2EE676
3C03C858
3E15FC02
BDCD1CDC
3DC0CF94
3D6C26CC
BEE6B660
3E52F852
BEF829D4
3E5D146C
3D5379A9
3E91A02C
3E200E6D
3E81C806
3C91961A
BDD3B595
BD7808D1
BDE11868
BEE7B75E
3D1661BE
3DE81F5D
3E5ACD41
3D163CD3
3DEC6B76
3E4B733E
BEE07227
3EB30D65
BE2EC0C4
BD996F65
BE434550
BEE0349F
3E82F68B
3D1C512B
3E7FDC32
BE10F8C6
3E84644E
3E2A9395
BE092B29
3E474877
3E807771
BE03787D
BD05701F
3D98E5C0
3DCFDF27
3E3075DD
BD36DE8E
BEAF243A
3ED551D3
BD9E3774
BE38411D
BDCB0418
BE70AC12
BDE8102C
3F0C2211
BEDD378B
BDCFD2F6
B9B77ACF
BC4C60FE
3C3B23CD
3F087261
BDADDC67
BD99DA57
BC9AE6F0
BE092832
3D169E11
3EB1A428
BE8816F1
3D784465
BE64A812
BE07F022
BF0E204B
BDC3C0DA
BC16B339
3E940E32
3E84DFCB
BE42F5AE
BE2FC34A
BE92DCB8
BE7E6760
3E651830
3CAB1EFA
3EEF6F0C
BEC61697
BE320845
BE39DB8F
BE8B2EB9
3E0BB006
3ECDE8D2
BEF2EF69
BDC34F27
3EEE2BC2
BEADB918
3DCE59BD
BE7F4E43
3DE65C23
3E707E6A
3E393945
3E9839F4
BDDD2872
BE2B82C7
BC0FB6FF
BC879731
3DACFE30
3E8EE5DC
3E8C741B
3EB02725
BD097230
BEFA5187
BD4E8118
BBCECAFE
3E70671B
BE11EA30
3DE3E9DF
BD40AA74
3D161701
BD9468CA
3D628F5D
BD469D34
3D8DEDCC
BE15CB58
3EB77BF1
3E745BBD
BE15546B
BDE58C92
3E40ABC4
3D624523
3E0BA229
BD5639DC
3D014847
BD9AF582
3DBA2ED6
3E0A21D9
BDDB491B
BD259334
3D10FB2C
BDEDFEB4
BD464992
BC9976E8
3D62DC4C
BDB88F00
3D804C36
BE11A459
BD374138
3CAF0CA8
BCB83152
BDE27123
BDC3457A
BE2569B1
3DCC4EE2
3DC9A2AE
BE0AD806
3D88E254
3DD0DE26
BC94312B
BE417BC3
3D3F9C08
BC400370
3DD34E66
BE05C7B4
3DAE9B76
3CFBCBF8
BC0624B0
3E0F5F3D
BDDD1A7A
3A103000
BDDD90C7
3DCA492F
BE0D4CC5
3D402907
BC53D540
3DDA689F
BCF63D90
3DA72BC2
BDFCDA72
3C951998
BCFA0148
BD21504C
BE0DFDD2
3D6F4E6C
BD9DEB12
BE1661F6
BDF28363
B9A0BC00
BE2E2A9F
BCE15A10
BD900A5C
3E26FB9B
BD97C1A3
3D1B018E
BDD967AF
3E253559
3DCA3A63
BDBAB536
3D5B1488
3E1532F7
3D94A8A5
3D9C3D44
BE008F8E
3BBE4AE0
BDCA7C06
3D432D33
3E128C5D
BA9AE57B
BE063FC0
BC951C68
3D2A3048
3D6FF444
3D8DC09B
3C0FDBF6
3E0723D5
3DA3AD52
3D5305C7
3D12DCE1
BE0EDBE8
BDB11BF0
BD554EBE
3E3B730A
3DE42B3D
3D11B30F
3DC4CDBD
3E0D89FC
BD4AC820
BE32939B
3D2A3AB0
BC3B0570
3D9F0D94
BCE91D60
3D5A2A2E
3DFD06A5
BC4803D0
3BB5F93B
BE2CD9A3
BE047B70
BE37D69A
BDABF070
BD43F454
3C25E354
3D2E82D8
3E15F491
3DC0BBF2
BDD51E8C
3E01D4C6
BDB64B1E
BE2272A9
3E0EF4ED
3D35ADBA
BE2E00A5
3D4068C8
BE083AB5
BD962FFD
3E006043
3DDDDF7A
BDAB1213
3DF5818A
3E242DE3
3E00BEC6
3D86CF65
BE281B0A
3DFF95FA
BCE240DD
3E05B96B
3C2B6350
BDF9EC1F
3D1A1D73
3C688EB0
BD33CB11
3D6BC39D
3DCCA5E2
3DE6A18E
BD345DA4
3D878D5E
3D4E7D02
3CFE2D9D
3DAC6936
BDFA9028
3C93C31D
BDEA9326
3E1E4681
BD8F068E
3DA59A85
3E14EA15
3D84ED89
3D47ABCC
3E19F64F
BD7247D5
3D2833C7
BD06C6C4
BC7F602A
BDCD5DCA
3B349795
3E15270B
BD06DE50
3DBA50F9
3CBDC027
BE158F54
3CD17588
3E2C6ADC
3E2EC7EF
3DD197CA
3D87AC0A
BDA9F3B7
3D81AC69
BE0B3CD2
3C784740
BD1D1728
BDF3EF75
BDD2AE3E
3DEB75BA
3DAB26AE
BD281F04
3E2E269F
3D21634C
3D30C5F7
3E12C6E1
BDA081F8
BD19D45C
BE1F2965
3CEABE90
3E1573C3
BDFA9F34
3E3F085B
BB4ABB25
BD8A620E
BDD1ED13
BCCA2A10
BDA4F685
3DD04E0C
3D86EC96
BE0DDABD
BE3BC113
3D92CA20
BDB339E5
BD98640C
3DB7B956
3D2DBD23
BD8D8FB0
BD688957
BCEF5528
3E0A706D
3D164868
BE017A0E
3DA1C9A2
BC08A6A0
3DD1E564
3DBD94E6
3DF9561E
3DB6342A
3E0EAA1F
3E2A202F
BE1C3197
3E2C6823
BBB04A80
3E0FBD2D
3C0A7710
BD1D3294
BDB9387C
3DBF3AB5
BDA268C4
3AA4FB80
BC396800
3C8B4D98
BDD1D6CD
3D90E383
BDA1F395
BD4A68BF
3DAA792E
BC792B00
3DDFA4EE
BC67EB83
BDD94CC2
3E174CC5
BDE4B514
3D3C2BC4
BCAC8570
BC9AA6D5
BE58BBAA
3E7F0B7C
3DFB60E3
3E17AE9F
BE3CF006
BE8285A6
BDFF90FF
BD858E42
3D954B93
3C920253
3DC232E5
BD4E3CBB
3E07F4FC
BD33F12F
BC8B258C
BD99BBB4
3EA7932B
BC68F296
3D017BDD
BE3C9753
BC8BA45F
BDCCE8A4
3C44A932
3D65D7F0
BE5A8834
BD3F473F
BD1EED40
3DA1E5D9
3DF21F81
BD7C9734
BD5344EE
BD7058C5
BE27FC08
3CAFEF67
3E70433C
3E5BFAB8
BE0F9E5B
3DF5AD32
3E09BE80
BCA22568
BDF8DE43
3E436D5C
3E170911
3E80FAD7
3D609219
BDA6438E
3D515A17
BD05FD15
BDB38748
3D300088
3DECDCAF
BE034170
3C0A7E0A
BE81D6E8
BD9850EB
3D90BE9A
3C0E48BB
BE46D718
BDE607F4
3BE337ED
BC636DE0
3D92DE76
BE2C1FDF
3C5C9220
3E73B670
BD655A0A
BDB7B618
3D1DE986
38BA544F
BDB5BEA1
BE864670
BE28E0F8
BDB9457D
BE3E8397
3CD222F7
3D9B5008
BDFD2E7C
3DE3E974
3E521315
BD2FB7FF
3D213C54
BE199670
3EA2C4F2
3EAB1ACE
3D98FA33
3EA2F6C4
3E5E4106
BD2D3BA8
BB6C006C
BDAEA6BE
3D585BB9
BE07B750
BB97B4B5
3E1557F6
3E5126FB
BDC92CEF
BDD85B8A
3E526E87
3E30BCD6
BD3B726B
BE04BEAC
BE3F8D5B
3E5231C3
BD9C8125
BE8C9455
3E106C5B
3E2AA1CC
BDA4C3F3
BD7EA664
3D7A6448
3E2D41FA
3B98ADE9
3D24AF53
BD75387C
BD550542
3E0AC03F
BD7B8CDC
3CF9CE4B
BDCBD4FE
3E2C24F4
3E4FC38C
BD77B4BF
BDCECDB9
BC17FE36
3EA720EF
3DABA994
BEE58303
BDA1232D
3D694CEA
BD9E64E2
BD401DE9
BE5100C4
3D9CF040
BE9454CD
3DD8B896
3D85D2E1
3CF888EA
3EBC4485
3D457E22
BD5EA3D9
3D9B421A
BE0EACF0
BE42288A
3D9C0F9F
BE4563A4
BE20C25D
BE190EB7
BEBD1587
BD6BB278
3E6DC96A
BE57B3DC
BCA8EF7E
3DE8069A
3C182930
3E462E14
BE627CE9
3E4DC8CD
3D1F8F03
3DADAEAA
BD02B458
BD196301
3D1ED1F3
BE31ADBC
3E9E3251
3B8A1D4F
3E262AAF
3E0BA45A
3CE93D20
3D489520
BD807067
BDAF3E2E
3DBD984A
BE00A88C
BDE3068F
BE18F1D3
3BA858E0
3D5870A8
3D7989D5
3B23C53A
3E2200EF
BE1BB828
BE10DDB1
3DB57002
BCD8FDF0
3DD95416
3DBA32B2
3D0A82EC
3A18B300
3D5DE110
BD32EE9F
3DAD8B4E
BD79E4F6
3D9847E6
BCEAE018
3E15BF2D
BE11321C
BD1BDFC8
3B4704C0
3DCAE0AE
3D932012
BD6DBE10
BCABD1A0
BDCA7CB6
BDBB5F14
3E00F04B
3D2E24D8
BD948064
3CD8D028
3E0E41D1
BE033AD3
366C0000
BD7B1F5F
BDCA6874
3D99E919
BE1F86DA
BDA8E23E
BDFC96E0
3D169504
3DDE264E
BD883050
3D7D2C3B
BD314794
B9C09200
BDD34582
3E33CAE7
3C612B10
3D7F6424
BD850BB4
BC85F520
BCD507E0
BDB7F71E
3D90B5CC
3E28981B
BE04198F
BD080AE8
3DFE24C2
BE49FC88
BD3F0AAE
3D9C3458
3E289441
BE04446C
3DF506F1
BD91B93B
BE22B72F
BD9DC02A
3E1DD357
BE27BB87
BE0F11A5
3D5C27AC
BD1A31D4
3E10BF61
3DBFB536
3B7AD540
BDD68506
3D8EF608
3E0DEFA5
BC79FD8A
BE261C3B
BE1910D7
3E212685
BDDFC0A5
BD65D2CE
BE23C659
3E1573C7
BDCE1096
3DED41A4
BCA5B867
3D9ACB03
BDC91161
BD30A70F
BDD31169
BD97FCC3
3C983484
3D5DB186
BD4D1972
3C123B79
3E298B6C
BD80667D
BDB2E0BF
3DF7F8C4
3E271804
3E003F1B
3D7932C8
3DAC6880
3DF21462
3CDFF0B8
BDAE443F
BD64B912
BCCE24C8
3C879BE6
3E2E9963
3E028875
BD98B8D0
BE285196
3E13931F
3A86EE10
3D35C806
3DA38766
BDC048F8
BD058FC9
BDC05168
BD03E3A8
BE0FE827
BE1947BA
3CA45772
BE39F1A7
3D3F3D70
3C8E0506
BDF1FC51
BE0F5399
3DBF10CF
3D2BB280
3D2D2F00
3DF7D6D2
3D09EC46
BBBC9E20
3E083787
3E2CF823
BCF35360
BD3D9496
BBDBA789
3D8398D6
3E46C93A
3C8A63AC
BB6E4512
BCA56A6E
BDBB2A29
BDB8E55F
BBBFC840
BDB62EE8
BE12FD44
BD19B4C7
3DDF1902
BD817F58
BE2C384F
3E4FA85D
3F008005
BDBC6426
3E8057E4
BCA012C8
3D8F786E
3E067140
BE1559D7
39FC803E
3E8F539D
3E0E21F2
3D80344A
BB9C2077
3E55D963
BE24EB62
3D7AECC7
3D7CBA33
3E57A4B2
BB3EDC1D
BDFAB990
BDD32756
3E68FBF4
3D88213B
3D43DD8F
BC06891A
BEBF22BC
BDC5371B
3E9AFA8C
BDEDD92D
3C822378
BE4B17A9
BEAFCD4F
BE8A22D9
3DCAB5D6
BBE9DF80
3F55B74F
3DCFAA0A
BE45CFED
3CF79B25
3E7B49AE
BE665C25
3E63A01B
BE2BFCD1
BD33019F
3EB77B0A
BCAAAB63
3D25D3AE
BD597BA4
BE2EA94A
BE41B1DB
BE3FCB80
3E7894AF
3E490888
BE1E6979
3E82E312
BE1C05D1
BEEC8274
3E9178E7
BE40AE51
BDB59E4D
BDEB8631
3DDCA1DF
3CC11246
BE287A67
BE517FB4
3DD4A3CA
3E11C8B8
3E781C41
BDCACA76
3E253B5F
3E397FE1
3D8E99F2
3DCD3378
3D914D9E
3E2DE9DD
3C866856
BDFDBCB6
3A9D630E
3E89F958
3E542A01
BE788579
BE6BFA09
3E8C38D9
3DE0C5D0
3DDCD59C
3ED0E0FD
3F449BCC
3D61AEE6
3E9343A5
BE0BD693
3D588D8D
3B051F16
3E9B9525
3DB6777A
3E47CD25
BE3394B4
3DB2DFE4
3E30B568
3DEE2815
3DEA0AC9
3F1C58BD
BE07AF68
BD07D543
3BD1653E
BE53AC3F
BD88ECFD
3D2611C8
BD896B83
3BDAFB53
3EDE684D
3DC9874A
BF056EC6
BF14F9F3
3D1AE521
3EF3BA3D
BED7BC3E
BEA6E60C
3C82C0AE
BDA3F3F0
BE37B1BF
3D566558
BDE9EB1F
3E696AF4
3EF71E80
BD9B7682
3E8F0DEF
3E317343
BE90E886
3EE7E682
BECD9303
3F202E77
BD516768
3D90AFDE
BEB871A3
3E7EBACD
3A8B1F19
BF35BA4F
BF0B6516
BEC45EAC
BE85E9D4
3E241DF3
3D63770B
BE63BCEC
BDD35743
3E3D53D0
BC8BD5B0
3D1B485C
BD9E69EE
BD8BEF85
3D793D3F
3E0515B5
BE9D3EB3
BE214509
3E3DE47B
BE88B244
BDA83DAA
BECBA651
3E6F8C97
3E4B9537
BE83D82B
BE352CF2
BD9B017B
3D278E41
3D1908BB
BD0C801B
BEB62CD8
BE4E7190
3E08EEE8
3E7862D2
3DFFAC8A
3DC5DB04
3E32315B
3E36886D
3D9C7236
3D87C2C3
3D59BC6C
3D251100
3D167EA3
BDCF62B8
3D999087
BD9FB7BA
3D3A78B2
BE110E45
3E8DA425
3D53B974
BE2B578E
3E1B8E25
3DC7253C
3D462137
3E9EDB03
BC881BA5
3DA3FB02
3E637A59
3E882AA9
3DB1B0A2
3E3F67F3
3D623A5C
3D3C0A74
3E25A07E
BE19D202
3E046815
BDCDBC32
BE2FA37C
3E285F46
BE20C4FB
BBB8BCD8
BD725F73
3E1E494D
BE1DEE28
3E970782
3DE355BA
3A3A7932
3C9919B8
3D51BDF9
3E248F2C
3B43A50E
BE4C5E7D
3DF3B412
3DA9FA3F
3E3C5EF9
BC9C4049
3E46ADCC
BDBD0D22
3E00E498
BD23E633
3E244CF1
3E02CC56
3E74CB98
BE566199
BE0164AF
BE15B84B
3C4C32C0
3DB419AA
BE053608
3DF9AD8D
3E92C11F
3E22D3DF
3E14AE2F
3B48EBF2
3DA3F6A0
BD64E672
3E8C01D0
3E8B0A80
3E915E7F
3DC702A8
BE30571E
BDBA3D30
BCFD08A8
3D4A65D2
3D980E5E
3CE7E244
3BDF8D2B
BE3B1269
BEC6F907
3EBEC661
3EC13E61
BE16A257
BD9E63FA
BE5AB60E
3D8878DE
BDB8728F
BE4A5F61
3E3BF41C
3D763967
BE6EDAFB
3D937CB3
3EEBE1C6
BDE41941
BF1122FE
3D58175C
3D9315D2
3EE587B8
3E91DDDB
BE1B19F1
3E3C9189
3C0EEE8E
3D31BFEA
3E6EDE24
BD8864FA
3E2F03C8
3E07D32E
BE16AA97
BBC5771A
BE46DF7F
3E8A5651
3E286C7F
3CEB0DA6
BE8318B3
3DFEA232
BE39A375
3DE6BAF6
3E1513D0
BDBDBC85
BE144F4C
3DF8FCC5
3D82462B
BE4C6B20
3EAC7642
BC346F0B
3E6260F5
3EE68ACD
BD9D6AE4
BCC721A9
BE5C987D
BE9DBAE9
3C190637
3D98ED79
3EBB4350
3D31ACDA
BE12705A
3B21BC48
BE59A8BB
3E0678EA
3C60569E
BDA414F5
BE40E47C
BE26926D
BF0D5635
3D7EB0C1
3D1B6B59
BE8CBFDA
BEA30DDD
BDD60DC5
3E08AAB8
3D982DFD
BD7CA736
BEC05A66
3DA5BD51
3DB4BA37
3E94CFB0
BE5802A5
3C82F48E
3E8AFA1A
BE6AEC7C
BE38399E
BD97F014
BE274EF8
BC473060
3D26CDAC
3E089507
3E07629F
BDFDACCA
BE34912F
BE3D0984
BDAA03FB
BDAE7282
3D9C2A25
BB3C485C
BDCA112E
3C136486
3DB7BFF1
3DCE647E
3BD0E6CD
3E1EA777
3DC8AE4E
BD9E8C50
3D987650
3DED20D6
BDCD8844
3DE54682
3E1A64DD
BDB611FE
BCCBD3A8
BD93B0FC
3D90E144
3DE64656
BE19A854
BDF88919
BDB1B740
BDE51FCC
3CFA86F8
BE1C1F80
BD748764
BDBB4B20
3D3D1A48
BD64ACEA
3CFBDF18
BE2D3698
BC5CBB90
BD8B14A1
BE016716
3D8A2D26
BC80C072
BD45C5A4
3C0C6990
BD62439A
BDB9E1E2
BDE4650B
BD80FC88
BD230D91
BDED924E
3D01D72C
3BA18EA0
BE07B245
3DA93F4A
3DEF41B2
3C598250
3CC8A248
3D9341F0
3E2CAD8D
BD516658
BE240B49
BDD4EA48
BDFCF5EE
3DA3A29A
3CF762F6
BDC19CC9
BDFC6DD8
3E1B88B7
3C10ED60
3D5E8CA4
3DC76382
3DB5FDC2
3D66AC74
BD5822E7
3D12B574
3DF61411
BD61D61A
BDCFF889
3CDFB740
3E77B077
3C23E341
3E871698
3E2F90A1
BDA97D4D
3D05E831
3D4F2D83
BD50BF88
BCBD50DE
BDE081E2
3E688FC6
BE653675
BDD54EB7
BD4C06F1
BD8A0AAF
BEA19163
3D07D408
3D8F1754
BE80295B
3DBD2D16
BE2BC419
BCB1288D
3E221878
BDCE34C9
BE521D76
3C2EFFB2
BCE1B0A2
3E3D21C0
BE82B596
BE0D52A4
BDA6E7AE
3E99530E
BE42506E
BE5FF0DF
3DB2EBFE
BE20FC16
3E23A24D
BE80EEC7
BAD3E479
3D8DB193
3D17ADB8
3EEF523D
BCFC79DE
BE0259EF
3ED6205C
3E2D3194
3E6EB204
BDB3BE87
3E93E276
BC51684F
BD9FFAAB
BDE28923
BDCC67F2
3DF8BDCF
3E6BD790
BE35DA17
BF1D02BA
3E936B32
BEA0F673
BEAF7FBC
3E0CE439
BD653FAC
BDB3FAC1
BE1F3FB4
BF0E2A22
3E4D3FC0
3D617731
3D63EDFE
BCDFEF01
BC7F7706
BE403B48
3D555F57
3CF2CEF3
3EB5659C
3CA449DD
3D457B4C
BE787600
3DF63C85
3F01B571
BE18C9AB
3E6750D9
BD8C1895
BD764477
3DFE2DB8
3DE4D41A
3E423822
BCBD5E64
BE4371B6
3CDCFF71
BE26CF82
BE23AF8B
3D3AE4A8
BDC2CE18
3DEBFB7A
3E04513A
BE0B0A3F
BDE250A3
3BEF5F47
BDFE30D0
3DB22661
BD335A4F
BE03B07E
BC856958
3D320C6A
3CD255FA
BD831E98
3E4D9582
BDA47FB1
3C4BC01E
BDDDA9C8
BD6B5544
BD63A03D
3D71220D
3D6532F0
3DDDE4AD
BCF76022
BE4AACC6
BD98D69C
BE364860
3B7B7D48
3D0DCB7E
3D8AC9B4
BE123073
3DAFDEB2
3CC11C88
BE06D646
3B6846C0
BD871DE9
3DDDA916
3D288494
3E09D200
BCC80D9A
3B471598
3DDC59FC
BE20BD50
BE2EE901
BC7EA4D8
3DCE9328
BE1CAEBD
3E4621E9
3DC36CBC
BDBFBBB7
BE024A7F
BD9BFB35
3E10644B
3DA991FE
BDED05DD
BE23010E
3E4C67DF
3E477B73
3E12C2C3
BD070174
BDB2551E
BC2DC770
BBFD67C0
BDD9F55D
BBB88104
3DC3B42B
3C6B43D0
BDF4CB1E
BCD00A0D
BDF18255
BCDBBEE5
3B7232A6
3E02DBF9
BD2A2300
3D78BD6B
BDF4DDDC
BD226CE1
BBAA73C0
BD9CADA7
3D9F88BD
BD833B85
3E02B5E7
BDD87F7F
BDE8055A
BD5E58F0
3D89C1D5
BD568D6B
3D7D3E37
3DE5DF16
3E252139
3E2C9978
BE29BB95
3C2A7EB4
BD240EE4
3E2CCDE9
3CBEE3F1
3DEBE97F
BE0FC4E7
3BA1E628
3DB263A2
3DD86786
3D8BD42F
BD45BF96
3DC1B563
3D9D6D77
3D90380D
BE2054C0
3E044598
3D44CB5E
3DB75270
BC30FB87
BDC907F6
3D94D0D6
BD8EA532
BC86246A
3DAC8AC8
BE0F7F99
BCAC3E1D
BD25BFDE
3B964FE2
BD127D0D
3DC29D09
BDF08233
BD5BF912
3DFA7B76
3DB21766
3D42911D
BD304C3C
3E2B401A
BD878849
BE17FD41
3E00C662
3B9A85E9
3DD73A17
3E146FEC
3D386050
BD100BDE
BE2688B7
BDF76BBC
BD0B5E0C
3D0571CF
3D0185CF
3E2E8CA7
BDB1B639
BE2EF2FE
3BAB74B3
3DE80432
3DE25143
3E3F42EF
BAAC1961
BDDBAE6F
3CF77A8D
3D0083A2
3C24D850
3E506FC8
BD9D2A90
BE156D2F
3977B673
3DFF958E
BD555620
3E1C31B9
3DF3594B
3E1C8705
3DEFBED9
BE104D52
BC8D9642
BF270230
3DF886B6
3E4067B4
BD27758C
3D17A8BF
3E0443C0
BDA03B7C
BEA6C0E3
BDC1C4FC
B95E70AC
3D043B55
BE6C5DAF
BD0DD193
BE0219B2
3DBE3B9C
BD2A3BAB
BE8544E7
BDD0D54B
3C4AC7AF
3E44E416
BB93FFE0
3F27EE13
3E999A8C
BDAF7C25
BDBEA770
BD52A91B
3F0775F8
3D335F23
BC19AE0D
3E039B8C
BEE56D6F
BE593B4A
3E80099D
3C5911A6
BE002C4B
BD40263C
BE10DE2F
3D69628D
BE335F72
3EACAD1D
3BCE57EC
3E031990
3DC00FDD
BEA5B157
BE8ACF39
3D66A972
BE9A7A99
3F1BB701
3EB1562F
3DE3810D
3DCCC020
3EC138CA
BEE231D0
BE850A4B
BE82BC35
BE374911
3D890711
BDDB6691
3D7D9943
BD197B7F
BEDE3F2F
3E0959CF
BEAD5FF2
BEF363F7
3E43C37E
3E88ECB8
3ED2DAE4
BE2A2887
BD55CFFC
3EF3986A
3ECE0BD2
3D318F13
3E0DAFCD
3E4FA7B4
3DBEDF46
3E472D13
3B499D6F
BE18F366
BE3B10FD
BCCE392C
3C200A0B
3EA37648
BE2ADC9C
3D5A60D9
3E85D2BB
3D2655E0
BDD8A56C
3DDCB5B6
3F100C41
3E0B25DD
BC7870CC
3E290E8A
3EC6A451
BEC31E53
3E8F9441
BE912A58
3CAB0D34
3EC99953
BD859AAE
BE632414
BDFE5314
BDADC247
BE22239C
3EF31F8D
BDC67B1C
3CCE3294
BE801FA7
BDB904F6
3D78672B
BE161E60
3D291990
BB144C14
BCEE9194
BE11AADF
BCF36AC7
3DECB38E
BBA3DC29
BD961601
BDE01554
BDDA883E
BCF9A273
BF31AAA1
BEC7FC88
BDFA0CB4
BDAAFE7C
BE61F789
BD905FB7
BE73DC9C
3DEB26BC
BE0443EA
BE4C5DB7
3E284350
BC8AC087
BE2EB0F1
3D53903E
3E326D9F
BEBC6EC2
BCA4DDE2
BB7BA322
BD1ADC25
3CC0377B
3DAB9F8B
BD4F95C1
BE83AFF3
3E67A3D4
BE58389D
BED00756
BCC76E5B
3C663B1A
BD1C85CE
BE81229D
3D099646
3EF6A3CA
3E286969
3E4B9624
BE502A73
BC42B834
BEA74B11
3D2725BF
BE333F8F
3D106E0C
BDF73CD4
3E349E8F
3DF327F1
3CA5637E
BCB6ABE2
3D002C6F
3C05FCDD
3D19D63D
3D508ED0
BC8FB535
3D552610
3E0113B1
BD2CE57B
3DB498F1
3DB1C422
3B53BFE6
BD0B5C40
3CE44692
BD83CDC2
3DE4DA7D
3E153807
BE30D643
BB113926
3DCA69D5
BE09E8E8
3CC3441B
3DE920E8
BDE65178
3DDFD885
3D8944F1
BE34B356
3EA83B53
BE547870
BD9A4360
BE091046
3DCA7003
3E719E13
3DAE598B
BD3372D7
3D90A306
3D628A0A
BD874D80
3E437F5B
BCAA0DC0
BE2EEE44
3D24AAEE
3DBA6634
3C9253ED
BE0D2E65
3DBAD886
BE4EDD8F
BD4010C5
BDC33D58
3DD7D647
BE25DA9E
3E01BC3A
BD1DC54A
BE0BD22C
BE000B71
BE802460
3DECCEA5
BC1F2FA2
3D4C6F1C
3D6FBFA6
3BC4D5D2
3E0C6DE8
3E57703E
BB3A57A8
BE15DCED
3DD8A576
BC44BB49
BCF565A8
3CAC21AD
3DB8690A
3CD2FEA7
3E7252D8
3E4854CE
BE78A10D
3CAF744B
3E9807DF
3E5E2C4F
3E425391
BDDB1262
BD34F322
3E5393AD
3EA41EA5
BE103842
3CDAF807
BCA1CBAC
3EA5A6B5
BE104FC8
3ED22A77
BE5D0E27
BDD323B2
3D8F341D
3DD880BD
3E24ECE9
3D8D83AD
3EA01CA1
3F19951D
3E07918A
3EB593F3
BE5F4923
3D4EE081
3EEE7CF4
3C72D329
3E2383F1
3E252864
BD9C6061
BC326808
3E413E9D
3C414D10
BEFCBDA6
BE95BC10
BD9276EE
3E70BB56
BEA7C7AD
BE21DC63
BD340A5F
BE24975A
BEB2FB68
3E9CCF26
3E962080
BDFA81B6
3E59ECA3
BE2932A9
BCEC1ED9
3D30AEF2
3E249387
3C7C14C1
BEE2A98F
3E732C50
BE78CCAD
BE81C5E1
3EAE3225
BE5A8697
3B4B1C1E
3E2748AC
BE4B9C96
BE24B1BE
BD3BE284
3E730F43
BF00F23E
3D56AB2B
BEB34BFC
3E6541F9
BE0CDA54
3D4BE0B0
3DD38520
3D127A02
BDA753F8
3F1D3140
BE481CD9
3D9B0CA2
BE1E7EB4
3D956D2A
BDC1EF7D
BE8BE63E
3E8C3759
3EB84888
BE11DF3D
3C979FFC
BCE2E076
BE871751
BDDF5F0B
3ED0ACD5
BCA78CD1
3DCDB45A
3DBE0163
3E3464AD
3E07A314
BDE72965
3E0968A8
BC5AD6F0
BE0DE380
BDDB9FBD
3DC3E817
3E1B45BB
BC8103BD
BE0FF258
3C8F2052
BE234563
BDAF05F9
BE0708DF
3E41EAE9
BC7ACC8D
BCCEAF18
3DBC7CBA
BAD12728
3E2B07BF
BCC01D97
BD0A96C8
3D45C380
3E039398
3DB69E63
3E086E15
BE0B89AA
3D2FEC15
BE30D7AF
BD6B43E3
BE1A8B2B
BE2AC532
3E1AFA6D
BC460B40
BD98F214
3DD90815
3B8A8520
BD0EFC70
3E194494
BE003CFD
BDCF3AC3
BCB88448
3E3A5259
3C94CE46
BDE67FA4
BD621C42
BE00D92E
BDAA8394
BD020F2E
BE1737CA
BE0CDDF9
BD2D215C
BE3B59EE
BE42E78A
BE3E2BE0
BDF7A2B0
BDB96B97
BDA34475
BE133AA6
BC292000
BE236DE2
3D9297D6
BE0D621A
3D901C6E
BDEAFE4A
BD4C2EA3
BE06D496
BDCB0019
BD0C0C26
3E0C995F
3DE2D6B5
BB3FDDF3
BDD7B951
BC462951
BC822AEE
BDE81843
BC072E2E
BE0CEC05
3DEA4266
BD400733
BCC74910
3D3DADDC
BDA9D65D
39D30A7B
BDCF8597
3D3784A2
3D9D2363
3E01A733
BD83082D
BBDA0E7B
3C1962A1
3EA4C65B
3ECB3BAB
3DA861B5
3B16A851
BA751232
BEA203F3
BCFFBFF7
3E23E294
3E7DEA50
3C0CB2F9
3CC8C21F
3E663C7E
3E8B8269
BCCC24CD
3DDE1E70
BD9D0B8E
3C9E4C30
BE3BC738
3A898400
3EA4672B
BE8E0269
3DB6C011
3E19A5CE
BDB0E498
3EC3C37E
BCD29975
BD9AAF2E
3E29C702
BE371260
BE811354
BCFF7AAE
3E982DE3
3C8B6FAD
BEC71500
3D2D1455
BD5FB153
3D1F27A1
3EA86123
BE57E693
BD37CB8E
3E9E9A60
BDD4852F
BE0DF740
3E389E7A
3DEFB97F
3E304DBE
3D13DFCB
BE476B5D
BEDB60B2
3EFCAB02
3B91858C
3E6E38C7
BEA038C8
3D96D7D8
BD1BC91D
3CD13488
BE73E8A3
BE6C0737
3C88F87A
3E8354DB
3E756DA6
BEA807E6
BCE2C922
3EAD2A28
3E7AE7E3
BD51B6BD
BDBE7675
3E718038
3E739D4A
BD69336F
3D9C9BEA
3DD9B06C
BE85B82C
3D1EA0FF
3EC96413
3C9605CD
BE15AA07
3D4A2C55
3E2BBD21
3DB5E426
3D84E65F
3DCE65A6
BDACCC6E
BDA0223A
3D0CF770
3D6F7DA5
BD888D3D
BDC6C74B
3E194623
3BCE5B06
BD5D41FD
BDB3ED8B
3E1AEBF5
3DE7F7E0
3D15080B
3E099E58
BB7D6440
BDBC293B
BD44FFAA
3DBFEE46
3D9A2223
BDF080BD
3DE02F4A
BDF8C3BE
3C641E19
BDE5FD4F
3E293FC8
3D44553F
3E31FC3C
BE051F68
BDA9BCBF
BE29080F
BDFF0F42
BDC5D850
3E0F9A1C
3C6C5E6E
3DC0087A
3DC44A48
BBC5AAC0
BE1EAED4
BC5ACCE1
3E115519
3D807611
BE208821
BC28A4D4
BCA6A3EF
BDBF2CEE
3DA4A79F
BC5F11F4
3DA13FD4
BDE69B58
3DA8A8BA
BDD26A14
BD7F2AAC
BDCB18E2
BC81FB64
BD2A8592
BDBC6869
BD3A61E8
BE216D2B
3DD89162
BD95E7CF
BCF5079B
3CDE46E0
BD9CF353
3C998C30
3D418B44
3D0393A8
3DC53AA5
BDB18F81
3D9998E8
BE05D108
3DE6B922
3D91D3D6
BE15E890
3D8F16C9
BCE05F2D
3C39DBE0
BCB9AA94
BCE7EC7E
3DD45642
BE0DDBBA
3E54AAEE
3EAB53E0
BDDAABBA
BC9B0215
BD825DD5
BE4B6C10
BC7407C5
BE8341DA
3E4E99CF
3D05B8A8
BE9DBD0C
BE96050F
3EA72BC2
BD89F381
BDA83ABD
BD90B4C7
BC742F78
3D07369C
BE7C6A3D
BECD05D7
BE5FFE66
3DA56728
BE58931D
3ED1DB3F
BE1AC823
3D47D8D7
BC97EFF3
BE1F5CC8
3E2798CD
BED5176E
3DF55B7E
3D875A2B
3E139ABD
3D3B90B6
BC2FAFB6
3E2F698F
BE479400
BE87807D
3D9B3FA9
3E418B46
BCDA6CAF
3D9A2EE6
BE3B7E07
BDEFE98A
3E1F77D0
3D516B07
BDDED209
BD57A569
3DF57D08
3E02BF1E
3B53CB42
3D681A5B
3EC238F8
3D8EB501
3E0B8BD6
BE8D90AE
BE4825AB
3DD54757
3DF1A118
BE5160F5
BDAACB80
BE317E95
3E7B5E27
BEA7DCFD
BE8B3A98
3E75F5E6
BED05306
BE70ADE7
BE0B5D9E
3E471B2A
BE89FC1F
3E3BA441
BE0A4969
B9FFB5F4
3EDBD820
BE0F6A5C
BE5323DC
BD99E1E3
3EF982C0
BEE112C3
BE060C96
BDA4A7DA
BE8C83F7
3DFA262A
3DCD4A53
3DE33FA8
3DD2C097
BE23DC4B
3E2F6D74
BE2D68B5
3E1F4772
3E13D8E4
BE021793
3DA99F99
3CC630AE
3E1596C2
BD718C8B
BEA03B4E
3E51FCA7
BE447FD3
BE0A9842
BE74ED5F
BF060B68
BD4DFD48
BE0FBA3F
BD1C7A3B
3DA0E5AC
BCF1BC29
3DE49A0A
BE6E39AB
3E1A6637
BC770A61
3E6D5A6D
BCE5F3FF
3C6B2280
BE890F81
BE4128CC
3E4113EC
BE2FA981
3E4BAC27
BD7F58B1
BC3EE0E3
3DDA01B2
3ED216BF
BD0A4DCC
BE004145
3DA28ECA
BEF33540
3F04D7F9
BEFE41B8
BE444556
BD23D3CE
BC4059B6
BE1B95B6
3E727E37
3C4470C3
3D9248FC
BBF4276E
BCAA4091
BD82BFA4
BEA86B5A
3E0D7F7E
3D930E1C
BDF48F0F
BD268468
BD2C806A
3E1FE983
3DB999A6
BE82AA1F
3DFF33E9
BE8B984D
3EF2DAD5
BCAA4D0D
3D969834
3E53FCA8
3E75F8CD
3EEC558A
BDF07300
BEA9841A
BD29AF6F
3D3EC3E7
BD4D577B
3D07FF25
BE147238
3DCA851D
BE0F1E2D
BE0DF4F1
BDA2EA6E
BE437304
3E4402DD
BDCFCA9D
BD718696
3E15FFFD
3CC15996
BDF0D22E
BDA93459
3EB601BA
3EA89AB3
BE235B76
3E418A1A
3E542636
BDC960FD
BE3BA2DC
BE43037E
3D62AD9E
3ED053D2
3E4025E2
BE52B800
3EC93A32
BC2002A0
BE40816F
3D620F4C
3D8DB7D5
3D11A51C
3ED2B68F
BD8B9DE3
BCADBF0B
BDE8EB4A
BDF4279E
BDD74F2A
BE2D2CBF
3DDD28F3
3E8F1BC8
BE9C7271
3DA918B8
3DC32B7E
BD295C7C
BDC49CBB
BD02BE14
BEA1F47D
3E293546
3DADFDB4
BD991020
3EB3C9BF
3E8FC63F
3E9CD6CE
BA810BBD
BE76BEDB
BDD346D3
3D1C4EB8
BE81D9D0
3EA35681
3E4A583C
3E26300B
3EC9D6BD
BE161C19
3E063632
BE536144
3DA77BA9
BCF4C6E2
3E869110
BE37DD90
3E68D291
3DE0CB0C
BAB68469
3E16865B
BC72EF11
BE1F5C80
3E32932F
BE0CAEC7
3DCF096C
BE36E1BB
3DFF0896
3DFC7798
3D36D695
3E68F152
BE66A486
3C202FAE
BE11EE87
BE3DBEE0
3DABB933
BDF2B402
3DB3423D
BD83D019
3BD15CAE
3BE680DB
3CA7E393
3DF8D57A
3E0BB76D
3D6C9B3B
BE0671F4
3DD1571C
3D489EF9
BAD4F06C
3E09A877
3DE8DBA8
BDEFAF69
BDBBE53C
BDE4620E
3DC0CE4E
BDCA8FB4
3E078753
3DC16EA0
BE0B7BC3
3C800EC3
3D82BA13
3DFA29F6
BDF10686
3D428D32
3D2969D2
3D38E2CC
3DAFB802
BB6C6182
3E0B1CB8
3E17AC8B
3DA2CE29
BDAD580D
3BE63E00
3DA4B3E9
BE0B6D16
3D2B3F5B
3DA5EA82
BDAD40E3
3CC421D6
3D972025
BDDB8991
3D8823F7
3D5BD56F
3E3A7FB9
3E534FC7
3D6EBFDA
BB58281C
BE353470
BD299AC6
BE1EB9C6
3DB2CC2E
BD294D39
3DEEC649
BDC00387
3D9EAABB
3D43571E
3DFD39AA
3E14988B
3DE1FEE0
BE417848
3D817645
BE463375
3D5D247C
3E001527
3E46D9F3
3D62E178
3DBCEB88
3DA0E3A6
BE43F5F9
3DFD4997
BDE8965D
BD041C86
BE141EA8
3E1F749D
BDC63D9A
3E486858
BDF1162E
BDC9AD99
BDFF545E
3C4011C8
3DA1E441
3E514DFD
3E2E1F66
BE608EA6
BD49EF13
3BED2F3D
3E13F6F9
3E456221
3DD6D274
3E102811
3E823ED3
3DD31155
3E6DEE58
BD00216A
BDC2EF03
3E84ED01
BE68FA43
BE4980FD
3D4BBE52
BE57775E
BE58B5AA
3D7614B2
BC7774E8
BD308506
BCCD25FE
BD9DA305
3D730EDC
3E4BCE29
BDC1A46A
3DE89452
3D049E02
3DF44023
3C943925
BD886D62
BAC49060
3D450198
3D293D96
3AB05302
3E52878A
3DC54056
3E432BA2
3D9C2232
BE8D8BB6
3ECC5832
3E2901C4
3DB6D9D8
3D6CFECC
3E9DFF54
BE15ABF7
3EAFC81C
3E2FB2F3
BE220978
3D594040
BD632CD3
3E60E7A7
BD79B39B
BC2544E3
BE8473A4
3E089CC3
3DF96316
BD41100E
3D63AE32
BC89A194
BEB0A2B0
3DE48845
BDD6BB3C
BE8147DB
BDDABD85
BD5D3ECD
3C10DE8F
BDA6DC17
3E70EBAF
3E84578F
3E8033C7
BDC7C8CE
BC0BDD9C
BCE9D02E
3E83CBDD
3DE7DAC6
BDEC4653
3DD614FE
BE33C80E
BDECF1C0
BE05F6F6
BD1B19F6
3DA323DF
BE276011
BDA3108A
BDE2C427
3C309544
3DD927E5
BDA6866B
BB238057
3C7C928C
BCA85100
BDDF155E
BD6CBA61
3E2F04C4
3E024CDB
BD906A85
BDAF08B0
3DE30DEF
3DF93790
BD36C1E3
3D8969B3
BD4E8CF9
3D2437AA
3DAFC937
BD348AEB
BDB70D47
3DF6B62F
3D1292C8
3D0E7138
3E1E4824
3DDCF7AC
BDA4398C
BD68155E
3DCE98B5
BDFEFB11
3DF0533A
BD6501FA
BC27BB29
3E90137A
BD30B451
BE078B98
BE3C2322
3DC677DE
3D03AEAA
3DEADBF9
3DE81A3B
3E15C238
3BAFC143
BE359770
BDA96F9F
3DE6F8B0
BC6C1BC6
3DD6803F
BE0019D6
BD8F7194
BD98E608
3E467CA9
BDEC37F3
BDB5AEA8
3D0D9FDD
BE113EBD
BD25F9FC
3CD321F0
BD16D9CF
BD6F9C65
BD5E948B
BE077B9E
BE0017A0
3D9A4F33
BCC5DA90
3DDDBD3F
BDB7D836
3DACEA80
BE10FC09
3D352B45
3E28FD63
BDFA4FE4
BCBAA193
BD8FA210
3E5E0A77
3CA70991
BD5F226B
BD37C0FD
3E8D71FD
BE1A9112
3D873D14
3DD9DA1B
BC0D1448
BCCCA15B
3DF1F591
BDCD8A35
BD76CD5D
BE017B97
3E07C072
3DED23CF
BBA67D4E
3DCAC8FC
3D1E16B3
3D7A2288
BC1BEC60
3E74235C
BD9A5180
3EEE5920
3DE34E28
3E0EDB7A
3E9AB723
3E24C766
BE601405
3D0B17A0
3CC3769A
3E1BCD40
BD9D714B
BDE5C0DA
BE209BBF
3D07ACF3
BD314BBC
3DF60EA7
3CB85BF8
3F005BEE
3D6DB136
3E0E9FF1
3E151190
3E3C1B93
3E1D9E28
3D84A825
3BF8EDED
BC1C8587
BB8EDF9A
3CF43B02
BEDD8C58
3ED45BEC
BE12CBB6
3B9AF320
BE09DF3F
3D05C24A
3E40FF4F
3E3844BC
BC9E1EDB
3D629271
BE3F4CA2
3D22877F
BE022ABA
BEEF46FC
3D7E4CB8
3C079538
BE14CF4D
BD910013
3D91C5A3
BDCF9F3F
3EB6056F
BECFA6FB
BD688E2A
3E216090
BD901257
3E6242D0
3BD8D89E
3E001B6D
BE055462
BD149EFC
3CBF4127
BD411519
3E0DDF56
3E94611C
BD673869
3DE93126
BDC17208
BE0F6736
BDE05A2F
BE24FEC8
BE17F891
3C9B1069
BDF8C7DD
3E20B20B
3D39656F
BDB0174D
BE34E03B
BE2A550B
BD3C681F
BDDD07E9
3D66AA24
3CABD07F
BD888F0A
BDDBF6DA
BDB81A52
BE16EFB1
3DCC7E7E
BDEFF23A
BC7A1FCC
3E1712A5
BDF33B81
3D7D240C
3D6CBBE1
BE392D18
3E279AB1
3D94A32D
3CE06EEA
3C9CA72E
BDAFBDC4
BE2D0130
BD1FBCF2
3D668049
3D077FA4
3CCC9E90
3E1049CA
3D938A92
3E1EF342
BDE119A8
BD7A5EE0
BE20CFEC
3CBFE01C
BDB0147F
BDAE97F7
3DE47E2A
BDDBFD23
3DE47F76
BDD16EF5
3D6F189C
BE3B2C02
BD7E3742
3E449F0F
BC7F7583
3DDBD0C4
3CC24A5A
3DAD35AD
3DD4D982
3DF47873
3DEB76BC
3DC4D502
BE218DBE
3E2E49BD
3DDBBC6E
3D307CD4
3DD542DF
BD860EA7
3D244EBA
3D6C1DF8
3CB199E1
BDACE011
3E0F49A1
3B7B6238
BDA3645E
BDCAACEA
BE0A8CBB
3DBC6DEA
BBEA5220
3D17F14F
BD540B8D
3D52616B
3DE0FD01
BE241EEA
BD8AAA83
3DE1E23F
3D77E02B
3E4C397F
BE8BD043
3DB0F183
3DA73BB5
BE8F981C
3E245B99
BE06454E
3D0CC2F9
BDB980CF
BE98DF61
3E10E20C
3DF36123
BDCFC2A9
BCF264E2
BE0D4C3A
BD8342D9
3C98E980
BDACD0A1
BE2B5FA9
BE647BCA
BEB148C4
BCAE7CEF
3DA0C791
BD567C3C
3D9C9C6C
3DFB561F
3E263A0E
BDD14905
3E0BC893
BCDD1FF8
BC370C76
3CEA2402
BD819B0D
3E0F7376
3B6BCABF
3D88DD0A
3DB2A128
3ED548AD
BE7CFBA6
3BCE67D9
3E10C032
BE24C22A
3D828DE6
BD347FC9
3E1EB2B6
3D9C8ECC
BE816B8A
3EB2638C
3DD1F1B2
BE645613
BE62ED59
3E986AFD
3E2D3DA6
3E691D94
3EAB685A
BE2F9FD6
3DBB34CF
3E9F7243
3DE8CDFE
BC26B1A0
BE14112A
BA9ADF70
BDC5BA6F
BD3646CE
BD226B50
BE380E5E
3DC35EBE
BDF568F4
3DE3D5BB
BD4E71E8
3DAA480C
BC5BF612
BE2D261D
3E8DEC25
BD294E0F
3E4EB97B
BD3EBB97
BDE8F745
3CAE6C0F
BDF3A533
3CFB7774
3E59DAAB
BE2CC848
BDB6FC7D
3E8BF539
3E89EC04
BEC2B0CE
BE177062
BEA0DDFE
BDE8032B
BDDDD862
BF00656E
BCDB01BA
3E85D90D
3DC8771D
BE638C64
3C6CC51D
3EAAB666
BF19D36C
3DA6EDB5
BC8AA93D
BEBE9BE8
BEB5B528
3D2DA49E
BE83708D
3DDA782D
BE0C5CEB
3E08ED4F
BCF2D2B3
3DFA003B
3EEE2CD8
BD22FCE1
BE2071BD
3C248AAB
3ED7BC7C
BDDDF912
BE0D67EE
3E400879
3E38518C
BE0386BC
BDCC6273
3C903923
BE4ADDFE
3D5F3329
3DB4D1B3
3E564760
BE1365F5
BD2C7DB5
3E060925
BE3F406E
BD1FB60C
3E89D8A5
BD017B9D
BC3BD200
BE94C053
3E8760C7
3E8F1E3C
3D994E9D
3EEB15B4
BD8952ED
3D2E1EBE
3D53E287
BE92F0C6
3DD93A10
BCD1D73C
BDAE2CEF
BE41768D
3DDE80B2
BE7C4303
3E05827F
BE63FA0A
BEE01AA0
BCAB4BF1
3CF0001D
3E3E0948
BE4DCC6C
3E815BC1
3EE29571
3EA957CA
BB7C3BE0
3DB662DF
BDF76536
3EAC0F1E
BDE05D9E
BEAB2C1A
3E36846C
3D909976
BD9451B9
3B8862B4
BDEA4C94
3DA4D674
3AFC8DC7
BD9958A1
3DC52ADE
BE11BD6E
3BF5A8A8
3DACA805
3D70EBD8
3D946E7E
3E18B411
3E0F90A5
BDEBA4E3
BC8EE02D
BDC4A128
3D80CB84
3DD672C8
BBD502C3
3DA5D5D7
BD126BF8
3D0F6224
3D075EC7
3D5AACBC
3CCEDB40
BD935E88
BE461280
BDA6074C
3D8590D8
BE32CBE2
BD8091C1
BDD19AF0
3D11E959
3AB6B180
3CBD3C6E
BD67607A
3DD6629B
BDE76D36
3E195653
3D973035
3E0B92CF
BE159828
3E18B4C0
3DB24F46
3E19C452
3D27BC0C
3C51F8B4
BD365035
BDD8BE09
BDB7A39F
BC984A93
3B0AFE47
BE37691C
BE4050C3
BDF05F92
3E2C61C1
3DA3C525
BE0BA104
3D363974
BDC6CD15
3D640D60
BDBA9DDA
BD08B9D4
3E0C222C
BDEB18D1
BE030D6C
3E028CD7
BE39602A
3DCF5DA6
3DC2492A
BBA6CFD9
BE2EEC4B
3D02D0C0
BD53675F
3C94FF00
BD968722
3C916CF9
3CA1BC38
3C696C44
BCED6BE0
BD1B543C
BD554110
3C876778
BCC9214F
BEDADE38
BEA0AC9B
3E94C400
BDBE221A
3E2979EB
BE19854D
3E1CAA49
3F013E50
3CEA0472
BD20BB57
3DCF85ED
3DEF4D0E
BE0356AB
BE8B8D27
3EE906A4
BE2A3E50
3D265D59
BD0EC6AB
3EB20B65
3C207152
3EA94231
3D2400E5
BDC05D59
3CC3AD50
3D9533F4
BDD3744B
BD874882
BE2B58C4
3E6DD60C
BD087A13
BED07327
3CD2D86B
BDB3F1E5
BDC683A6
BE4CB00B
3D12B797
BE2768BF
BE63B6AA
3E0C67E3
BE9A2CE8
3DB47CDA
BE2E2230
BED503E8
BE53ED5D
BE3764D2
BDCEC39C
BE9A6428
3DD10B40
BD8E443B
BDC78641
3EA9211C
BD80E582
BE3394BF
3D908067
3DB58E5F
BB397131
3E9B70E3
3EC252E2
BE58A6F0
BDA0E199
BD22059A
3C828DB0
3F029D77
BE88164A
3D4962E2
3F24E4FE
3DAD0A5B
3E84E7EA
3D59624E
3D8BC25E
3E1A568F
BE7E3113
3DD9FE1F
3D3AE589
3C70463A
3E44FCE6
BDDA2E73
BC97B53B
BEDDD4FF
BD71B8FE
3DF1EB14
BDAF51AC
3DBF0B4A
BE4AB8E9
3E8DC0EC
3EAED73A
3E81BDE5
BB5C197C
3DECBDF6
BCD42DCD
BE002EC9
BE5790DD
BE5D2E56
3E9367BF
3CC99FBD
3E5B7A3F
BCB5C860
3E0E5030
BE890A2B
3E9D8704
3CE2ACFB
3F0CD514
3D46BA4E
3EB0F9FC
3EC5700E
BE79CC0D
BD0D3AC7
BE3E85E8
BE44DFB6
3DDB46C4
3E849E8F
BE15BCEC
BEA3F929
3EA59810
3D2392EB
3CFAEBD8
BE928A86
BD094E44
3EA99A0D
BC74734C
3E7DA2B0
3EDD1D4D
BE94224C
3E2F135B
3B2216B2
3E9344E6
3ECCC894
3E18A657
BED0F24E
3E1551B3
3C650EA0
3EE4D857
BE3FD847
BE686AE5
3DECDE18
BE5FDB02
3DCA94F6
BDB5E0E2
BE59B14E
3D55F238
BD17AD76
BF078690
BDAAC5A2
BDBD5078
BE1193C4
BE27BD82
BE045B63
3DC2B6E2
3F076704
BCA2A57A
3EBFC780
BDC6CDBE
3E17AA2D
BDEFB45D
3DECFDD1
BD57038C
3DD1BD41
3DE9AEF2
BE699058
3E460F2F
3F0C56A1
BC212A62
BD084B03
3E233E4B
BDC04D40
3E9613B8
3D7C03F6
BE0073C8
BD8E48F4
3DF4B701
BDED0CED
3D1B6B42
BE211EF3
BDE929E9
3E210AD2
3DC893F2
BE2735F3
BD9A98B6
BD84DCE8
3E0957E4
3D6D2174
3E1C9BC1
BD974199
3D0EC698
BDE4AF18
3E2CB488
3E0BBBC1
BCC943E8
BBF88C79
BCD75C68
3DE0BB6D
BDCE7052
3B148280
BE0EDB63
3DD51BD5
BDF2835B
3E1499A7
BC903185
3D7357F8
3DA73C9F
BDE11DAE
BCC04203
BD6F3A25
3E0E53BB
BE186C86
BC4EEB46
BE1626DA
3E19F84F
BE2D90A7
3DF7D1DD
3DA8EF41
3D8BA6B1
BDEDD5B0
3E0AE935
3DA4A7CB
3E0F3B37
BC922AD5
3D3FAC8D
3CA3D44A
BD70C2F0
3DC30ECC
BD3421A8
BDBF358A
BBF4E25D
3DF11C0E
BDEA68F0
BCA9E970
3D4825B0
BB8BB140
BC0CB1C6
BD1A40DA
BD8CBA70
3D66C445
3D457175
BD06ACCD
3E152D61
BD66F648
3DC4367E
3DFE6E31
3DD8B25C
BD85DC6A
3D4CA185
BDAB3C78
BD3B00D5
BC4B5429
BD2053D0
BDF24654
3E0589A1
3E01F736
BDAE50C5
3DB9F386
3D62E535
BCFA9D0F
BE08B66B
BD000A7C
3C989890
3D64AA56
3DF1AFA7
3AA5C100
3DB35A32
BDD3B887
BCDB90B5
3CA4DE68
BD70B53E
BCAFC625
BDBE96F6
BCF7ADB8
BC9BB018
BD9886D7
3CAD800B
BD4F0BD8
3DEC1532
BC3F0A72
3DE06A72
3BE4F460
BE33CF20
BC647340
BDB0184E
BC72C917
3D83574E
3DE7C3A8
BD9B3D4B
BDC44A14
BD247BC0
BC8E8D48
3CADE872
3D626300
BE15F96E
BDBA62CF
3D0F73CB
BD580794
BD31DB41
BDB661E3
BD8DEF68
3DF9D37A
BD01F0F0
BDF4FC10
BDC8D364
3E424FAB
3CBC137A
BD1B1358
BD5844B8
3C879150
BE3F205F
BAB8E700
BCD920A9
BD877136
3DC3349B
3D9D3C6A
BDB5E898
BDAB93B5
3E28629F
BDC2A349
3D989158
BDE5FD25
3E2EA45F
BDE78C99
BDABD46A
BE0A3E15
BD249D29
BCC021C8
BDAFD466
3E352798
BDC06EF7
3E0970EA
3DF14A18
BDC6156E
BDFDC75C
BD279CE4
3DBCEB65
3DDE3731
BD3C8668
3DE50812
BD8C2BCE
3E2B069C
3E385EFD
3E8803AD
3ECC1712
3C46964E
3DC4CBB6
3D81676D
BDA6BAD9
BE494476
BE905320
BE454B80
3D1655E4
3DCD15AB
BE890A03
3E0A6AD6
3DCB2CA2
BE93663F
BD93A81A
BE1867B6
3E2B3BC1
BD6BC89C
BE8AB34A
3D98BBF5
3DB07547
3DC84568
3DD5BC57
3E234DD5
BD16E1AF
BC910F9A
BCB68825
3EA08563
BE3B965A
3D878677
BD3F6E3E
3C88C042
3EA6C9F6
3F13ECA3
3E9FA7A2
3E6E71B9
3E8DB70F
3D6BA974
3E1BA4FC
BD3DC6EE
3E5BC934
3E2C4410
3E5A2F0E
3E8C7870
3C8285AA
3D54D802
3EAF9219
BDAF792D
BD59CC66
3EABE6EE
BE6EC7E9
3D9F4DE2
BC92C6B5
BEA21F12
BEF451B4
BD4BBAAE
BED9204A
BDC42570
3DE1D747
3D118DF8
3E2AC7B2
3D99D717
BE98CB77
3E13404B
3E883E4C
3E07BA3D
BE9A25DD
3D97C6DB
3ED9442A
BDE3A0AF
3EBCB808
BE427EF5
BE749FE6
BC5886DD
BDCE8B57
3EAF6553
3EAA0320
3F09E1B3
3D48F242
3DDCF614
3ED4EA89
3D903101
3D7503DB
BD3B64B2
BDB43F07
3DB7BB96
BD90BF23
BB65A61C
3D187705
BDB712D2
3DB1FF2E
BCBB2111
BE8E01E0
BE26BA32
3E821896
3E4E8677
3E9698E5
BD86F2E4
BE684B0B
BD2B9F9C
BDE38C0D
3E28993C
BE4ACF9F
3D43553C
BB8D0482
BE7895B1
BEB677DB
3D506727
3D5E9C8C
3D06616A
BE22FE17
3EE3BBBA
BEC3C9FD
BE9B525B
3E4D0395
BC745A26
BDFC153C
BDA80726
BE035BDE
BCE119C8
3EC1365F
3E0A0E11
BE47A690
BDFFE615
BE119EC1
3E84E57D
3D748AA2
3E290841
BC24D41E
3E04FE9D
3E1746CD
3DD74689
BDFF79F3
BED1356D
BE9D8955
BE31D288
BBBD2E72
3E2A9F04
BBE47AC4
3C357FC6
3E30DA83
3EC9F840
BE5727E8
BDB266BF
BE42B4AE
BE362886
3E563129
BE2D2551
BDBBE1C5
BD3C05C5
BC108C43
BDE579DF
BE0FB72A
3E5C182D
BDD3EB12
BED04A44
BE532A4D
BEC30DB5
3DEF271A
BDBE6AEF
3D451CDE
BD9FCD8F
3D781AAB
3ED7ED37
BE710BEC
3CB98CBD
3DA6C383
BD8E1890
BE3476BD
BE14426D
3D8ABB13
3CB56BCB
3D47C27D
BDB8B05C
3D38BD3C
BD66308A
BDBF3FF1
BE0A6049
BE60C347
BDA7EAA4
BC95EBCD
3E1EBABE
3DA24BD8
BE325D69
BEB82479
3DB668A9
3E037A74
BEA84EE2
BDBC78A8
BD1A4AB3
3ED0694C
BE14C6C8
BCC23491
BE7DFE4F
3D1D7ADE
3E971801
BD734B76
BE913EE5
3C9490E7
BD6AE8BF
3CF2E7AD
BE719008
3C949CC6
BE918A20
BD63D3B9
3E1D39A5
3E5E7791
BD4B9846
3DAC11BD
3D0C1959
BF34B984
3E31BFA7
BE4FC974
BF33A3C1
3CCC121E
3E37D51C
3D7E7539
BE2E92E7
BEA45F38
3EA2AAF2
BECC9E04
3E13EEB4
BEAEDB2D
BD93266D
3D6EA0DC
BE32A395
BDA21D9B
3BC3A8AB
3C8CECCC
3EB59195
3E9A34FA
BDD8BBA4
3DD84B32
BD4D5CF9
BCB0091A
BE9C0E7D
3EC12525
BDA74CB1
3E457990
3E3DEBA4
3D73ED77
3E02C88C
BEB387FE
BE0BF119
BDF9E6B0
3E19601E
BD91CB82
BDF27B59
BE718B62
BEA3FC3F
BE49AEBA
BD1EC3D3
3D314BA8
BEA98FBB
3DD5731A
3CA95375
3CEA4CD6
BC33EAC8
3DFF716C
BE377EDB
3E330F70
3E54F59E
3EC44B64
BE745972
BE4A507D
3B17298C
BD5C0924
BE28C024
BD9CD881
BF0EF72D
BD88628D
BE0CB033
3DD1BFEE
3DFA0D83
3DD3FF86
BE634215
BEF5AAFC
3DA04363
BC728669
3EAA1D60
3D0D70D3
BBB1F30E
BD7F6482
3CA15397
BDEDB6C0
BCE015AA
3C4592FF
BDE98017
BE4B43AF
BDF23788
3E491A31
3DEA3DCC
3D969D55
3D825391
BE8EA59C
3EC6BCD6
BED9D332
BEE8EBD2
3E7B21F8
3E3706C7
BDCE2BD9
3D8FAD9D
BDFD3870
BE029A08
BE102F9D
3F088680
3E32B5EF
3C277F00
3E65B7F3
BE174F18
3CD4ED05
BE7999AF
3DE661D1
BCE1F73B
3EC1BE0D
3DEA4DB6
3E06F4B9
BDA87663
3E43A8A7
3BA9493D
BE3F1950
3EC943B8
3C053651
3EA754F5
3E0F0376
3D94AEB5
BE41FC22
3CD626DF
BEF34D7E
BB823647
BE73B278
BE50EC2D
3D9FA96E
3E01DCBB
BBF82620
BDC8A5DD
BE189D2A
3D5A24C8
3D28F7B8
BE2DB71C
3D0F0CF4
3E11669D
3DE1BA72
3D24E4FE
3E15E2F2
BD816CFD
BD196DD7
BD623BAA
3D325B45
BD92144F
BDBA96A4
3DAF9E8A
3E0F1B6F
3DE1CF06
3B3E7189
3D35478A
3D2E9048
BE0E6148
3E448BA7
BE130F9E
BE0AD178
3E2C062B
3C215A20
BDD7DEC2
BBEB7C98
3DFD65B5
3E27C559
3E01BCF7
BD94035A
BDB3EF2D
3E2B77FB
3D5B4A2C
3E2678D8
3DE5C856
3BBA6D23
BE18A334
BC527CA2
3D78E1E3
BE4A4548
3D5B2C1A
3D7C48D7
3D0E4DC8
3DB5B41E
BD87B1DA
BD077194
3C7FC890
BC0802B6
3CC49A02
3CE7D5B6
3DE8F787
3DB15D0F
BDD459A4
3D9C382E
3E008A0D
3DD410AA
3E29BBAD
3DD81C02
BC803012
BA526800
3E343158
3DCA4DEA
BDC16AE1
3E21D568
3E2CC061
3E08278B
3CF1A2FB
BE0D3F57
3DCEFAEE
3DF326FC
3DD8AB13
BC071E10
3E35E9C6
BC9348D0
3E4CA7BE
3DEC7F2E
3DD242D2
BE23F49E
3E4278C7
3CA25C98
BD84E9E7
BE2B9905
3E003DDE
3D4FEB8C
BDEEDC2B
BD258AEC
3B0947A9
3D534092
3D96493A
BDCB1D36
BE12256F
3D0647EE
3DDE3099
BCD713E7
3AC96B0D
BE2A5E9B
BE2E3CCE
BD3DFAC3
BD4FA568
3E2315A2
3E331B85
BDA31796
3E0F9BAC
BC01023F
BE2947AA
3D7ABBCA
3A69DFF9
3CB73629
3E179D53
BD87384D
3DC8D983
3CB7DBD0
BCA6A160
BE34F027
BE1ED404
3DB6C16F
BE0405FA
BD39DF6A
BD0ABB21
BCFCDC7D
BE0B0BC6
3E773558
3E155B79
BE0BD676
BDF66A20
BE3BC363
BDC3B353
3DD2B620
3D9989B0
BC17006E
3E493A6C
BE10CAEA
3D4E421C
BD4E5D1C
BD0348F4
3DF222C1
BCEC29CA
3DE044DE
BDB82EF0
3DF2300A
BCDD7C18
3DC419D6
BDDFEBEE
BD2C9161
3E46FAC0
3D4A8D1D
3E4D740A
3C95E3EA
BE1B7692
BBADD116
3DF7AF3A
3D904140
BA0F9EF8
3D90EE5E
BCE35C44
BE50C844
BD9ED0CD
BDA45476
BDF5F9E5
3D98F719
3E693502
3DDC6067
BE5CC20E
3D9CBD44
3E0BAF5E
BBCA3A0B
3D7751F1
BD9CF4B4
3D9B4BD4
BDDEBDD4
3DE39261
BE6099BC
3EB31203
3EC7A4FE
BC2CBC70
3ECB90D7
3E71DB89
BE966B4C
3ED19BC1
3D67405E
BD19B981
3E002F83
3D971CA7
BD8415CD
3E7858D0
3E17C5E0
BC12895A
3E2A9197
BC8BC27D
3BC0321E
BD48FDED
BDB94F10
3E264066
BDB63F17
3E8EC1D7
BE3D3669
BDAC36EF
3EC96868
3E03C2F1
3E83029F
BDF680CB
3DE68C7B
BD846614
3D8F57F9
BE2600EA
BE9995D0
3E478252
BD61F2A3
BE754183
3ECD017D
BC4F59D4
3E0F7269
3E345FC9
3D3CE591
3B47E067
3EB130A6
3E0A53DB
3E7FCDBA
3E5E6B21
3E1442D3
BE01CE5A
BDBE5A95
3DD2EE71
3D25765E
BE04DADC
3C01C5BF
3E021BA7
BDF08F2D
3DAC2124
BEB03A5A
BDD07ED5
3DE4DB5E
BB100CD3
BE1E494B
BE12BE8F
3C525137
3E8A1CE8
3D59223E
3CD394EE
BC9DB8F2
3DB61AE1
3EAE6450
BE272869
3C1639BD
BCC92134
3D9C2CF9
BE6E76C5
3DBBBF62
3E27CFAF
3E365F91
3E85D89F
3C41B931
3D8DE9AC
3ACBCB9F
BD6BCA45
BD566E2D
3DFDBEBB
3E96C8CB
3D583FB6
3CB06DD4
3E238692
BEA28D1A
3E9FDD73
3CEF7787
3DC24996
3E711C90
BE1A1BA2
BDA57DC5
3E4948AF
3DCAFAD4
BD9DEAFC
3EB09BB6
3C9B24C0
3C4BB17B
3D802D15
BD7BEEA8
3C74BC8A
BE01809C
BE7CC230
BD89084D
BE63D4AF
3E6258A0
3EE78775
3E34E45F
3E593605
3E257F24
3D90B8B7
3E473C17
3B313482
BE553501
3E72AE99
BD6E224B
3E955202
BDF1FE80
BD1A97A1
BE33BADD
BDF68C06
3E4F2C5E
BE84C9FD
BE89CBBB
BEE375E2
BD9E04B3
BDAD82B3
BE3A79F2
BE79ABC4
BEDB21CE
BD3A4618
BC0F8D60
BDEE328D
BE0D9109
3E3C63BC
3C8FEC3D
3E39DB4D
BE63E4A7
BE9BFB32
3EB7A641
BD59DF30
BDD35856
3E20E7B9
3EF0C9C2
3EA930A6
BC90FF42
BEB037DD
BD4496EF
3E7DEA29
3EAED522
BD795114
BCB99843
BE297035
3EBFD7B6
3E325A7B
BCC865B7
3C039FB7
3CE347CB
3DD0747C
BE165BBD
3E2E4C6E
3D7A29D2
BE149075
BD1C1488
3EC41853
3E1AAAD6
3D4C9077
3EA83DA3
3E51BB08
BE1E68FD
BE66B121
3D9B37BD
BDAE5845
3DE4E67F
3CD1805A
3D0FE2BB
3DDA8533
BE2CCECB
3DBCD3DB
3DF5673E
3C76E230
3E0FBF50
BD44D089
3DB42321
3B91D023
3E870BE5
3D912319
BE2AEA33
BBDC5022
3EA3969B
3D1A6BE9
3E080E13
3D35F34F
BE003FDC
BE64B01F
3E910A78
3E2A1E98
BEC08FD7
3D8EE332
BDA705CF
BD43DD06
BDD27A35
3D82F88E
3E6B3AE7
BCC74BB0
BD57C319
3EB7C8F9
3E6FD62D
3D1EB21A
3C05412B
BCA92C9B
3BF6FD39
BCE471B5
3DC54D77
3DA8FFAF
BCE5E35E
3DAEAD5A
BD830162
3E891EA2
BDC21F47
3E825B72
BEAD6B20
BC7FC614
3E5F9A97
3BAC35AC
3D2DDE68
BDBB0DB3
3EA165E7
3ED5BF53
3D51513F
3C33FFDE
BDC3496B
3D0F5E78
3E6C74EA
3D984690
3E47FD50
3E4DBE88
3D93D7E0
3DE89D61
BE8A9DA4
3D97F4BE
3DF87E29
3E593D18
3D84B8B9
3DE1E4A8
3D0F2830
BD45DF8C
BDFF76F4
3D0CED3A
BB3621CA
BC6ADF52
3E135C9C
3D36799F
BE46DB3C
3DE31DAD
3E44EEB2
3D850ADA
3E4A84DC
BA1AA142
3D947827
3E14A7DB
BE27368C
3D83934A
BE17A011
BE26C8D0
3E824DCD
3E7F7D0E
BBFF6C43
BE3A1065
3BD94C66
BDB6297F
BE4BAD67
BD27C377
3DEAEF1E
3DB22C07
3C72411F
3EADDA08
BD202678
3E08EFC8
BD9E679E
BDC47BE4
BDF569F6
3D76C65C
3E52BAB0
3DB819A9
3ECCD44A
BE69DA37
3E365ACC
BEB523DA
3CFB9B52
BD02080E
3D0714CF
BE5372A5
3E8FAB16
BDA9C001
BBA4CD9F
3DDF5348
3CAAFCE6
BDC277AB
3D90CF28
BE3B2983
3D325D48
3E98721E
BE5B81F5
3D867454
BD81CB44
BE0DC777
BDEFD04E
3DB9FE76
BD65B898
3E1E4BF2
BCEF2B12
3C669247
3D05454D
BDDDE72C
3E286BAD
3E9262A1
3E96466E
3E44813D
3D5B2E42
BE6130FA
3EBD5B22
BCBA50A8
BE26210E
3DD79972
BE462DCB
3D29C640
BD94D7DB
BCE9C33E
3DBA64B2
BD6CD9B6
3DF0DE16
3E119202
BDABDE30
3D603644
3C5962A7
3DC3230E
BDF120AA
BDAB4046
3D8FEA0E
3E2E42CB
3DC75FBE
3DF035E6
3DAA8946
BD140CDF
BDA7014F
3DA1B87E
BD8E3BDA
3E1F1917
BE2822DD
BD31D950
3D6950AC
3DF94DFA
3E3F78A9
3CE014B8
3E22F7D7
BD920534
BDEF5050
3E0A3207
BD7778D2
3E2CF6D7
3DB98D2E
3DD3E766
BCBAFF99
3DA9CCE2
3D0E3010
BD415DBB
BE14F046
3DFFA1DE
BD6A7876
BE3F8EF4
3D5E4B64
BCBC2443
BD9FBB49
BD16AAB8
3CA0223F
BD70DA74
BDE4EB20
BE46ADBD
BE0CD9DC
BDCA752A
BD635D6C
BC71DE90
3CFFEDC8
BDCD8939
3DF8C042
BE22FAD7
3E2A51D7
3DE9CBAF
3D85A822
BDB2B0BD
3D53EE30
3D18DFB8
BE1F4447
BE1989A7
BD7F5363
3C901448
3E20A233
BDA36CA6
BE026E9D
BDA9A171
3D769854
3D9CE3F6
3DEA9D3A
BB4E0480
3E04C9A7
3DABAA64
BDD58A70
BE12B9CA
BD4257BF
3C006853
BD260FA5
3DE3A196
3D22076D
3D4F9B0F
BB1ED52F
BD79BE27
BDE5C68E
BE1EB1BB
BD2D35E7
BD09BA53
BDCF83FD
BD46CE3D
BB4AF586
3BE6116E
3D87689B
BE022EE2
3DFDB991
3E2C22E8
BDBDD4FF
3D7F1234
BDED396A
3A4C0200
3E0B4D67
3A0B0BEC
BD9C9889
BDD5B625
3BDD4524
3E41ADE5
BD2A68A7
3C87DE2E
BDDBF40C
3E00E956
3B445580
3D1967CF
BE1E130C
3C6F6D1A
BD52658A
3E0CFCB6
BDA9F381
3D639576
3D55D8E9
BD83A7F8
3D90EEBE
3DDC0C95
3DF527A4
BCBA01DF
BE19E908
BD8CD0FE
BD74BD58
3DD46378
BDB320C8
BDC3D37D
3CBC70F1
BD6891F1
3DC1FB50
3E2E5EC0
3C4F0240
3E033FA1
BE0F7FE6
3D665260
BD2BBB1C
3E13D70D
3D42D720
3D81B53E
3DBA1DFA
BD8E7171
3E12EC2E
3E2573B0
BDB446E7
3D76F975
3D4D4870
3E2D3061
BCBD511A
3D4AF15B
3CE7C195
BE191518
BE0D5D2F
BD5EFECE
3E14719D
BDE44520
3E6774FE
3DA7E9D9
3BB851AD
3E6C748D
3D7EBD60
3EAE68E5
BE57A59D
BDDC5E5C
BCD068BE
3C910A66
BE8BDAA7
BD945AE2
3DD2A970
3EB0C8A0
3EBF5AA6
3E86A527
3C8699DD
BDCCB61F
3E6C1D23
BE3853EE
3E04C958
3ED52FF9
BE5098E1
BE54B882
BD89012E
3C26C763
BB5B4920
BECF0419
3DC67E29
3ED7CDB1
BE6CA93B
BE7C5FB6
BD846BFB
BD88CEE9
3C331987
3EC9762D
3E8E3AFE
3D0BE93A
3E7BA5CB
BE1097A9
3E720328
3E6D2106
3EC6B5A1
3DFF5A51
BE851060
3E8255B2
BE67B97F
3D564E1E
3ED0133A
BD96933B
BE042A7B
3E82FD57
BDB01216
BE6C97E5
BDDB61E7
BEA4FBA6
BE9D1C04
3D5793CB
BE9A350D
3EEDF4A8
BDF76435
BD33666B
BE0BE260
BDD9D521
BDB23ACE
3EB2F0B2
3E034530
3E15DDCB
3E45FF73
BC502537
3EAE1401
BE5A9ED1
3E334030
3C8F7513
BCA26053
BEE39766
BD1D9B06
3E4956D5
3CBC23C2
3E91207E
3D573F0E
3DF745DA
3E89C303
3DC4AE76
3CEDAD63
BBC0BE2A
3CAE8EA2
3D9AD21E
3E3354D0
3C113FE3
3DAD4D4A
3D049464
3D5FA041
3E400F21
3DF220CA
BD9AEAEB
BD5AB388
3E15E8A1
3E7970E4
BE0FD988
BC7454A0
3E038573
3D49D9B9
3E1BAA38
3DABCDCF
BC57ECD0
3D810F34
3E0654C2
3E534536
BD3135A0
3E78EC9A
BDEA627B
BDF16AB6
3E046444
BD880CF3
3E33C04C
BDA091D5
BB17C6C0
BDBF792D
BDD20A14
BDB29139
3CFF99E8
3AEF6665
BD85A971
BE112103
BDCB1EA1
BB8112F4
3D975AD5
3D885FB3
3D1E4574
BDFC2C68
BD21CB8C
BCE17672
3E80CBD8
3E149B8B
BDFBA4E6
BCC22550
BD32698A
BCCE6EC8
BD5F009F
BD05678B
3D9B09F1
3DDF735F
3D183330
BD763B8C
BE11B8EB
3D3001F4
3D1A0182
3BF75175
BDA17162
BE075552
BDD29112
BD85CA33
BDBA51A3
3CAE2818
BC8EFFDA
3D0DAD79
3E4DC312
3DC0179F
3E1E263E
BCF81CB8
3B3A1D89
3DE434E0
3E393A4B
3D6B510F
3CA47D10
BDB5A71B
BDFE3F04
3D8B509E
3D5D9BC0
BE1D1787
BE278835
BCE7C14E
3DA420C9
BCD282FE
3D3CB978
3E14700F
BDBE57D6
3E11841D
3CA69E70
BD85BF1A
3DDA013D
3E05916F
3D633684
BD2F8E74
BD1A1A31
3E003A51
BE0C20A3
3B71A680
3C995287
3BFC4960
3DBD3E9D
3DF1E750
BD107FA4
3E470998
BE21F00A
3D26E12D
BE18F036
3DADD4F6
BCD8FCAB
3C8B1D69
3DE6B8DF
3C308ACC
BE2D0148
3E19507D
BDDEEC99
3D8C3BCF
BDE02501
3DE90F02
3D6DEAEF
3D0A490E
BE42DE36
BCCD21FF
3DDB5B5A
BD687E14
3D2D811F
3DAC3066
3C61B7A6
BDEE7BEC
BD193617
BC5008F3
BD1286E5
BE1698E5
3E3CF188
BD576D69
3D418574
3DBED398
3D73BA2B
BE2A1068
BD2C4D64
3E00905F
BD0E1CA4
BDBD88C8
3DDD6CEB
3E454010
BD2C1804
3E2B6135
3E251D49
3D905D40
3DF599B2
BE416B80
BDE659EF
BD981568
3DCE341A
BDB88EF5
3C051A2C
3DDCD5B1
3D9B1DB4
BBB09180
BDEED13B
BDCEEF75
BE046210
3E622243
3EF610A7
3E3F2CBC
BE26D62C
3D0B68D3
3DECA40C
BE76BED1
3DF6698F
BE10D69E
3D18012C
BDCA0B50
3C055A61
3A88D093
BE50789C
3D01EF8C
3D24E238
3DF9BD87
BE52EE46
BE663524
BEAEC6CF
BD3FBA27
BE1F1E8B
3DAC4085
3CF43AB4
3DF2B81B
3CA82063
3E28A078
BE976DBE
3DC976DA
3E67C6EF
3D81E588
3E1D346F
BE56F784
BDAF4881
3DAE36D5
BB421810
3E830E8A
3DADCCF7
3DF8E7D4
3D1A43BF
3E54793D
BE62396C
BDCD4A90
3F053CF0
BC9F421D
3E76B84E
BE2C2212
3D9E8D6F
3D0DCBD0
3D99A5FF
BDAFB8C0
BE17193F
3E239FED
3E8EEBE8
BDE5609C
3CBC23A0
3D69DA82
BE8F2844
BE5E1465
BE002271
BDF85680
3DD25B3D
3DA99059
BEAC372E
3E0FFCF3
3CCAB584
BE783B6A
BE2A8574
3DB03EEE
BDB4FDD4
3CB59999
3E087EF8
3EA90C89
BD9F77B8
3DE358F2
BCADC764
BDAA9CC3
3DF2F36F
BD3CC83D
3ED7DB50
BE066A15
BE552C85
3C983DCF
3D8995BC
3E2B2B8F
3E138BFB
BCFA722A
BD8B49A5
3D601F29
BDF5F15A
3C827331
3D247CD0
BCEE5ACA
3DB7ADF3
BE1D9C5C
3DDC08CA
3DC570E9
3DD5C099
BD7DAB6D
BC09E1D5
3D0D5C78
BC2DB13D
BE224CA2
BE2EE752
BDB5E2AD
3D205318
3DB7B262
3D641CC5
3E5CDFBD
3E2C63F7
BCC33AA8
BCC08A35
3DC601EE
3CACB397
3E048BC7
BC818458
3D620369
BD1FA855
3E2DAD81
3CD6385F
3D6D2354
BD860D09
BD2400CA
BDD0C5E2
BE1CC906
3D8739DA
3E031D9C
3D3A2069
BE4B7D22
BD26EEE6
BCFECE4A
BC1932AD
BD976356
BE303397
BE0442BE
BD493BDB
BE4A7B7A
BDADD325
3DCBAD99
BD57F243
3DDBCB54
BD27DFF8
BD5222CB
3DB50CA6
3DA9D816
3E25149B
BDA1C097
3D0B3C2C
3D90AF54
3CD0D07B
3DF60DF5
3DFF42FA
3D455324
3D900670
3DDE6DCE
3CCFBFC8
3DB4F244
BC1E12BB
BD25162E
3E6608A1
BC24EA80
BDC8EA99
3C99ACC0
BDF88DD9
3DB5F7C2
BD4641DA
3E3F11E2
3DFD43C4
BD917A55
3DEB301B
3DC5A9C4
3DD6F9A2
3DF119FB
3D17C633
3D947ABB
BDE905AB
BDDB3732
BE05CD26
BCCC27BB
3DF92F1C
3E2B2CF1
3DAF8EA9
BDE59331
BDEB6C3D
BDB73878
BE182A76
BDCD1DDB
BD9C8D12
BD9FBBAA
BD71C3E2
BD87B1BF
BD9E15F8
BD017351
3C6E79E9
3D38454F
3E1D25B3
3DB813D0
3D8D6766
BD698C6B
3CABBA23
BE289E33
3E15DA63
BD5D64D4
BDC1DCDD
3A847E80
BE066F56
3E5CE680
3E10EDA2
3E0334FD
3DAB10EB
BE0540F8
3E2BC8DD
3DF286AD
3CB6C8F2
3D499692
3DD0935E
3E07E649
3D87E25C
BC97EA37
3D206957
3AAA6AD5
3D8C9920
3DB36D64
3E04C0AD
3BEC5772
BE04C2F3
3D0224B6
BE0078AE
BC7C683E
BDBEBEA8
BDBED3DF
BD6B2CD2
BD1F442D
3E02CE0A
3D24A087
3CA8AEF2
BD2558BD
3DE88622
BD9FBCF8
BD0874D1
BDF339CF
BD75FF99
BC2FC98E
BC08B29A
3D85737E
BD8958E2
BE088B59
3E52E47C
3DA91A00
3D753DB4
3E17D94B
3DAEEC66
BCDC5118
3DD1AA73
BE13A3BC
3E03D61D
BD732BB6
BE14FD89
BE05B1F3
3CC4BA82
3E296EFB
3D63588D
3E78411A
3E14CE11
3E05FF22
BD592193
BD8D8F1D
BD0F34EA
BDE477F1
BE0B715E
BE01E03B
3D62467B
3D53A659
BDFE4C97
BE04EABE
3DAB8012
BCB5C0FA
BDF61DD6
3E22385C
3E206A55
3E234A89
3DB20594
3CE0C2E2
3D6DDBE5
3DB0BE26
3C6077E0
3E29B694
3DB0CC5C
BE037222
3C62EEA0
3CD853C5
BC69CA40
BDF6561B
BD931285
BD4657D6
3E26C037
BC03FB70
BE53B61C
BCB92670
3DB26249
3E33F653
3CB5F7F5
3E04254F
3DD1342F
BBD22754
BCE4C421
3DDA8BF2
3D178ADF
BE20FEAB
3DA591D1
BDE52388
BE06FE8C
BDFFDCA6
3D81317A
BD9E7D3E
BE086DE8
3D995F31
3CA0A02F
BCFA2F77
BE4BBAA1
3E019338
3E2B689B
BDE3CEAE
3D4B1B81
BD269A74
3CFDB4F1
3D59D7C4
BC2C432D
3DA626B2
3D305983
3E29E857
3D36176A
BDD69F24
3D878475
3CC9115D
BC9E8573
3E6A2516
3C31C923
BD86E1A2
3DB5B377
3CF0A734
BE09E1AF
BE120155
3DFD1E61
3EC6CDB0
BCE69D0C
BE77DAD5
3C7A531D
3E74F6D5
BE5ABE2D
3E416353
3E04E6FA
395335BA
BD5F2503
3E0D7831
3E82FBA8
3E88BB68
BE00F493
BDA051AB
BDDA8A80
BE2350FD
BD00D0B2
BD5B4033
3D334CF6
BDFDD44B
3E4164E6
3E887491
BF00362C
3C37530A
BE353AC1
3DDDDC99
BE732522
3E3DA5DD
BDA1338B
3EE9FB2C
BDCE0494
BE6ACD38
BE002206
3E30B66C
3EA0CED4
BE51596C
3C21D79B
BE5ECA59
3D3C4FA8
3D109B30
3E3E374D
BDFB7E71
BD9494A3
BEDE15CA
BEA69DE3
BE73FBF8
BD77C4B7
3E9FB278
3DF40B00
3DBC5F8C
3DE4F50C
BE18C664
BE4257E3
BE5D391F
BDA0AAAF
3EF15930
3E1B68F7
3E931943
3E7BD063
BC53A97F
3B2FB2DA
BCFA75F2
3EF7D281
BC8DB2C0
BD04D2E2
BE8B5F50
BEDC5D28
BD7658CF
3D642B9B
BD4B5129
BEAF9489
3C9613E3
3E77327A
3DAABD0C
3E00DDCA
BE1EE264
BE4BCAE9
3E4377BD
BEBA55D1
BE2F0487
3DE20848
BE3B213A
BE2F7B24
BEEB9502
3CF72DB6
3E9C272B
BE204D78
BDC480BD
3E18A7F9
BE39B876
BE16AB3B
BE574513
3D50093E
3D752E6B
BD0D3461
BE0B2E9E
BE0CA2A2
BDD070BE
BC9040E7
3DFDFF30
BD6AD831
3EB26BFF
3E445BB5
3D12AEC0
BE8C259D
3E57E871
3E43EF90
3D4C8416
3E571649
BEAE22AA
BE1D8957
3E19C90B
3DE1FFB0
BE3EFEE2
3E631031
3DFD1591
BD9B3D50
BD2992E4
BE86DC15
3C52D3E1
BE1264E0
BE9A885F
BE3BC776
BE06B8B1
BED85576
BD941024
3E26C963
3E03619B
3EA681BF
BDF5352E
BD9945EB
3E835567
BEBECCAC
BE8CA542
BDED6DC5
3CA10D83
BE2353F4
3CB0C319
3E32B487
BDDD8956
3E43E6F7
BE81ADD4
BEA8D1AF
BE8D124D
3CC28A99
3DF03EFF
BC93B8E2
3DF77161
BE0A7B9E
3D3C3B0A
3E6FC972
BE254517
BC9894DD
BC8BA346
3DBD1C5C
3E6AEB32
BDF36B66
3DBFD2CD
3E38B378
3E0DD29B
BEB86BDF
BE5D1CD1
BE277BAD
BE003DB4
3D5511F2
BDCA67D1
BE90DC16
BE37586A
BE04830C
3DE785FA
BDA94570
BEA3C3A4
3E4462D3
BE8DE9E3
3E0E6F8D
BEAA85FF
BD13EDB9
3E1E3178
3E346B67
3E890441
BEBFEC1C
3B978D86
3D9C010F
3EC87C8B
BD0D0378
BDA97606
3DA57DC4
BE341F44
BDC88C65
BDF89493
3D8228D9
3E6C3B28
3DB0592C
3DB740D0
BE8E67C9
3E97A072
BE445F1D
BF0636DA
3DD7D7B7
3CF5AC12
3CBAA0D3
3ECC3A2A
BF0C0669
BE92E8A3
BE13AEAD
3E8837E2
BE904A65
3DF560AD
BDDEC49A
BD783365
3EDF1CBD
3E525614
3EABE907
3E876ED0
3EA5BDC9
BE8AE6F2
BC405BF5
BE35E743
3DEE9845
BBADA5AB
BE60F561
BE09D5DC
3EDA2068
BE483A2F
BA3173F9
BCD6BC82
BEFB5ECE
3E393169
3D20A423
3EF3C2BE
BEB186EC
3D2C4000
3DC80C54
BCC22F5E
3E714DF3
BC83D86E
BE23F7B3
3EBB6F07
3D4CFC95
BE6E5D0D
3D624EAF
BC307FB0
3D00C98D
BE6187BE
BEF55769
BE73593D
BEDFC2A0
BDF40990
BD7CE188
BE00EA1B
BE4C4EAF
BE22273A
BD1EEF50
3E7FD45C
3DE1AE03
3E93D7D3
BECBA556
BE26B6FB
BE07741E
BD1D436D
BDB678BF
BD085929
3EAB3406
3D58F1DF
BD4ED903
BE7A5927
3E239DC2
3D506072
BE4C7D2E
BD8686E0
3EA1AD62
BDDD33FE
BDC54183
3DDE1E51
3E3B0B29
3D4064CB
BD7CF1C4
3E98E730
BBAE915B
3AD80183
3D837598
BEAC188A
BDE9BD54
BE43D7C2
BE0BD3A0
3F060932
BDB7FEFA
3A1C6982
BE80885F
3E35CC78
3CBF60C3
3EE0158C
BEB81D22
BD250BBE
3E96C74A
3DE78B2C
BE4A3751
3EEA7383
3EFF7A13
3E1743B8
3E8F28E1
3EEB0023
BE6BC65F
3D4A94FB
3D7F28EA
3C891F7A
3EC299F6
B9223CC4
3C1E43E8
3E9C56EB
BDEFCD7B
3EAF1EFB
BD854BD4
BD5D00B8
3E92C358
BF14450C
3DC0462C
BE67D65F
BDF0CD30
BDFF3B77
BD371273
3EA35E7F
BE3F02E2
3DEFA001
3E8BF40D
BBF1403E

